{
  "version": "1.0",
  "truncation": null,
  "padding": null,
  "added_tokens": [
    {
      "id": 0,
      "content": "[PAD]",
      "single_word": false,
      "lstrip": false,
      "rstrip": false,
      "normalized": false,
      "special": true
    },
    {
      "id": 1,
      "content": "[UNK]",
      "single_word": false,
      "lstrip": false,
      "rstrip": false,
      "normalized": false,
      "special": true
    },
    {
      "id": 2,
      "content": "[CLS]",
      "single_word": false,
      "lstrip": false,
      "rstrip": false,
      "normalized": false,
      "special": true
    },
    {
      "id": 3,
      "content": "[SEP]",
      "single_word": false,
      "lstrip": false,
      "rstrip": false,
      "normalized": false,
      "special": true
    },
    {
      "id": 4,
      "content": "[MASK]",
      "single_word": false,
      "lstrip": false,
      "rstrip": false,
      "normalized": false,
      "special": true
    }
  ],
  "normalizer": {
    "type": "BertNormalizer",
    "clean_text": true,
    "handle_chinese_chars": true,
    "strip_accents": null,
    "lowercase": true
  },
  "pre_tokenizer": {
    "type": "BertPreTokenizer"
  },
  "post_processor": {
    "type": "TemplateProcessing",
    "single": [
      {
        "SpecialToken": {
          "id": "[CLS]",
          "type_id": 0
        }
      },
      {
        "Sequence": {
          "id": "A",
          "type_id": 0
        }
      },
      {
        "SpecialToken": {
          "id": "[SEP]",
          "type_id": 0
        }
      }
    ],
    "pair": [
      {
        "SpecialToken": {
          "id": "[CLS]",
          "type_id": 0
        }
      },
      {
        "Sequence": {
          "id": "A",
          "type_id": 0
        }
      },
      {
        "SpecialToken": {
          "id": "[SEP]",
          "type_id": 0
        }
      },
      {
        "Sequence": {
          "id": "B",
          "type_id": 1
        }
      },
      {
        "SpecialToken": {
          "id": "[SEP]",
          "type_id": 1
        }
      }
    ],
    "special_tokens": {
      "[CLS]": {
        "id": "[CLS]",
        "ids": [
          2
        ],
        "tokens": [
          "[CLS]"
        ]
      },
      "[SEP]": {
        "id": "[SEP]",
        "ids": [
          3
        ],
        "tokens": [
          "[SEP]"
        ]
      }
    }
  },
  "decoder": {
    "type": "WordPiece",
    "prefix": "##",
    "cleanup": true
  },
  "model": {
    "type": "WordPiece",
    "unk_token": "[UNK]",
    "continuing_subword_prefix": "##",
    "max_input_chars_per_word": 100,
    "vocab": {
      "[PAD]": 0,
      "[UNK]": 1,
      "[CLS]": 2,
      "[SEP]": 3,
      "[MASK]": 4,
      "о": 5,
      "е": 6,
      "а": 7,
      "и": 8,
      "н": 9,
      "т": 10,
      "с": 11,
      "р": 12,
      "л": 13,
      "в": 14,
      "к": 15,
      "м": 16,
      "д": 17,
      "п": 18,
      "у": 19,
      "я": 20,
      "ы": 21,
      ",": 22,
      "г": 23,
      "б": 24,
      "з": 25,
      ".": 26,
      "ч": 27,
      "ж": 28,
      "х": 29,
      "ш": 30,
      "ю": 31,
      "-": 32,
      "ц": 33,
      "щ": 34,
      "э": 35,
      "ф": 36,
      "1": 37,
      "0": 38,
      "2": 39,
      "»": 40,
      "«": 41,
      "\"": 42,
      "e": 43,
      ")": 44,
      "9": 45,
      "(": 46,
      "?": 47,
      ":": 48,
      "a": 49,
      "o": 50,
      "5": 51,
      "3": 52,
      "r": 53,
      "i": 54,
      "4": 55,
      "t": 56,
      "n": 57,
      "!": 58,
      "8": 59,
      "—": 60,
      "6": 61,
      "7": 62,
      "s": 63,
      "l": 64,
      "u": 65,
      "d": 66,
      "…": 67,
      "h": 68,
      "c": 69,
      "/": 70,
      "m": 71,
      ";": 72,
      "p": 73,
      "g": 74,
      "–": 75,
      "і": 76,
      "y": 77,
      "%": 78,
      "b": 79,
      "f": 80,
      "k": 81,
      "w": 82,
      "v": 83,
      "_": 84,
      "&": 85,
      "x": 86,
      "]": 87,
      "[": 88,
      "=": 89,
      "z": 90,
      "'": 91,
      "q": 92,
      "№": 93,
      "“": 94,
      "+": 95,
      "$": 96,
      ">": 97,
      "°": 98,
      "*": 99,
      "”": 100,
      "#": 101,
      "j": 102,
      "<": 103,
      "„": 104,
      "’": 105,
      "@": 106,
      "|": 107,
      "−": 108,
      "•": 109,
      "→": 110,
      "€": 111,
      "}": 112,
      "{": 113,
      "·": 114,
      "\\": 115,
      "±": 116,
      "~": 117,
      "×": 118,
      "‘": 119,
      "α": 120,
      "†": 121,
      "^": 122,
      "£": 123,
      "`": 124,
      "§": 125,
      "―": 126,
      "‰": 127,
      "##о": 128,
      "##е": 129,
      "##а": 130,
      "##и": 131,
      "##н": 132,
      "##т": 133,
      "##с": 134,
      "##р": 135,
      "##л": 136,
      "##в": 137,
      "##к": 138,
      "##м": 139,
      "##д": 140,
      "##п": 141,
      "##у": 142,
      "##я": 143,
      "##ы": 144,
      "##г": 145,
      "##ь": 146,
      "##б": 147,
      "##з": 148,
      "##ч": 149,
      "##ж": 150,
      "##х": 151,
      "##ш": 152,
      "##ю": 153,
      "##ц": 154,
      "##щ": 155,
      "##э": 156,
      "##ф": 157,
      "##1": 158,
      "##0": 159,
      "##2": 160,
      "##e": 161,
      "##9": 162,
      "##a": 163,
      "##o": 164,
      "##5": 165,
      "##3": 166,
      "##r": 167,
      "##i": 168,
      "##4": 169,
      "##t": 170,
      "##n": 171,
      "##8": 172,
      "##6": 173,
      "##7": 174,
      "##s": 175,
      "##l": 176,
      "##u": 177,
      "##ъ": 178,
      "##d": 179,
      "##h": 180,
      "##c": 181,
      "##m": 182,
      "##p": 183,
      "##g": 184,
      "##і": 185,
      "##y": 186,
      "##b": 187,
      "##f": 188,
      "##k": 189,
      "##w": 190,
      "##v": 191,
      "##x": 192,
      "##z": 193,
      "##q": 194,
      "##°": 195,
      "##j": 196,
      "##−": 197,
      "##²": 198,
      "##ѣ": 199,
      "##×": 200,
      "##ł": 201,
      "##³": 202,
      "##½": 203,
      "##то": 204,
      "##ен": 205,
      "##ст": 206,
      "##ра": 207,
      "##ко": 208,
      "##но": 209,
      "##ро": 210,
      "##го": 211,
      "по": 212,
      "##ре": 213,
      "##ли": 214,
      "##ка": 215,
      "##ни": 216,
      "##ет": 217,
      "на": 218,
      "##ва": 219,
      "##ла": 220,
      "##ри": 221,
      "##ль": 222,
      "##ло": 223,
      "##та": 224,
      "##ны": 225,
      "##за": 226,
      "##на": 227,
      "##те": 228,
      "##во": 229,
      "не": 230,
      "##ть": 231,
      "##ер": 232,
      "##да": 233,
      "##ки": 234,
      "##ся": 235,
      "##ле": 236,
      "##ени": 237,
      "##ти": 238,
      "за": 239,
      "ко": 240,
      "##ми": 241,
      "##ви": 242,
      "##ру": 243,
      "##ем": 244,
      "##ди": 245,
      "про": 246,
      "со": 247,
      "ра": 248,
      "##не": 249,
      "##де": 250,
      "что": 251,
      "##ля": 252,
      "го": 253,
      "то": 254,
      "##ци": 255,
      "##ма": 256,
      "##сь": 257,
      "от": 258,
      "##до": 259,
      "##ско": 260,
      "во": 261,
      "##же": 262,
      "##ве": 263,
      "##мо": 264,
      "бы": 265,
      "до": 266,
      "ка": 267,
      "##хо": 268,
      "при": 269,
      "##бо": 270,
      "##по": 271,
      "##си": 272,
      "##ста": 273,
      "##ча": 274,
      "##ну": 275,
      "##сти": 276,
      "##чи": 277,
      "##че": 278,
      "об": 279,
      "##се": 280,
      "##ры": 281,
      "##ду": 282,
      "вы": 283,
      "мо": 284,
      "##ски": 285,
      "##ши": 286,
      "##сто": 287,
      "##лу": 288,
      "##жи": 289,
      "##ку": 290,
      "из": 291,
      "это": 292,
      "та": 293,
      "пре": 294,
      "##па": 295,
      "##ме": 296,
      "##га": 297,
      "##ере": 298,
      "##со": 299,
      "ре": 300,
      "те": 301,
      "##ения": 302,
      "##ного": 303,
      "##ных": 304,
      "##тель": 305,
      "но": 306,
      "##ги": 307,
      "##вы": 308,
      "##сть": 309,
      "##са": 310,
      "##щи": 311,
      "##ше": 312,
      "##му": 313,
      "##ня": 314,
      "##ря": 315,
      "##жа": 316,
      "##пи": 317,
      "##лю": 318,
      "бо": 319,
      "##ще": 320,
      "##ные": 321,
      "раз": 322,
      "##ту": 323,
      "##мен": 324,
      "под": 325,
      "##ение": 326,
      "##ств": 327,
      "ма": 328,
      "кото": 329,
      "ни": 330,
      "##лся": 331,
      "##ты": 332,
      "##ют": 333,
      "все": 334,
      "##зи": 335,
      "##вер": 336,
      "##би": 337,
      "де": 338,
      "как": 339,
      "##зо": 340,
      "##ется": 341,
      "ме": 342,
      "да": 343,
      "##лен": 344,
      "ста": 345,
      "сво": 346,
      "##сси": 347,
      "се": 348,
      "он": 349,
      "##пе": 350,
      "ли": 351,
      "са": 352,
      "##об": 353,
      "##сле": 354,
      "##ции": 355,
      "##ство": 356,
      "##це": 357,
      "ми": 358,
      "его": 359,
      "пере": 360,
      "##ар": 361,
      "##ке": 362,
      "##бы": 363,
      "ст": 364,
      "##ша": 365,
      "##ров": 366,
      "##бе": 367,
      "##ным": 368,
      "##ться": 369,
      "бу": 370,
      "так": 371,
      "хо": 372,
      "##ды": 373,
      "ве": 374,
      "##нов": 375,
      "##ния": 376,
      "##жно": 377,
      "си": 378,
      "##гда": 379,
      "##су": 380,
      "20": 381,
      "##ба": 382,
      "##ков": 383,
      "##он": 384,
      "же": 385,
      "##лько": 386,
      "##вет": 387,
      "рас": 388,
      "бе": 389,
      "##мы": 390,
      "##рова": 391,
      "##ска": 392,
      "##пу": 393,
      "##ского": 394,
      "##ная": 395,
      "##ное": 396,
      "##ор": 397,
      "пред": 398,
      "##про": 399,
      "для": 400,
      "##ща": 401,
      "##ран": 402,
      "##ак": 403,
      "19": 404,
      "ру": 405,
      "ро": 406,
      "##лы": 407,
      "##ень": 408,
      "##гу": 409,
      "которы": 410,
      "##ние": 411,
      "##лет": 412,
      "##дет": 413,
      "сто": 414,
      "##лись": 415,
      "##зы": 416,
      "##жен": 417,
      "##ном": 418,
      "##ха": 419,
      "су": 420,
      "##ца": 421,
      "кон": 422,
      "##кра": 423,
      "##ства": 424,
      "года": 425,
      "##рав": 426,
      "ин": 427,
      "ви": 428,
      "##лась": 429,
      "##тов": 430,
      "##гра": 431,
      "##ву": 432,
      "##лось": 433,
      "воз": 434,
      "##ан": 435,
      "##мя": 436,
      "##тся": 437,
      "па": 438,
      "##сли": 439,
      "##ден": 440,
      "че": 441,
      "жи": 442,
      "ва": 443,
      "од": 444,
      "дру": 445,
      "было": 446,
      "был": 447,
      "##бу": 448,
      "##тив": 449,
      "##вать": 450,
      "##зу": 451,
      "зна": 452,
      "##сту": 453,
      "##ром": 454,
      "##ности": 455,
      "##став": 456,
      "##фи": 457,
      "лю": 458,
      "##ских": 459,
      "##ную": 460,
      "##ком": 461,
      "ча": 462,
      "##аль": 463,
      "##тя": 464,
      "##нима": 465,
      "пра": 466,
      "##она": 467,
      "##ющи": 468,
      "##мер": 469,
      "##том": 470,
      "##шь": 471,
      "##ск": 472,
      "после": 473,
      "ком": 474,
      "##зна": 475,
      "боль": 476,
      "##нии": 477,
      "дол": 478,
      "##жет": 479,
      "##чно": 480,
      "пер": 481,
      "мы": 482,
      "##вши": 483,
      "ты": 484,
      "##цен": 485,
      "слу": 486,
      "рабо": 487,
      "##дь": 488,
      "##дер": 489,
      "##ении": 490,
      "мен": 491,
      "201": 492,
      "##ность": 493,
      "она": 494,
      "##вя": 495,
      "ку": 496,
      "сло": 497,
      "уже": 498,
      "только": 499,
      "или": 500,
      "гла": 501,
      "##ин": 502,
      "их": 503,
      "##дя": 504,
      "##сы": 505,
      "##ция": 506,
      "##ник": 507,
      "году": 508,
      "стра": 509,
      "полу": 510,
      "пу": 511,
      "##вал": 512,
      "прои": 513,
      "##мет": 514,
      "##дин": 515,
      "ле": 516,
      "##сте": 517,
      "##ления": 518,
      "##пре": 519,
      "они": 520,
      "##бя": 521,
      "##гла": 522,
      "ту": 523,
      "##ман": 524,
      "челове": 525,
      "##лек": 526,
      "##пы": 527,
      "сказа": 528,
      "##чен": 529,
      "ее": 530,
      "##пер": 531,
      "##ев": 532,
      "му": 533,
      "##род": 534,
      "##кры": 535,
      "чем": 536,
      "##тра": 537,
      "время": 538,
      "чтобы": 539,
      "обра": 540,
      "##ными": 541,
      "этом": 542,
      "будет": 543,
      "##рен": 544,
      "##ские": 545,
      "пи": 546,
      "меня": 547,
      "еще": 548,
      "ос": 549,
      "само": 550,
      "ди": 551,
      "##рии": 552,
      "фи": 553,
      "##ника": 554,
      "##ек": 555,
      "##ству": 556,
      "##стра": 557,
      "когда": 558,
      "##при": 559,
      "ав": 560,
      "были": 561,
      "пла": 562,
      "##цы": 563,
      "лет": 564,
      "##лее": 565,
      "##ются": 566,
      "##дар": 567,
      "##тельно": 568,
      "##вали": 569,
      "##нее": 570,
      "##тор": 571,
      "##мот": 572,
      "##лов": 573,
      "ду": 574,
      "##ге": 575,
      "##тер": 576,
      "##бли": 577,
      "##дела": 578,
      "##вля": 579,
      "оста": 580,
      "##ред": 581,
      "##нь": 582,
      "##руп": 583,
      "была": 584,
      "##ская": 585,
      "свои": 586,
      "##стро": 587,
      "ис": 588,
      "может": 589,
      "также": 590,
      "если": 591,
      "##вая": 592,
      "ба": 593,
      "вер": 594,
      "##жу": 595,
      "##тиче": 596,
      "сле": 597,
      "##дом": 598,
      "эти": 599,
      "##нд": 600,
      "##ению": 601,
      "того": 602,
      "чи": 603,
      "оч": 604,
      "##шен": 605,
      "##ление": 606,
      "мне": 607,
      "##00": 608,
      "пол": 609,
      "##рга": 610,
      "##льно": 611,
      "вс": 612,
      "##нова": 613,
      "##кон": 614,
      "##хи": 615,
      "том": 616,
      "##мени": 617,
      "##ском": 618,
      "##фор": 619,
      "есть": 620,
      "которые": 621,
      "##вых": 622,
      "тре": 623,
      "##er": 624,
      "поли": 625,
      "##дов": 626,
      "##шо": 627,
      "##вые": 628,
      "##три": 629,
      "пе": 630,
      "##вает": 631,
      "##зова": 632,
      "спо": 633,
      "##ез": 634,
      "гра": 635,
      "##ета": 636,
      "##рь": 637,
      "##сла": 638,
      "##пра": 639,
      "кра": 640,
      "##сс": 641,
      "##нул": 642,
      "##жд": 643,
      "##дова": 644,
      "голо": 645,
      "##цию": 646,
      "##пол": 647,
      "##ят": 648,
      "без": 649,
      "поч": 650,
      "где": 651,
      "пар": 652,
      "ок": 653,
      "##дно": 654,
      "##вно": 655,
      "цен": 656,
      "##рта": 657,
      "этого": 658,
      "##чь": 659,
      "##ением": 660,
      "##ких": 661,
      "обла": 662,
      "##вед": 663,
      "ак": 664,
      "уча": 665,
      "##бра": 666,
      "ну": 667,
      "ки": 668,
      "нет": 669,
      "##сты": 670,
      "очень": 671,
      "даже": 672,
      "##ил": 673,
      "более": 674,
      "##ников": 675,
      "##кие": 676,
      "##теля": 677,
      "помо": 678,
      "##вого": 679,
      "##кую": 680,
      "##кого": 681,
      "дела": 682,
      "##ете": 683,
      "чу": 684,
      "##сов": 685,
      "тем": 686,
      "быть": 687,
      "ар": 688,
      "##тро": 689,
      "им": 690,
      "##вро": 691,
      "##лом": 692,
      "тер": 693,
      "ему": 694,
      "##кан": 695,
      "име": 696,
      "##цо": 697,
      "##сно": 698,
      "обо": 699,
      "буду": 700,
      "##циаль": 701,
      "##чу": 702,
      "18": 703,
      "нас": 704,
      "##ники": 705,
      "##ене": 706,
      "авто": 707,
      "себя": 708,
      "можно": 709,
      "##тия": 710,
      "##час": 711,
      "пос": 712,
      "##зда": 713,
      "сказал": 714,
      "##ью": 715,
      "200": 716,
      "це": 717,
      "##логи": 718,
      "##ена": 719,
      "##рт": 720,
      "росси": 721,
      "га": 722,
      "##кто": 723,
      "##цу": 724,
      "исто": 725,
      "ско": 726,
      "подо": 727,
      "##лли": 728,
      "дан": 729,
      "##клю": 730,
      "##цион": 731,
      "него": 732,
      "##сло": 733,
      "человек": 734,
      "эк": 735,
      "##стве": 736,
      "горо": 737,
      "жен": 738,
      "##шу": 739,
      "##шел": 740,
      "##его": 741,
      "##шего": 742,
      "##жения": 743,
      "пока": 744,
      "вла": 745,
      "##жение": 746,
      "##тели": 747,
      "между": 748,
      "слова": 749,
      "тех": 750,
      "просто": 751,
      "##вест": 752,
      "##писа": 753,
      "прави": 754,
      "##ках": 755,
      "##дол": 756,
      "##ит": 757,
      "них": 758,
      "##in": 759,
      "##нови": 760,
      "##ками": 761,
      "##гово": 762,
      "там": 763,
      "кто": 764,
      "работа": 765,
      "##ским": 766,
      "##тери": 767,
      "лу": 768,
      "поло": 769,
      "##фе": 770,
      "##дел": 771,
      "##an": 772,
      "##тно": 773,
      "##тере": 774,
      "ла": 775,
      "##чего": 776,
      "##шения": 777,
      "сов": 778,
      "##нг": 779,
      "ответ": 780,
      "##ван": 781,
      "день": 782,
      "##енно": 783,
      "##емы": 784,
      "которо": 785,
      "##ким": 786,
      "больше": 787,
      "##зя": 788,
      "##менно": 789,
      "##нк": 790,
      "много": 791,
      "##цев": 792,
      "один": 793,
      "10": 794,
      "явля": 795,
      "спе": 796,
      "##пера": 797,
      "##кла": 798,
      "##ское": 799,
      "два": 800,
      "ло": 801,
      "##зе": 802,
      "##бор": 803,
      "##дели": 804,
      "##пла": 805,
      "##шение": 806,
      "##кое": 807,
      "этот": 808,
      "уда": 809,
      "##льта": 810,
      "сер": 811,
      "##ья": 812,
      "##держа": 813,
      "против": 814,
      "могу": 815,
      "##али": 816,
      "##нет": 817,
      "послед": 818,
      "##ять": 819,
      "##яс": 820,
      "дет": 821,
      "##емо": 822,
      "##сса": 823,
      "пло": 824,
      "созда": 825,
      "иг": 826,
      "##on": 827,
      "##мери": 828,
      "##вод": 829,
      "##ут": 830,
      "##вым": 831,
      "##кая": 832,
      "органи": 833,
      "##вое": 834,
      "компа": 835,
      "##ним": 836,
      "##щен": 837,
      "##стя": 838,
      "над": 839,
      "##мента": 840,
      "вот": 841,
      "##ших": 842,
      "##рия": 843,
      "чет": 844,
      "##пас": 845,
      "##рон": 846,
      "##щего": 847,
      "всего": 848,
      "всех": 849,
      "##ряд": 850,
      "счита": 851,
      "##торы": 852,
      "ша": 853,
      "тру": 854,
      "##тре": 855,
      "друго": 856,
      "хоро": 857,
      "##чение": 858,
      "##оне": 859,
      "##чения": 860,
      "##лага": 861,
      "вос": 862,
      "несколько": 863,
      "через": 864,
      "##or": 865,
      "би": 866,
      "три": 867,
      "##тан": 868,
      "##форма": 869,
      "##чет": 870,
      "##нут": 871,
      "15": 872,
      "обе": 873,
      "##кре": 874,
      "ти": 875,
      "##вра": 876,
      "##яв": 877,
      "##мент": 878,
      "##льного": 879,
      "мог": 880,
      "##лем": 881,
      "руб": 882,
      "##тру": 883,
      "продол": 884,
      "##лн": 885,
      "доро": 886,
      "себе": 887,
      "##стер": 888,
      "##рован": 889,
      "##en": 890,
      "дву": 891,
      "##ешь": 892,
      "##рак": 893,
      "возможно": 894,
      "##вом": 895,
      "##нию": 896,
      "##тин": 897,
      "кор": 898,
      "##нес": 899,
      "соб": 900,
      "##чем": 901,
      "фор": 902,
      "##от": 903,
      "##шли": 904,
      "мини": 905,
      "гу": 906,
      "##нец": 907,
      "##вала": 908,
      "луч": 909,
      "##ющих": 910,
      "находи": 911,
      "##мина": 912,
      "##скую": 913,
      "##тен": 914,
      "##лин": 915,
      "стро": 916,
      "##ход": 917,
      "##бер": 918,
      "сем": 919,
      "ры": 920,
      "##вар": 921,
      "##рито": 922,
      "сред": 923,
      "области": 924,
      "тоже": 925,
      "высо": 926,
      "##чина": 927,
      "##стов": 928,
      "##щу": 929,
      "##ar": 930,
      "##льных": 931,
      "##ген": 932,
      "теле": 933,
      "состоя": 934,
      "кар": 935,
      "дви": 936,
      "переда": 937,
      "кри": 938,
      "дума": 939,
      "свою": 940,
      "ад": 941,
      "##ню": 942,
      "самы": 943,
      "глав": 944,
      "стал": 945,
      "перед": 946,
      "сы": 947,
      "##ссо": 948,
      "##вания": 949,
      "12": 950,
      "##циона": 951,
      "ничего": 952,
      "##рабо": 953,
      "##щее": 954,
      "##нен": 955,
      "надо": 956,
      "##шло": 957,
      "##ниче": 958,
      "оказа": 959,
      "##лия": 960,
      "##коло": 961,
      "укра": 962,
      "зем": 963,
      "наз": 964,
      "##нем": 965,
      "нем": 966,
      "место": 967,
      "##ети": 968,
      "воен": 969,
      "извест": 970,
      "##жал": 971,
      "террито": 972,
      "##he": 973,
      "##вор": 974,
      "будут": 975,
      "##им": 976,
      "которая": 977,
      "##ному": 978,
      "уби": 979,
      "ше": 980,
      "##ровать": 981,
      "##ством": 982,
      "смо": 983,
      "##ющие": 984,
      "##шая": 985,
      "следу": 986,
      "здесь": 987,
      "##вич": 988,
      "##тем": 989,
      "тут": 990,
      "моло": 991,
      "коро": 992,
      "##сом": 993,
      "##дера": 994,
      "тра": 995,
      "##туа": 996,
      "##лез": 997,
      "руко": 998,
      "##нер": 999,
      "##нием": 1000,
      "##es": 1001,
      "##вели": 1002,
      "информа": 1003,
      "глаза": 1004,
      "##воз": 1005,
      "##твер": 1006,
      "##ностью": 1007,
      "бли": 1008,
      "##лан": 1009,
      "нам": 1010,
      "##al": 1011,
      "потом": 1012,
      "##at": 1013,
      "17": 1014,
      "##него": 1015,
      "##раз": 1016,
      "тебя": 1017,
      "##пло": 1018,
      "199": 1019,
      "##ссе": 1020,
      "обще": 1021,
      "##пад": 1022,
      "эта": 1023,
      "заявил": 1024,
      "показа": 1025,
      "##зации": 1026,
      "кла": 1027,
      "которых": 1028,
      "##нуть": 1029,
      "##роме": 1030,
      "кре": 1031,
      "мно": 1032,
      "лишь": 1033,
      "пы": 1034,
      "##ях": 1035,
      "муж": 1036,
      "##бле": 1037,
      "спи": 1038,
      "дело": 1039,
      "##льные": 1040,
      "экономи": 1041,
      "вас": 1042,
      "##них": 1043,
      "неко": 1044,
      "##чки": 1045,
      "##зом": 1046,
      "##ян": 1047,
      "является": 1048,
      "теперь": 1049,
      "реги": 1050,
      "##шки": 1051,
      "##нали": 1052,
      "бра": 1053,
      "11": 1054,
      "жизни": 1055,
      "##чных": 1056,
      "##вают": 1057,
      "потому": 1058,
      "год": 1059,
      "##хра": 1060,
      "мат": 1061,
      "бан": 1062,
      "##зан": 1063,
      "##лено": 1064,
      "прав": 1065,
      "разви": 1066,
      "##гов": 1067,
      "сообщает": 1068,
      "2015": 1069,
      "##бро": 1070,
      "сам": 1071,
      "##сков": 1072,
      "##вание": 1073,
      "чер": 1074,
      "сего": 1075,
      "сра": 1076,
      "##тки": 1077,
      "тот": 1078,
      "##шка": 1079,
      "##зд": 1080,
      "##мни": 1081,
      "##стью": 1082,
      "##щения": 1083,
      "хотя": 1084,
      "дома": 1085,
      "благо": 1086,
      "##фо": 1087,
      "16": 1088,
      "##жден": 1089,
      "##щая": 1090,
      "тя": 1091,
      "ха": 1092,
      "##фа": 1093,
      "матери": 1094,
      "нау": 1095,
      "гру": 1096,
      "города": 1097,
      "##вается": 1098,
      "сегодня": 1099,
      "вам": 1100,
      "успе": 1101,
      "##ждения": 1102,
      "тор": 1103,
      "##ено": 1104,
      "##тии": 1105,
      "##ственно": 1106,
      "право": 1107,
      "##чер": 1108,
      "##ваться": 1109,
      "##еха": 1110,
      "ним": 1111,
      "##рд": 1112,
      "ска": 1113,
      "вра": 1114,
      "оп": 1115,
      "##ье": 1116,
      "вне": 1117,
      "уни": 1118,
      "##вин": 1119,
      "около": 1120,
      "##вших": 1121,
      "занима": 1122,
      "ог": 1123,
      "ря": 1124,
      "##шие": 1125,
      "кол": 1126,
      "своих": 1127,
      "##рук": 1128,
      "##дель": 1129,
      "обы": 1130,
      "человека": 1131,
      "##it": 1132,
      "##вари": 1133,
      "ника": 1134,
      "двух": 1135,
      "могут": 1136,
      "фа": 1137,
      "##хов": 1138,
      "мест": 1139,
      "почти": 1140,
      "дере": 1141,
      "чего": 1142,
      "рус": 1143,
      "времени": 1144,
      "##вую": 1145,
      "поль": 1146,
      "сен": 1147,
      "город": 1148,
      "##ган": 1149,
      "игра": 1150,
      "значи": 1151,
      "##ческих": 1152,
      "##кт": 1153,
      "милли": 1154,
      "управ": 1155,
      "ситуа": 1156,
      "тогда": 1157,
      "бро": 1158,
      "нужно": 1159,
      "пря": 1160,
      "настоя": 1161,
      "##лены": 1162,
      "жу": 1163,
      "украин": 1164,
      "##рую": 1165,
      "уго": 1166,
      "##кло": 1167,
      "2014": 1168,
      "фо": 1169,
      "ули": 1170,
      "194": 1171,
      "##сит": 1172,
      "##om": 1173,
      "тебе": 1174,
      "защи": 1175,
      "американ": 1176,
      "##сем": 1177,
      "страны": 1178,
      "14": 1179,
      "насе": 1180,
      "##ерт": 1181,
      "30": 1182,
      "##чные": 1183,
      "##стан": 1184,
      "стороны": 1185,
      "##ru": 1186,
      "##ху": 1187,
      "##ток": 1188,
      "именно": 1189,
      "словам": 1190,
      "стре": 1191,
      "зо": 1192,
      "всегда": 1193,
      "##мини": 1194,
      "опера": 1195,
      "спа": 1196,
      "##тора": 1197,
      "ри": 1198,
      "##личе": 1199,
      "##тить": 1200,
      "своего": 1201,
      "комп": 1202,
      "случае": 1203,
      "##тур": 1204,
      "люди": 1205,
      "##бур": 1206,
      "глу": 1207,
      "13": 1208,
      "##вшись": 1209,
      "##из": 1210,
      "##туры": 1211,
      "##мии": 1212,
      "других": 1213,
      "ху": 1214,
      "основ": 1215,
      "##обра": 1216,
      "даль": 1217,
      "жа": 1218,
      "части": 1219,
      "стран": 1220,
      "##щение": 1221,
      "##рах": 1222,
      "##рю": 1223,
      "##мов": 1224,
      "##шим": 1225,
      "которого": 1226,
      "смер": 1227,
      "##вле": 1228,
      "##ема": 1229,
      "##чка": 1230,
      "ци": 1231,
      "##щих": 1232,
      "##блю": 1233,
      "##тил": 1234,
      "совет": 1235,
      "##вался": 1236,
      "недо": 1237,
      "произо": 1238,
      "пода": 1239,
      "##вери": 1240,
      "ши": 1241,
      "##сут": 1242,
      "сту": 1243,
      "нико": 1244,
      "##щем": 1245,
      "##кова": 1246,
      "##ческого": 1247,
      "меся": 1248,
      "##виа": 1249,
      "##гре": 1250,
      "##ствия": 1251,
      "вся": 1252,
      "язы": 1253,
      "мира": 1254,
      "##тие": 1255,
      "нее": 1256,
      "пор": 1257,
      "буд": 1258,
      "##le": 1259,
      "ги": 1260,
      "25": 1261,
      "коми": 1262,
      "##ствие": 1263,
      "ан": 1264,
      "стать": 1265,
      "отли": 1266,
      "попа": 1267,
      "деся": 1268,
      "##re": 1269,
      "нео": 1270,
      "экс": 1271,
      "##рио": 1272,
      "##рок": 1273,
      "##нами": 1274,
      "вместе": 1275,
      "ино": 1276,
      "##скому": 1277,
      "##чного": 1278,
      "уг": 1279,
      "##кам": 1280,
      "кни": 1281,
      "клу": 1282,
      "одно": 1283,
      "жизнь": 1284,
      "этих": 1285,
      "##st": 1286,
      "пыта": 1287,
      "ян": 1288,
      "должно": 1289,
      "##ic": 1290,
      "##жать": 1291,
      "виде": 1292,
      "должен": 1293,
      "##чить": 1294,
      "дер": 1295,
      "##бре": 1296,
      "##ствует": 1297,
      "##тельство": 1298,
      "должны": 1299,
      "##чил": 1300,
      "неза": 1301,
      "ге": 1302,
      "иск": 1303,
      "любо": 1304,
      "нибудь": 1305,
      "##ница": 1306,
      "момент": 1307,
      "##скими": 1308,
      "ведь": 1309,
      "жур": 1310,
      "##кро": 1311,
      "роди": 1312,
      "##вшего": 1313,
      "##ot": 1314,
      "##лена": 1315,
      "способ": 1316,
      "##вшие": 1317,
      "сразу": 1318,
      "тысяч": 1319,
      "большо": 1320,
      "вели": 1321,
      "##тами": 1322,
      "##нах": 1323,
      "рассказа": 1324,
      "нару": 1325,
      "##имо": 1326,
      "##ору": 1327,
      "часть": 1328,
      "закон": 1329,
      "вопрос": 1330,
      "##еры": 1331,
      "##лении": 1332,
      "дея": 1333,
      "мн": 1334,
      "круп": 1335,
      "##дви": 1336,
      "сте": 1337,
      "мене": 1338,
      "##ясь": 1339,
      "наде": 1340,
      "##тера": 1341,
      "##ске": 1342,
      "##шин": 1343,
      "##кси": 1344,
      "лег": 1345,
      "##того": 1346,
      "интер": 1347,
      "мар": 1348,
      "непо": 1349,
      "евро": 1350,
      "вообще": 1351,
      "сла": 1352,
      "##онов": 1353,
      "конце": 1354,
      "преж": 1355,
      "свет": 1356,
      "собствен": 1357,
      "почему": 1358,
      "чемпиона": 1359,
      "снова": 1360,
      "хорошо": 1361,
      "компании": 1362,
      "выра": 1363,
      "либо": 1364,
      "##дии": 1365,
      "сви": 1366,
      "##воль": 1367,
      "уч": 1368,
      "##дут": 1369,
      "окру": 1370,
      "##вел": 1371,
      "строи": 1372,
      "ради": 1373,
      "##ены": 1374,
      "данным": 1375,
      "##чал": 1376,
      "территории": 1377,
      "##фф": 1378,
      "составля": 1379,
      "##пере": 1380,
      "##рию": 1381,
      "пле": 1382,
      "мя": 1383,
      "работы": 1384,
      "появи": 1385,
      "образом": 1386,
      "всем": 1387,
      "однако": 1388,
      "некоторы": 1389,
      "##кти": 1390,
      "полити": 1391,
      "жела": 1392,
      "##шее": 1393,
      "##рев": 1394,
      "сбор": 1395,
      "сме": 1396,
      "гор": 1397,
      "одного": 1398,
      "##кс": 1399,
      "ус": 1400,
      "осо": 1401,
      "##дра": 1402,
      "эту": 1403,
      "##ницы": 1404,
      "власти": 1405,
      "обна": 1406,
      "##лии": 1407,
      "весь": 1408,
      "##рует": 1409,
      "ново": 1410,
      "сли": 1411,
      "##лки": 1412,
      "пресс": 1413,
      "##ou": 1414,
      "##шую": 1415,
      "##графи": 1416,
      "кру": 1417,
      "##ссии": 1418,
      "стало": 1419,
      "назад": 1420,
      "##ведения": 1421,
      "конечно": 1422,
      "мет": 1423,
      "##бри": 1424,
      "##шем": 1425,
      "##мом": 1426,
      "никогда": 1427,
      "числе": 1428,
      "восто": 1429,
      "знаю": 1430,
      "уста": 1431,
      "места": 1432,
      "198": 1433,
      "связи": 1434,
      "##тически": 1435,
      "##лик": 1436,
      "##тон": 1437,
      "##рами": 1438,
      "##шении": 1439,
      "част": 1440,
      "##тных": 1441,
      "этим": 1442,
      "образова": 1443,
      "доку": 1444,
      "дека": 1445,
      "сти": 1446,
      "сказать": 1447,
      "##чин": 1448,
      "##рин": 1449,
      "##ником": 1450,
      "люби": 1451,
      "##лья": 1452,
      "тро": 1453,
      "совершен": 1454,
      "шта": 1455,
      "млн": 1456,
      "нор": 1457,
      "бере": 1458,
      "совсем": 1459,
      "учи": 1460,
      "изда": 1461,
      "##ляр": 1462,
      "решение": 1463,
      "сентября": 1464,
      "##мена": 1465,
      "иде": 1466,
      "##готов": 1467,
      "официаль": 1468,
      "политиче": 1469,
      "конф": 1470,
      "##жении": 1471,
      "##стр": 1472,
      "##ющим": 1473,
      "##боль": 1474,
      "##зии": 1475,
      "посе": 1476,
      "называ": 1477,
      "##ющего": 1478,
      "##чку": 1479,
      "неу": 1480,
      "фе": 1481,
      "##дил": 1482,
      "##цов": 1483,
      "продолжа": 1484,
      "лучше": 1485,
      "##рам": 1486,
      "среди": 1487,
      "стали": 1488,
      "граждан": 1489,
      "##is": 1490,
      "мир": 1491,
      "противо": 1492,
      "стоя": 1493,
      "##дит": 1494,
      "##доро": 1495,
      "##тр": 1496,
      "деятель": 1497,
      "одна": 1498,
      "увер": 1499,
      "##ческие": 1500,
      "##ac": 1501,
      "##там": 1502,
      "сделать": 1503,
      "##телем": 1504,
      "необходимо": 1505,
      "##лла": 1506,
      "попы": 1507,
      "стар": 1508,
      "##нно": 1509,
      "результате": 1510,
      "стан": 1511,
      "##лого": 1512,
      "##ровал": 1513,
      "##слен": 1514,
      "уди": 1515,
      "собира": 1516,
      "сообщил": 1517,
      "##рот": 1518,
      "окон": 1519,
      "тяже": 1520,
      "##нить": 1521,
      "писа": 1522,
      "##щие": 1523,
      "пози": 1524,
      "такое": 1525,
      "##ску": 1526,
      "##или": 1527,
      "##точно": 1528,
      "разме": 1529,
      "четыре": 1530,
      "##ственного": 1531,
      "разли": 1532,
      "деле": 1533,
      "##их": 1534,
      "тому": 1535,
      "дня": 1536,
      "тол": 1537,
      "месте": 1538,
      "другие": 1539,
      "##лета": 1540,
      "##нице": 1541,
      "##нал": 1542,
      "основа": 1543,
      "##пом": 1544,
      "куль": 1545,
      "свое": 1546,
      "##раб": 1547,
      "своим": 1548,
      "##вен": 1549,
      "зако": 1550,
      "22": 1551,
      "##над": 1552,
      "род": 1553,
      "затем": 1554,
      "осу": 1555,
      "##нения": 1556,
      "менее": 1557,
      "##тура": 1558,
      "##ристи": 1559,
      "21": 1560,
      "пя": 1561,
      "##ить": 1562,
      "фу": 1563,
      "##лит": 1564,
      "две": 1565,
      "повер": 1566,
      "кры": 1567,
      "пример": 1568,
      "представля": 1569,
      "кур": 1570,
      "бес": 1571,
      "км": 1572,
      "##ель": 1573,
      "##ила": 1574,
      "сни": 1575,
      "скоро": 1576,
      "администра": 1577,
      "196": 1578,
      "193": 1579,
      "00": 1580,
      "фото": 1581,
      "##зов": 1582,
      "##вались": 1583,
      "которое": 1584,
      "принима": 1585,
      "197": 1586,
      "состав": 1587,
      "таки": 1588,
      "##мыш": 1589,
      "##льное": 1590,
      "##рит": 1591,
      "руки": 1592,
      "имеет": 1593,
      "##чены": 1594,
      "##el": 1595,
      "говорит": 1596,
      "##тах": 1597,
      "##циа": 1598,
      "24": 1599,
      "##стри": 1600,
      "##кус": 1601,
      "неме": 1602,
      "такие": 1603,
      "организа": 1604,
      "рез": 1605,
      "##лок": 1606,
      "быстро": 1607,
      "##нок": 1608,
      "##льная": 1609,
      "прин": 1610,
      "удо": 1611,
      "октября": 1612,
      "делать": 1613,
      "международ": 1614,
      "##пада": 1615,
      "##дук": 1616,
      "поме": 1617,
      "кажды": 1618,
      "сами": 1619,
      "##ум": 1620,
      "котором": 1621,
      "##ева": 1622,
      "100": 1623,
      "##чат": 1624,
      "авиа": 1625,
      "каза": 1626,
      "мая": 1627,
      "стала": 1628,
      "сказала": 1629,
      "##ter": 1630,
      "##шно": 1631,
      "производ": 1632,
      "##льным": 1633,
      "деву": 1634,
      "##ницу": 1635,
      "стол": 1636,
      "установ": 1637,
      "газ": 1638,
      "##жем": 1639,
      "самом": 1640,
      "##il": 1641,
      "##ствовать": 1642,
      "начала": 1643,
      "президент": 1644,
      "говоря": 1645,
      "исследова": 1646,
      "долго": 1647,
      "кос": 1648,
      "##пли": 1649,
      "мень": 1650,
      "никто": 1651,
      "##тых": 1652,
      "января": 1653,
      "лицо": 1654,
      "ито": 1655,
      "пора": 1656,
      "куда": 1657,
      "ор": 1658,
      "находится": 1659,
      "бю": 1660,
      "##част": 1661,
      "уж": 1662,
      "мол": 1663,
      "памя": 1664,
      "проводи": 1665,
      "##сен": 1666,
      "##as": 1667,
      "которую": 1668,
      "##тые": 1669,
      "ск": 1670,
      "вд": 1671,
      "##am": 1672,
      "бри": 1673,
      "##ждение": 1674,
      "тур": 1675,
      "вол": 1676,
      "##зма": 1677,
      "аль": 1678,
      "##тар": 1679,
      "музы": 1680,
      "отметил": 1681,
      "региона": 1682,
      "таких": 1683,
      "народ": 1684,
      "##еру": 1685,
      "февраля": 1686,
      "##ствии": 1687,
      "президента": 1688,
      "друг": 1689,
      "##тина": 1690,
      "##ствовал": 1691,
      "кли": 1692,
      "измен": 1693,
      "##рения": 1694,
      "##так": 1695,
      "центра": 1696,
      "##нт": 1697,
      "##ленно": 1698,
      "##нам": 1699,
      "##дро": 1700,
      "августа": 1701,
      "##лами": 1702,
      "поэтому": 1703,
      "##дал": 1704,
      "живо": 1705,
      "неф": 1706,
      "специаль": 1707,
      "23": 1708,
      "пара": 1709,
      "##жных": 1710,
      "##рования": 1711,
      "##сил": 1712,
      "##еди": 1713,
      "получил": 1714,
      "стоит": 1715,
      "слишком": 1716,
      "##рее": 1717,
      "##точ": 1718,
      "##щую": 1719,
      "ды": 1720,
      "##тал": 1721,
      "##нка": 1722,
      "деньги": 1723,
      "например": 1724,
      "группы": 1725,
      "хи": 1726,
      "социаль": 1727,
      "50": 1728,
      "##стно": 1729,
      "192": 1730,
      "коло": 1731,
      "##вид": 1732,
      "##лев": 1733,
      "195": 1734,
      "##et": 1735,
      "меди": 1736,
      "##каз": 1737,
      "##нди": 1738,
      "##нил": 1739,
      "##ed": 1740,
      "марта": 1741,
      "равно": 1742,
      "##лл": 1743,
      "июля": 1744,
      "##чие": 1745,
      "##еты": 1746,
      "##лда": 1747,
      "пять": 1748,
      "##вало": 1749,
      "##тая": 1750,
      "##док": 1751,
      "##щении": 1752,
      "##id": 1753,
      "годы": 1754,
      "мл": 1755,
      "ночь": 1756,
      "наи": 1757,
      "миро": 1758,
      "##ol": 1759,
      "суд": 1760,
      "мало": 1761,
      "##роде": 1762,
      "##чает": 1763,
      "сель": 1764,
      "сум": 1765,
      "фран": 1766,
      "##нин": 1767,
      "##жо": 1768,
      "##ьер": 1769,
      "прямо": 1770,
      "участие": 1771,
      "##сили": 1772,
      "##тельных": 1773,
      "##тать": 1774,
      "##выми": 1775,
      "##няя": 1776,
      "##нять": 1777,
      "##ing": 1778,
      "##лые": 1779,
      "рядом": 1780,
      "##лых": 1781,
      "##лением": 1782,
      "двер": 1783,
      "отказа": 1784,
      "кро": 1785,
      "мире": 1786,
      "столи": 1787,
      "заме": 1788,
      "191": 1789,
      "ноября": 1790,
      "##чо": 1791,
      "относи": 1792,
      "##бин": 1793,
      "сю": 1794,
      "четвер": 1795,
      "##шед": 1796,
      "свер": 1797,
      "часто": 1798,
      "пово": 1799,
      "гро": 1800,
      "треть": 1801,
      "един": 1802,
      "вок": 1803,
      "июня": 1804,
      "руководи": 1805,
      "кого": 1806,
      "##таль": 1807,
      "##чная": 1808,
      "удалось": 1809,
      "прошло": 1810,
      "качестве": 1811,
      "работу": 1812,
      "ссы": 1813,
      "##езд": 1814,
      "##чным": 1815,
      "##хе": 1816,
      "спросил": 1817,
      "##ственных": 1818,
      "##пара": 1819,
      "апреля": 1820,
      "какие": 1821,
      "млрд": 1822,
      "реб": 1823,
      "борь": 1824,
      "электро": 1825,
      "этому": 1826,
      "выс": 1827,
      "тон": 1828,
      "##цами": 1829,
      "##слав": 1830,
      "##чик": 1831,
      "##oo": 1832,
      "современ": 1833,
      "тыс": 1834,
      "##чая": 1835,
      "голову": 1836,
      "наро": 1837,
      "##лять": 1838,
      "26": 1839,
      "оно": 1840,
      "##кви": 1841,
      "мед": 1842,
      "смы": 1843,
      "таким": 1844,
      "хва": 1845,
      "поте": 1846,
      "чуть": 1847,
      "##us": 1848,
      "поддерж": 1849,
      "малень": 1850,
      "сама": 1851,
      "##риан": 1852,
      "##тельные": 1853,
      "огром": 1854,
      "секре": 1855,
      "##вок": 1856,
      "безопасности": 1857,
      "##сед": 1858,
      "##гии": 1859,
      "сторону": 1860,
      "агент": 1861,
      "игро": 1862,
      "плани": 1863,
      "##зм": 1864,
      "##бург": 1865,
      "##гом": 1866,
      "точно": 1867,
      "##лина": 1868,
      "ранее": 1869,
      "права": 1870,
      "сере": 1871,
      "##жит": 1872,
      "немного": 1873,
      "##ляет": 1874,
      "##тельного": 1875,
      "27": 1876,
      "минут": 1877,
      "##шет": 1878,
      "##нев": 1879,
      "##qu": 1880,
      "достаточно": 1881,
      "выступа": 1882,
      "28": 1883,
      "оте": 1884,
      "##стом": 1885,
      "глава": 1886,
      "золо": 1887,
      "мор": 1888,
      "ходе": 1889,
      "городе": 1890,
      "##кин": 1891,
      "##чит": 1892,
      "вид": 1893,
      "##лова": 1894,
      "универ": 1895,
      "неиз": 1896,
      "должна": 1897,
      "истории": 1898,
      "декабря": 1899,
      "цер": 1900,
      "серьез": 1901,
      "пси": 1902,
      "воло": 1903,
      "государства": 1904,
      "всю": 1905,
      "2016": 1906,
      "##пози": 1907,
      "##дали": 1908,
      "гре": 1909,
      "##сок": 1910,
      "возможность": 1911,
      "##рко": 1912,
      "##нных": 1913,
      "##сон": 1914,
      "течение": 1915,
      "дене": 1916,
      "##лка": 1917,
      "##лим": 1918,
      "вдруг": 1919,
      "совершенно": 1920,
      "трен": 1921,
      "##жил": 1922,
      "поз": 1923,
      "##ями": 1924,
      "передает": 1925,
      "могли": 1926,
      "##шку": 1927,
      "##лег": 1928,
      "губер": 1929,
      "организации": 1930,
      "семь": 1931,
      "##ro": 1932,
      "публи": 1933,
      "начал": 1934,
      "##пор": 1935,
      "известно": 1936,
      "ото": 1937,
      "внутрен": 1938,
      "указа": 1939,
      "сим": 1940,
      "анти": 1941,
      "##чное": 1942,
      "##гру": 1943,
      "##эро": 1944,
      "##un": 1945,
      "дра": 1946,
      "фон": 1947,
      "руку": 1948,
      "##ваются": 1949,
      "идет": 1950,
      "готов": 1951,
      "##валась": 1952,
      "биз": 1953,
      "особенно": 1954,
      "##нала": 1955,
      "##нные": 1956,
      "началь": 1957,
      "рам": 1958,
      "##дили": 1959,
      "##зь": 1960,
      "40": 1961,
      "анг": 1962,
      "##никами": 1963,
      "све": 1964,
      "находя": 1965,
      "##дия": 1966,
      "вну": 1967,
      "будто": 1968,
      "своем": 1969,
      "##били": 1970,
      "расположен": 1971,
      "начале": 1972,
      "погиб": 1973,
      "вет": 1974,
      "##гам": 1975,
      "беспо": 1976,
      "##нув": 1977,
      "истори": 1978,
      "##нав": 1979,
      "холо": 1980,
      "такого": 1981,
      "норма": 1982,
      "долларов": 1983,
      "ныне": 1984,
      "##ваю": 1985,
      "ответил": 1986,
      "##еме": 1987,
      "##чески": 1988,
      "##ровали": 1989,
      "##жные": 1990,
      "физи": 1991,
      "друга": 1992,
      "##мости": 1993,
      "контра": 1994,
      "##ществ": 1995,
      "иностран": 1996,
      "близ": 1997,
      "трех": 1998,
      "нес": 1999,
      "тан": 2000,
      "отра": 2001,
      "##тка": 2002,
      "пользова": 2003,
      "##ad": 2004,
      "одним": 2005,
      "реали": 2006,
      "оконча": 2007,
      "дом": 2008,
      "диа": 2009,
      "словно": 2010,
      "оби": 2011,
      "говорится": 2012,
      "##валось": 2013,
      "постро": 2014,
      "партии": 2015,
      "##вода": 2016,
      "##гли": 2017,
      "##ологи": 2018,
      "##рем": 2019,
      "обу": 2020,
      "полностью": 2021,
      "запад": 2022,
      "самого": 2023,
      "населения": 2024,
      "времен": 2025,
      "часов": 2026,
      "информации": 2027,
      "след": 2028,
      "счет": 2029,
      "внеш": 2030,
      "ними": 2031,
      "##нику": 2032,
      "верси": 2033,
      "##тные": 2034,
      "приз": 2035,
      "хоть": 2036,
      "потеря": 2037,
      "системы": 2038,
      "встреча": 2039,
      "##гами": 2040,
      "давно": 2041,
      "шо": 2042,
      "непри": 2043,
      "##риа": 2044,
      "армии": 2045,
      "вокруг": 2046,
      "##лью": 2047,
      "значит": 2048,
      "##рил": 2049,
      "которым": 2050,
      "сил": 2051,
      "стране": 2052,
      "2013": 2053,
      "##стати": 2054,
      "##ям": 2055,
      "нельзя": 2056,
      "##ion": 2057,
      "##тили": 2058,
      "com": 2059,
      "пои": 2060,
      "уголов": 2061,
      "##рес": 2062,
      "рак": 2063,
      "29": 2064,
      "##бом": 2065,
      "the": 2066,
      "##лению": 2067,
      "паль": 2068,
      "запи": 2069,
      "##кими": 2070,
      "говорить": 2071,
      "##эн": 2072,
      "##рое": 2073,
      "суб": 2074,
      "кажется": 2075,
      "искус": 2076,
      "отношения": 2077,
      "##кура": 2078,
      "команды": 2079,
      "двига": 2080,
      "##хом": 2081,
      "##рина": 2082,
      "хотел": 2083,
      "поскольку": 2084,
      "кроме": 2085,
      "смерти": 2086,
      "##ниц": 2087,
      "##and": 2088,
      "санк": 2089,
      "##новь": 2090,
      "##рос": 2091,
      "##льном": 2092,
      "работ": 2093,
      "подготов": 2094,
      "##шему": 2095,
      "скры": 2096,
      "очередь": 2097,
      "оде": 2098,
      "аб": 2099,
      "##роб": 2100,
      "рассказал": 2101,
      "##еть": 2102,
      "составе": 2103,
      "дальше": 2104,
      "наши": 2105,
      "##тельным": 2106,
      "мнению": 2107,
      "аре": 2108,
      "вече": 2109,
      "тр": 2110,
      "частности": 2111,
      "кино": 2112,
      "##телями": 2113,
      "содержа": 2114,
      "внимание": 2115,
      "##ленных": 2116,
      "допол": 2117,
      "##лог": 2118,
      "##гие": 2119,
      "влия": 2120,
      "##щим": 2121,
      "##фон": 2122,
      "поле": 2123,
      "##нского": 2124,
      "выше": 2125,
      "##шенко": 2126,
      "##стями": 2127,
      "тек": 2128,
      "ал": 2129,
      "рамках": 2130,
      "##фика": 2131,
      "бюджет": 2132,
      "вполне": 2133,
      "##ig": 2134,
      "##доров": 2135,
      "хочу": 2136,
      "силы": 2137,
      "##эр": 2138,
      "меньше": 2139,
      "пят": 2140,
      "период": 2141,
      "отношении": 2142,
      "упа": 2143,
      "##зор": 2144,
      "##жали": 2145,
      "##ствуют": 2146,
      "##ческая": 2147,
      "##жением": 2148,
      "##жного": 2149,
      "говорил": 2150,
      "попу": 2151,
      "##ющее": 2152,
      "министр": 2153,
      "##емых": 2154,
      "сцен": 2155,
      "##рик": 2156,
      "##кар": 2157,
      "##зер": 2158,
      "вновь": 2159,
      "протя": 2160,
      "##дж": 2161,
      "##мах": 2162,
      "##стру": 2163,
      "количество": 2164,
      "ап": 2165,
      "видео": 2166,
      "сделал": 2167,
      "интерес": 2168,
      "века": 2169,
      "мета": 2170,
      "помощи": 2171,
      "каса": 2172,
      "##im": 2173,
      "##хран": 2174,
      "ост": 2175,
      "##град": 2176,
      "многие": 2177,
      "степ": 2178,
      "qu": 2179,
      "нового": 2180,
      "##ющая": 2181,
      "комит": 2182,
      "неде": 2183,
      "отсут": 2184,
      "сколько": 2185,
      "##рец": 2186,
      "знал": 2187,
      "мощ": 2188,
      "федера": 2189,
      "##пов": 2190,
      "##la": 2191,
      "компания": 2192,
      "ситуации": 2193,
      "##гер": 2194,
      "##чном": 2195,
      "##мон": 2196,
      "раньше": 2197,
      "работать": 2198,
      "правительства": 2199,
      "##тного": 2200,
      "##ента": 2201,
      "##вшая": 2202,
      "имени": 2203,
      "архи": 2204,
      "##тым": 2205,
      "управления": 2206,
      "оди": 2207,
      "последние": 2208,
      "добро": 2209,
      "уче": 2210,
      "##лях": 2211,
      "##торов": 2212,
      "##лко": 2213,
      "превра": 2214,
      "развития": 2215,
      "31": 2216,
      "кам": 2217,
      "группа": 2218,
      "настоящее": 2219,
      "сре": 2220,
      "конца": 2221,
      "##цем": 2222,
      "##форми": 2223,
      "##енси": 2224,
      "умер": 2225,
      "##они": 2226,
      "прежде": 2227,
      "думаю": 2228,
      "нему": 2229,
      "##дки": 2230,
      "ум": 2231,
      "##чено": 2232,
      "желез": 2233,
      "пес": 2234,
      "считает": 2235,
      "##юза": 2236,
      "ата": 2237,
      "уверен": 2238,
      "зло": 2239,
      "##телям": 2240,
      "##бов": 2241,
      "##мень": 2242,
      "##сона": 2243,
      "кило": 2244,
      "туда": 2245,
      "лица": 2246,
      "##дина": 2247,
      "##тник": 2248,
      "уме": 2249,
      "##льную": 2250,
      "##ственные": 2251,
      "##ch": 2252,
      "понял": 2253,
      "француз": 2254,
      "##руется": 2255,
      "маль": 2256,
      "##чную": 2257,
      "сильно": 2258,
      "бло": 2259,
      "проте": 2260,
      "легко": 2261,
      "реки": 2262,
      "выда": 2263,
      "##тельное": 2264,
      "взгляд": 2265,
      "сна": 2266,
      "##вили": 2267,
      "ква": 2268,
      "демо": 2269,
      "сокра": 2270,
      "самых": 2271,
      "##руют": 2272,
      "составляет": 2273,
      "существо": 2274,
      "видел": 2275,
      "сом": 2276,
      "могла": 2277,
      "2012": 2278,
      "сообщили": 2279,
      "##нили": 2280,
      "совме": 2281,
      "##сер": 2282,
      "первых": 2283,
      "самое": 2284,
      "технологи": 2285,
      "службы": 2286,
      "##ent": 2287,
      "каждо": 2288,
      "##нке": 2289,
      "решил": 2290,
      "пропа": 2291,
      "##ленные": 2292,
      "бога": 2293,
      "выи": 2294,
      "одну": 2295,
      "##лье": 2296,
      "##лад": 2297,
      "кня": 2298,
      "новые": 2299,
      "боя": 2300,
      "##нки": 2301,
      "имя": 2302,
      "мага": 2303,
      "опять": 2304,
      "тради": 2305,
      "пишет": 2306,
      "такая": 2307,
      "довольно": 2308,
      "дверь": 2309,
      "##сам": 2310,
      "пути": 2311,
      "##мар": 2312,
      "##лот": 2313,
      "##мые": 2314,
      "##ква": 2315,
      "мере": 2316,
      "##лам": 2317,
      "следует": 2318,
      "плохо": 2319,
      "иска": 2320,
      "2010": 2321,
      "##гры": 2322,
      "новых": 2323,
      "помощью": 2324,
      "игры": 2325,
      "##ведение": 2326,
      "полно": 2327,
      "##нюю": 2328,
      "ще": 2329,
      "##вшим": 2330,
      "поро": 2331,
      "##мых": 2332,
      "##бил": 2333,
      "##рту": 2334,
      "наконец": 2335,
      "прод": 2336,
      "план": 2337,
      "произошло": 2338,
      "##мира": 2339,
      "годах": 2340,
      "голос": 2341,
      "##ir": 2342,
      "##нение": 2343,
      "##матиче": 2344,
      "первого": 2345,
      "##рование": 2346,
      "зе": 2347,
      "наших": 2348,
      "##ваясь": 2349,
      "##дами": 2350,
      "##шта": 2351,
      "знает": 2352,
      "заседа": 2353,
      "практически": 2354,
      "##шению": 2355,
      "впервые": 2356,
      "чемпионата": 2357,
      "##рез": 2358,
      "##фици": 2359,
      "##нного": 2360,
      "ид": 2361,
      "средства": 2362,
      "посте": 2363,
      "##рус": 2364,
      "##чек": 2365,
      "очеред": 2366,
      "возник": 2367,
      "станет": 2368,
      "поста": 2369,
      "пяти": 2370,
      "прос": 2371,
      "##раи": 2372,
      "некоторые": 2373,
      "гер": 2374,
      "своими": 2375,
      "объяс": 2376,
      "##сю": 2377,
      "канди": 2378,
      "##сами": 2379,
      "крас": 2380,
      "реко": 2381,
      "зам": 2382,
      "##ат": 2383,
      "пришлось": 2384,
      "проблемы": 2385,
      "скорее": 2386,
      "наш": 2387,
      "происходит": 2388,
      "##печат": 2389,
      "воды": 2390,
      "мас": 2391,
      "отправ": 2392,
      "разо": 2393,
      "мето": 2394,
      "##дор": 2395,
      "##никам": 2396,
      "мона": 2397,
      "одном": 2398,
      "миллионов": 2399,
      "роль": 2400,
      "наблюда": 2401,
      "хочет": 2402,
      "решения": 2403,
      "дав": 2404,
      "правда": 2405,
      "##дко": 2406,
      "нена": 2407,
      "многих": 2408,
      "##дах": 2409,
      "##ra": 2410,
      "глубо": 2411,
      "военно": 2412,
      "##лле": 2413,
      "##вича": 2414,
      "##гах": 2415,
      "анали": 2416,
      "60": 2417,
      "примерно": 2418,
      "геро": 2419,
      "аэро": 2420,
      "##ченко": 2421,
      "премьер": 2422,
      "##мана": 2423,
      "##тья": 2424,
      "##шил": 2425,
      "спор": 2426,
      "##ew": 2427,
      "низ": 2428,
      "зави": 2429,
      "замести": 2430,
      "##сур": 2431,
      "##цам": 2432,
      "##зем": 2433,
      "клю": 2434,
      "##дан": 2435,
      "пост": 2436,
      "матча": 2437,
      "самым": 2438,
      "тю": 2439,
      "ката": 2440,
      "##лах": 2441,
      "##пар": 2442,
      "##стях": 2443,
      "деятельности": 2444,
      "арми": 2445,
      "помощь": 2446,
      "движения": 2447,
      "##тит": 2448,
      "ль": 2449,
      "##ун": 2450,
      "дли": 2451,
      "2011": 2452,
      "##лер": 2453,
      "инф": 2454,
      "##два": 2455,
      "##гна": 2456,
      "##бора": 2457,
      "тело": 2458,
      "оцен": 2459,
      "35": 2460,
      "дел": 2461,
      "ана": 2462,
      "##ческое": 2463,
      "улице": 2464,
      "вышел": 2465,
      "бума": 2466,
      "силу": 2467,
      "парт": 2468,
      "важно": 2469,
      "полиции": 2470,
      "##ственным": 2471,
      "техниче": 2472,
      "##ванием": 2473,
      "краси": 2474,
      "обычно": 2475,
      "женщина": 2476,
      "средств": 2477,
      "пользу": 2478,
      "связан": 2479,
      "##вов": 2480,
      "являются": 2481,
      "##дам": 2482,
      "меха": 2483,
      "денег": 2484,
      "##зил": 2485,
      "гос": 2486,
      "##лая": 2487,
      "трав": 2488,
      "проб": 2489,
      "##дения": 2490,
      "##чета": 2491,
      "лично": 2492,
      "##няет": 2493,
      "уси": 2494,
      "##гно": 2495,
      "добавил": 2496,
      "независи": 2497,
      "вместо": 2498,
      "чита": 2499,
      "##тики": 2500,
      "будем": 2501,
      "говорят": 2502,
      "##слов": 2503,
      "нескольких": 2504,
      "возможности": 2505,
      "речь": 2506,
      "##менти": 2507,
      "##чении": 2508,
      "получить": 2509,
      "мои": 2510,
      "##сах": 2511,
      "форма": 2512,
      "of": 2513,
      "бар": 2514,
      "##ческим": 2515,
      "радио": 2516,
      "##тию": 2517,
      "выну": 2518,
      "другими": 2519,
      "##жным": 2520,
      "доказа": 2521,
      "система": 2522,
      "##ственное": 2523,
      "##ur": 2524,
      "отец": 2525,
      "вопросы": 2526,
      "##щему": 2527,
      "##лети": 2528,
      "корре": 2529,
      "матче": 2530,
      "обеща": 2531,
      "##боро": 2532,
      "##ровки": 2533,
      "сих": 2534,
      "функ": 2535,
      "начали": 2536,
      "прибли": 2537,
      "ошиб": 2538,
      "сюда": 2539,
      "бом": 2540,
      "##низ": 2541,
      "никаких": 2542,
      "##лым": 2543,
      "спорт": 2544,
      "длин": 2545,
      "##тивно": 2546,
      "оказался": 2547,
      "слово": 2548,
      "стара": 2549,
      "главы": 2550,
      "сне": 2551,
      "##думы": 2552,
      "правитель": 2553,
      "тео": 2554,
      "##бло": 2555,
      "нач": 2556,
      "вроде": 2557,
      "нали": 2558,
      "##тельная": 2559,
      "серд": 2560,
      "невозможно": 2561,
      "сторон": 2562,
      "коллек": 2563,
      "##мир": 2564,
      "##мор": 2565,
      "замеча": 2566,
      "годов": 2567,
      "массо": 2568,
      "промышлен": 2569,
      "##тива": 2570,
      "меч": 2571,
      "##бран": 2572,
      "##цер": 2573,
      "суде": 2574,
      "сообщалось": 2575,
      "дево": 2576,
      "##пан": 2577,
      "##шек": 2578,
      "разве": 2579,
      "жить": 2580,
      "ску": 2581,
      "##рева": 2582,
      "##гар": 2583,
      "##мым": 2584,
      "свобод": 2585,
      "##емые": 2586,
      "понять": 2587,
      "##чке": 2588,
      "древ": 2589,
      "##мин": 2590,
      "следова": 2591,
      "метров": 2592,
      "мысли": 2593,
      "##ia": 2594,
      "работе": 2595,
      "##порт": 2596,
      "представитель": 2597,
      "разу": 2598,
      "клуба": 2599,
      "психо": 2600,
      "нынеш": 2601,
      "чинов": 2602,
      "гости": 2603,
      "получили": 2604,
      "моя": 2605,
      "##няется": 2606,
      "цвет": 2607,
      "состоянии": 2608,
      "190": 2609,
      "стату": 2610,
      "##ляется": 2611,
      "несмотря": 2612,
      "шу": 2613,
      "другим": 2614,
      "70": 2615,
      "можете": 2616,
      "пото": 2617,
      "уточ": 2618,
      "##сад": 2619,
      "служба": 2620,
      "корот": 2621,
      "мужчина": 2622,
      "##дев": 2623,
      "##фак": 2624,
      "весьма": 2625,
      "вперед": 2626,
      "москов": 2627,
      "##год": 2628,
      "##тания": 2629,
      "зрения": 2630,
      "##ace": 2631,
      "приводи": 2632,
      "водо": 2633,
      "ситуация": 2634,
      "позд": 2635,
      "утра": 2636,
      "типа": 2637,
      "раза": 2638,
      "##пен": 2639,
      "револю": 2640,
      "горя": 2641,
      "##кри": 2642,
      "некоторых": 2643,
      "2009": 2644,
      "##дри": 2645,
      "работает": 2646,
      "##оз": 2647,
      "##поли": 2648,
      "бле": 2649,
      "2008": 2650,
      "доступ": 2651,
      "проект": 2652,
      "##нике": 2653,
      "колле": 2654,
      "суда": 2655,
      "##кса": 2656,
      "ноги": 2657,
      "сложно": 2658,
      "##тиви": 2659,
      "уз": 2660,
      "внутри": 2661,
      "эле": 2662,
      "доби": 2663,
      "пенси": 2664,
      "иногда": 2665,
      "##чили": 2666,
      "фотографи": 2667,
      "##гло": 2668,
      "##кли": 2669,
      "##туру": 2670,
      "радо": 2671,
      "условиях": 2672,
      "другу": 2673,
      "центре": 2674,
      "45": 2675,
      "соба": 2676,
      "посла": 2677,
      "зу": 2678,
      "цели": 2679,
      "женщины": 2680,
      "первую": 2681,
      "держа": 2682,
      "благодаря": 2683,
      "сот": 2684,
      "далеко": 2685,
      "кому": 2686,
      "название": 2687,
      "##тила": 2688,
      "посвя": 2689,
      "женщин": 2690,
      "центр": 2691,
      "месяцев": 2692,
      "кив": 2693,
      "проблема": 2694,
      "разных": 2695,
      "образ": 2696,
      "##туре": 2697,
      "моз": 2698,
      "наиболее": 2699,
      "постоянно": 2700,
      "уровне": 2701,
      "дополнитель": 2702,
      "##ую": 2703,
      "##пет": 2704,
      "доме": 2705,
      "гри": 2706,
      "заметил": 2707,
      "первом": 2708,
      "##гро": 2709,
      "бизнес": 2710,
      "особо": 2711,
      "##тика": 2712,
      "безу": 2713,
      "##ческую": 2714,
      "##лку": 2715,
      "север": 2716,
      "работал": 2717,
      "веду": 2718,
      "##тое": 2719,
      "##ент": 2720,
      "предупре": 2721,
      "придется": 2722,
      "пару": 2723,
      "90": 2724,
      "ев": 2725,
      "##гут": 2726,
      "##жает": 2727,
      "обороны": 2728,
      "какое": 2729,
      "знать": 2730,
      "##мую": 2731,
      "данные": 2732,
      "статисти": 2733,
      "##город": 2734,
      "##тором": 2735,
      "##шке": 2736,
      "ран": 2737,
      "сможет": 2738,
      "дороги": 2739,
      "##чности": 2740,
      "##ющими": 2741,
      "путь": 2742,
      "какая": 2743,
      "ряд": 2744,
      "завтра": 2745,
      "глаз": 2746,
      "выход": 2747,
      "##ссия": 2748,
      "информацию": 2749,
      "соответству": 2750,
      "поверх": 2751,
      "клуб": 2752,
      "имеют": 2753,
      "кори": 2754,
      "болез": 2755,
      "военных": 2756,
      "едва": 2757,
      "воро": 2758,
      "машины": 2759,
      "высоко": 2760,
      "награ": 2761,
      "увидел": 2762,
      "##мая": 2763,
      "##чика": 2764,
      "##ссы": 2765,
      "пору": 2766,
      "покупа": 2767,
      "тысячи": 2768,
      "##бар": 2769,
      "##лон": 2770,
      "ори": 2771,
      "насто": 2772,
      "линии": 2773,
      "##тона": 2774,
      "реак": 2775,
      "встречи": 2776,
      "число": 2777,
      "британ": 2778,
      "настро": 2779,
      "неве": 2780,
      "команду": 2781,
      "##чих": 2782,
      "##тали": 2783,
      "столь": 2784,
      "сет": 2785,
      "понимаю": 2786,
      "ат": 2787,
      "##гия": 2788,
      "шесть": 2789,
      "##чник": 2790,
      "##бурге": 2791,
      "##писи": 2792,
      "каким": 2793,
      "##гал": 2794,
      "поводу": 2795,
      "ока": 2796,
      "абсолю": 2797,
      "яв": 2798,
      "##os": 2799,
      "казалось": 2800,
      "##фри": 2801,
      "яр": 2802,
      "##тивных": 2803,
      "остро": 2804,
      "основном": 2805,
      "##ственная": 2806,
      "##фу": 2807,
      "шан": 2808,
      "использовать": 2809,
      "in": 2810,
      "##ера": 2811,
      "торгов": 2812,
      "министра": 2813,
      "став": 2814,
      "коле": 2815,
      "##стров": 2816,
      "правительство": 2817,
      "##ook": 2818,
      "эпи": 2819,
      "##анта": 2820,
      "избира": 2821,
      "зачем": 2822,
      "кров": 2823,
      "поясни": 2824,
      "земли": 2825,
      "форми": 2826,
      "мать": 2827,
      "##жели": 2828,
      "##чиво": 2829,
      "##джи": 2830,
      "##ut": 2831,
      "##тное": 2832,
      "свидетель": 2833,
      "##тую": 2834,
      "##сток": 2835,
      "##щиков": 2836,
      "холод": 2837,
      "80": 2838,
      "события": 2839,
      "вынужден": 2840,
      "тихо": 2841,
      "юри": 2842,
      "##рованы": 2843,
      "проекта": 2844,
      "##мое": 2845,
      "ува": 2846,
      "демон": 2847,
      "союз": 2848,
      "покры": 2849,
      "##тку": 2850,
      "хотелось": 2851,
      "программы": 2852,
      "мер": 2853,
      "re": 2854,
      "замо": 2855,
      "удар": 2856,
      "##ссу": 2857,
      "##бурга": 2858,
      "первым": 2859,
      "ru": 2860,
      "транспорт": 2861,
      "точки": 2862,
      "##ow": 2863,
      "бело": 2864,
      "макси": 2865,
      "конкре": 2866,
      "##ov": 2867,
      "##стана": 2868,
      "руках": 2869,
      "принял": 2870,
      "мг": 2871,
      "пала": 2872,
      "лиц": 2873,
      "##ционных": 2874,
      "##тке": 2875,
      "##кому": 2876,
      "своему": 2877,
      "итоге": 2878,
      "возвраща": 2879,
      "становится": 2880,
      "##ag": 2881,
      "##жки": 2882,
      "есте": 2883,
      "столько": 2884,
      "микро": 2885,
      "обязан": 2886,
      "##20": 2887,
      "##жная": 2888,
      "##тите": 2889,
      "дети": 2890,
      "твор": 2891,
      "##стам": 2892,
      "##ционного": 2893,
      "десять": 2894,
      "пересе": 2895,
      "целом": 2896,
      "исчез": 2897,
      "кате": 2898,
      "любов": 2899,
      "сф": 2900,
      "операции": 2901,
      "см": 2902,
      "сначала": 2903,
      "##бка": 2904,
      "характер": 2905,
      "степени": 2906,
      "##нина": 2907,
      "удоб": 2908,
      "которому": 2909,
      "инициа": 2910,
      "##образ": 2911,
      "##вшихся": 2912,
      "проблем": 2913,
      "##нная": 2914,
      "##пру": 2915,
      "пом": 2916,
      "##обе": 2917,
      "##стами": 2918,
      "##лил": 2919,
      "всему": 2920,
      "выступ": 2921,
      "нашего": 2922,
      "рав": 2923,
      "другом": 2924,
      "никак": 2925,
      "целью": 2926,
      "##меня": 2927,
      "взял": 2928,
      "##поль": 2929,
      "нака": 2930,
      "##тная": 2931,
      "отца": 2932,
      "взаимо": 2933,
      "директор": 2934,
      "моря": 2935,
      "##емого": 2936,
      "подчеркнул": 2937,
      "##фы": 2938,
      "##чными": 2939,
      "##ствовали": 2940,
      "##мос": 2941,
      "интервью": 2942,
      "путе": 2943,
      "практи": 2944,
      "принять": 2945,
      "##чился": 2946,
      "ау": 2947,
      "ца": 2948,
      "##рица": 2949,
      "тела": 2950,
      "море": 2951,
      "##iv": 2952,
      "##ющую": 2953,
      "уровня": 2954,
      "написал": 2955,
      "##леты": 2956,
      "цар": 2957,
      "##зация": 2958,
      "##чена": 2959,
      "службе": 2960,
      "иначе": 2961,
      "комитета": 2962,
      "позволя": 2963,
      "поля": 2964,
      "ниже": 2965,
      "сердце": 2966,
      "прошлом": 2967,
      "добы": 2968,
      "##ствием": 2969,
      "нарко": 2970,
      "##дим": 2971,
      "##тным": 2972,
      "##дон": 2973,
      "##чиков": 2974,
      "тен": 2975,
      "отре": 2976,
      "непре": 2977,
      "распростран": 2978,
      "##шими": 2979,
      "согласно": 2980,
      "странице": 2981,
      "##тек": 2982,
      "играть": 2983,
      "худож": 2984,
      "вовсе": 2985,
      "каких": 2986,
      "##ниях": 2987,
      "сосед": 2988,
      "##ческом": 2989,
      "зад": 2990,
      "##пно": 2991,
      "трудно": 2992,
      "##льт": 2993,
      "власть": 2994,
      "сын": 2995,
      "штра": 2996,
      "гар": 2997,
      "2007": 2998,
      "##вии": 2999,
      "команда": 3000,
      "музыка": 3001,
      "##циях": 3002,
      "весе": 3003,
      "виду": 3004,
      "гром": 3005,
      "час": 3006,
      "слуша": 3007,
      "пусть": 3008,
      "студен": 3009,
      "##нда": 3010,
      "вернулся": 3011,
      "настолько": 3012,
      "вещи": 3013,
      "пого": 3014,
      "##рет": 3015,
      "стен": 3016,
      "игру": 3017,
      "культуры": 3018,
      "подс": 3019,
      "гораздо": 3020,
      "касается": 3021,
      "порядке": 3022,
      "##зия": 3023,
      "##рение": 3024,
      "тепло": 3025,
      "пове": 3026,
      "смог": 3027,
      "сообщении": 3028,
      "##чению": 3029,
      "общем": 3030,
      "школы": 3031,
      "видимо": 3032,
      "500": 3033,
      "самые": 3034,
      "иметь": 3035,
      "общества": 3036,
      "оружия": 3037,
      "еже": 3038,
      "##доль": 3039,
      "36": 3040,
      "появля": 3041,
      "##тельности": 3042,
      "перво": 3043,
      "арен": 3044,
      "##пел": 3045,
      "срок": 3046,
      "дать": 3047,
      "##нное": 3048,
      "нами": 3049,
      "##мит": 3050,
      "##жены": 3051,
      "впечат": 3052,
      "откуда": 3053,
      "##пил": 3054,
      "политики": 3055,
      "церков": 3056,
      "остав": 3057,
      "муниципа": 3058,
      "провести": 3059,
      "##ана": 3060,
      "глазами": 3061,
      "выпла": 3062,
      "изо": 3063,
      "помочь": 3064,
      "вести": 3065,
      "двор": 3066,
      "предвари": 3067,
      "##лив": 3068,
      "образования": 3069,
      "уро": 3070,
      "позже": 3071,
      "взять": 3072,
      "некото": 3073,
      "генерал": 3074,
      "мыс": 3075,
      "300": 3076,
      "силь": 3077,
      "##ится": 3078,
      "##нта": 3079,
      "боро": 3080,
      "администрации": 3081,
      "##em": 3082,
      "##тыми": 3083,
      "оппози": 3084,
      "месяца": 3085,
      "дни": 3086,
      "##това": 3087,
      "##шев": 3088,
      "##um": 3089,
      "девушка": 3090,
      "32": 3091,
      "идти": 3092,
      "for": 3093,
      "сек": 3094,
      "дал": 3095,
      "десяти": 3096,
      "производи": 3097,
      "##оте": 3098,
      "совета": 3099,
      "первые": 3100,
      "уровень": 3101,
      "двери": 3102,
      "##щик": 3103,
      "##пки": 3104,
      "оружие": 3105,
      "земле": 3106,
      "одновременно": 3107,
      "вечером": 3108,
      "##лец": 3109,
      "##нению": 3110,
      "рода": 3111,
      "экспо": 3112,
      "##зин": 3113,
      "прошлого": 3114,
      "гео": 3115,
      "мили": 3116,
      "производства": 3117,
      "имел": 3118,
      "брат": 3119,
      "##луч": 3120,
      "документа": 3121,
      "республики": 3122,
      "##кали": 3123,
      "посмотреть": 3124,
      "находятся": 3125,
      "инвести": 3126,
      "##бок": 3127,
      "##джа": 3128,
      "представители": 3129,
      "##ec": 3130,
      "##ні": 3131,
      "марш": 3132,
      "ua": 3133,
      "видно": 3134,
      "наверное": 3135,
      "оба": 3136,
      "спец": 3137,
      "моего": 3138,
      "позиции": 3139,
      "189": 3140,
      "##вит": 3141,
      "разно": 3142,
      "автор": 3143,
      "цвета": 3144,
      "смерть": 3145,
      "##чила": 3146,
      "фильм": 3147,
      "учены": 3148,
      "спорта": 3149,
      "другого": 3150,
      "##мера": 3151,
      "##кер": 3152,
      "процесс": 3153,
      "##ht": 3154,
      "театра": 3155,
      "##дио": 3156,
      "семьи": 3157,
      "##кров": 3158,
      "месяц": 3159,
      "мяг": 3160,
      "большинство": 3161,
      "домаш": 3162,
      "государство": 3163,
      "##ровала": 3164,
      "различных": 3165,
      "000": 3166,
      "##мого": 3167,
      "теку": 3168,
      "оказалось": 3169,
      "##гни": 3170,
      "часа": 3171,
      "##ченных": 3172,
      "иностранных": 3173,
      "##кор": 3174,
      "думал": 3175,
      "заво": 3176,
      "оказыва": 3177,
      "##женных": 3178,
      "##ждении": 3179,
      "включая": 3180,
      "версии": 3181,
      "каждого": 3182,
      "##гран": 3183,
      "##пя": 3184,
      "делу": 3185,
      "вами": 3186,
      "пти": 3187,
      "##ay": 3188,
      "учеб": 3189,
      "двумя": 3190,
      "##сила": 3191,
      "матч": 3192,
      "тренер": 3193,
      "##пись": 3194,
      "вечер": 3195,
      "одино": 3196,
      "честь": 3197,
      "друзья": 3198,
      "стоял": 3199,
      "считают": 3200,
      "провин": 3201,
      "2006": 3202,
      "ракет": 3203,
      "явно": 3204,
      "недели": 3205,
      "and": 3206,
      "##хар": 3207,
      "лидер": 3208,
      "##нос": 3209,
      "##тельную": 3210,
      "утром": 3211,
      "##гети": 3212,
      "медленно": 3213,
      "опа": 3214,
      "форму": 3215,
      "##сторон": 3216,
      "данных": 3217,
      "##форм": 3218,
      "момента": 3219,
      "роли": 3220,
      "2000": 3221,
      "##чики": 3222,
      "##oc": 3223,
      "##нным": 3224,
      "##гая": 3225,
      "##бир": 3226,
      "труд": 3227,
      "никакого": 3228,
      "духов": 3229,
      "ситуацию": 3230,
      "##тала": 3231,
      "##телю": 3232,
      "резко": 3233,
      "развед": 3234,
      "##вшиеся": 3235,
      "руками": 3236,
      "ими": 3237,
      "##нера": 3238,
      "внимания": 3239,
      "станции": 3240,
      "располага": 3241,
      "##сред": 3242,
      "воздуш": 3243,
      "таком": 3244,
      "существует": 3245,
      "солдат": 3246,
      "вчера": 3247,
      "##оны": 3248,
      "33": 3249,
      "мужчин": 3250,
      "дро": 3251,
      "факт": 3252,
      "##льд": 3253,
      "##летов": 3254,
      "площади": 3255,
      "##od": 3256,
      "незакон": 3257,
      "порт": 3258,
      "важ": 3259,
      "погибли": 3260,
      "##ce": 3261,
      "##нан": 3262,
      "делает": 3263,
      "##мани": 3264,
      "##ri": 3265,
      "##ющем": 3266,
      "##ющихся": 3267,
      "интернет": 3268,
      "членов": 3269,
      "отдела": 3270,
      "пет": 3271,
      "предыду": 3272,
      "плен": 3273,
      "##тации": 3274,
      "##пле": 3275,
      "##тании": 3276,
      "предпринима": 3277,
      "креп": 3278,
      "##щать": 3279,
      "2017": 3280,
      "площадь": 3281,
      "бед": 3282,
      "область": 3283,
      "яко": 3284,
      "церкви": 3285,
      "итогам": 3286,
      "можем": 3287,
      "постанов": 3288,
      "красо": 3289,
      "возле": 3290,
      "ген": 3291,
      "пон": 3292,
      "деятельность": 3293,
      "##ционные": 3294,
      "##мость": 3295,
      "круг": 3296,
      "книги": 3297,
      "изменения": 3298,
      "темно": 3299,
      "газа": 3300,
      "зарабо": 3301,
      "язык": 3302,
      "экономики": 3303,
      "##тивного": 3304,
      "голу": 3305,
      "косми": 3306,
      "##эль": 3307,
      "другое": 3308,
      "ава": 3309,
      "сети": 3310,
      "регуляр": 3311,
      "оказались": 3312,
      "движение": 3313,
      "##вании": 3314,
      "##стые": 3315,
      "##тим": 3316,
      "##льными": 3317,
      "##кру": 3318,
      "видеть": 3319,
      "избе": 3320,
      "неделю": 3321,
      "относительно": 3322,
      "##лке": 3323,
      "проведения": 3324,
      "группи": 3325,
      "##book": 3326,
      "зар": 3327,
      "юго": 3328,
      "список": 3329,
      "религи": 3330,
      "##ів": 3331,
      "такую": 3332,
      "##жено": 3333,
      "нер": 3334,
      "основе": 3335,
      "мнение": 3336,
      "##зирован": 3337,
      "ребенка": 3338,
      "ядер": 3339,
      "берегу": 3340,
      "похоже": 3341,
      "досто": 3342,
      "случилось": 3343,
      "землю": 3344,
      "лоша": 3345,
      "гг": 3346,
      "конструк": 3347,
      "доб": 3348,
      "зер": 3349,
      "стреми": 3350,
      "спаса": 3351,
      "приводит": 3352,
      "34": 3353,
      "трени": 3354,
      "газо": 3355,
      "решили": 3356,
      "##ленного": 3357,
      "банков": 3358,
      "##сия": 3359,
      "##th": 3360,
      "##рика": 3361,
      "##енных": 3362,
      "недавно": 3363,
      "##нович": 3364,
      "##кос": 3365,
      "отвер": 3366,
      "##вшую": 3367,
      "слов": 3368,
      "опо": 3369,
      "##чества": 3370,
      "реа": 3371,
      "ранен": 3372,
      "хок": 3373,
      "сегодняш": 3374,
      "сезона": 3375,
      "разные": 3376,
      "##циями": 3377,
      "##бель": 3378,
      "##жению": 3379,
      "вице": 3380,
      "мастер": 3381,
      "ночью": 3382,
      "получила": 3383,
      "тяжело": 3384,
      "причина": 3385,
      "остается": 3386,
      "##лую": 3387,
      "огонь": 3388,
      "участников": 3389,
      "логи": 3390,
      "##ess": 3391,
      "##обо": 3392,
      "заре": 3393,
      "вскоре": 3394,
      "вниз": 3395,
      "меры": 3396,
      "##гали": 3397,
      "##ation": 3398,
      "принято": 3399,
      "фир": 3400,
      "телефон": 3401,
      "отмечает": 3402,
      "##одо": 3403,
      "прежнему": 3404,
      "знамени": 3405,
      "##зит": 3406,
      "положение": 3407,
      "всеми": 3408,
      "рост": 3409,
      "класси": 3410,
      "ясно": 3411,
      "процентов": 3412,
      "цены": 3413,
      "народа": 3414,
      "##тье": 3415,
      "история": 3416,
      "##тивные": 3417,
      "путеше": 3418,
      "##суль": 3419,
      "главное": 3420,
      "член": 3421,
      "##чия": 3422,
      "молча": 3423,
      "прис": 3424,
      "##ятся": 3425,
      "кем": 3426,
      "предложил": 3427,
      "порядка": 3428,
      "зака": 3429,
      "двое": 3430,
      "мм": 3431,
      "облада": 3432,
      "обратно": 3433,
      "назначен": 3434,
      "пришел": 3435,
      "##дже": 3436,
      "северо": 3437,
      "осталось": 3438,
      "времена": 3439,
      "предприятия": 3440,
      "##вшегося": 3441,
      "жест": 3442,
      "второго": 3443,
      "четырех": 3444,
      "источник": 3445,
      "##бами": 3446,
      "##тельность": 3447,
      "концов": 3448,
      "здания": 3449,
      "##логии": 3450,
      "опла": 3451,
      "порта": 3452,
      "смотреть": 3453,
      "объедин": 3454,
      "непро": 3455,
      "to": 3456,
      "людям": 3457,
      "управля": 3458,
      "мое": 3459,
      "патри": 3460,
      "историю": 3461,
      "##дение": 3462,
      "культур": 3463,
      "##сл": 3464,
      "зато": 3465,
      "орден": 3466,
      "поезд": 3467,
      "номер": 3468,
      "какую": 3469,
      "верх": 3470,
      "##нге": 3471,
      "##цом": 3472,
      "метро": 3473,
      "зара": 3474,
      "предмет": 3475,
      "жена": 3476,
      "##ними": 3477,
      "сотрудников": 3478,
      "##кал": 3479,
      "отстав": 3480,
      "##видно": 3481,
      "судеб": 3482,
      "шаг": 3483,
      "##ланд": 3484,
      "сообщила": 3485,
      "стороне": 3486,
      "кафе": 3487,
      "##сного": 3488,
      "рынке": 3489,
      "##енные": 3490,
      "##дка": 3491,
      "нравится": 3492,
      "находился": 3493,
      "прио": 3494,
      "сына": 3495,
      "глазах": 3496,
      "##ровано": 3497,
      "проведен": 3498,
      "победу": 3499,
      "университета": 3500,
      "##щена": 3501,
      "зи": 3502,
      "заявила": 3503,
      "серии": 3504,
      "родствен": 3505,
      "итальян": 3506,
      "##эм": 3507,
      "##плы": 3508,
      "##ченные": 3509,
      "оз": 3510,
      "брать": 3511,
      "жда": 3512,
      "##енти": 3513,
      "преступления": 3514,
      "увидеть": 3515,
      "соответствии": 3516,
      "твер": 3517,
      "спас": 3518,
      "##сна": 3519,
      "зри": 3520,
      "сцена": 3521,
      "боле": 3522,
      "соревнова": 3523,
      "меж": 3524,
      "временем": 3525,
      "##ваны": 3526,
      "##шина": 3527,
      "условия": 3528,
      "##евич": 3529,
      "агентство": 3530,
      "готовы": 3531,
      "##тную": 3532,
      "семье": 3533,
      "плю": 3534,
      "голове": 3535,
      "выборов": 3536,
      "##вец": 3537,
      "##риаль": 3538,
      "##щены": 3539,
      "мимо": 3540,
      "##бина": 3541,
      "##лями": 3542,
      "полков": 3543,
      "188": 3544,
      "противника": 3545,
      "самостоя": 3546,
      "маги": 3547,
      "ибо": 3548,
      "органов": 3549,
      "произнес": 3550,
      "умень": 3551,
      "последнее": 3552,
      "жили": 3553,
      "сму": 3554,
      "спустя": 3555,
      "##вому": 3556,
      "фильма": 3557,
      "незна": 3558,
      "##гули": 3559,
      "упомина": 3560,
      "выборах": 3561,
      "##шко": 3562,
      "хотят": 3563,
      "разда": 3564,
      "##чим": 3565,
      "прото": 3566,
      "##стных": 3567,
      "позволяет": 3568,
      "знаете": 3569,
      "##гина": 3570,
      "края": 3571,
      "##бю": 3572,
      "заявление": 3573,
      "##стям": 3574,
      "лице": 3575,
      "дороге": 3576,
      "##вана": 3577,
      "вышла": 3578,
      "##нит": 3579,
      "##чев": 3580,
      "потреб": 3581,
      "назвал": 3582,
      "какого": 3583,
      "2005": 3584,
      "##тик": 3585,
      "38": 3586,
      "монасты": 3587,
      "говорили": 3588,
      "энергети": 3589,
      "мысль": 3590,
      "##тков": 3591,
      "воду": 3592,
      "правильно": 3593,
      "состояние": 3594,
      "начало": 3595,
      "дис": 3596,
      "отрица": 3597,
      "##мас": 3598,
      "##ul": 3599,
      "крови": 3600,
      "машину": 3601,
      "##нских": 3602,
      "##кта": 3603,
      "буква": 3604,
      "##дем": 3605,
      "кое": 3606,
      "грузо": 3607,
      "поступа": 3608,
      "поддержку": 3609,
      "дочь": 3610,
      "##няют": 3611,
      "востоке": 3612,
      "чере": 3613,
      "зас": 3614,
      "странах": 3615,
      "успел": 3616,
      "##ваем": 3617,
      "вижу": 3618,
      "большие": 3619,
      "чрез": 3620,
      "сезоне": 3621,
      "ору": 3622,
      "вернуться": 3623,
      "млад": 3624,
      "преда": 3625,
      "провел": 3626,
      "оказалась": 3627,
      "шести": 3628,
      "##носи": 3629,
      "могло": 3630,
      "далее": 3631,
      "большая": 3632,
      "чемпионате": 3633,
      "стары": 3634,
      "##бера": 3635,
      "скан": 3636,
      "##стного": 3637,
      "##ющиеся": 3638,
      "##гор": 3639,
      "фами": 3640,
      "##щается": 3641,
      "##тников": 3642,
      "##ard": 3643,
      "небе": 3644,
      "активи": 3645,
      "37": 3646,
      "возника": 3647,
      "абсолютно": 3648,
      "##ложение": 3649,
      "чисто": 3650,
      "создать": 3651,
      "ввер": 3652,
      "главным": 3653,
      "лета": 3654,
      "горе": 3655,
      "##сные": 3656,
      "мужчины": 3657,
      "##зен": 3658,
      "паро": 3659,
      "моему": 3660,
      "улуч": 3661,
      "##сных": 3662,
      "##av": 3663,
      "частью": 3664,
      "добра": 3665,
      "##щал": 3666,
      "##ляли": 3667,
      "комнату": 3668,
      "##роваться": 3669,
      "бывает": 3670,
      "новости": 3671,
      "причем": 3672,
      "окружа": 3673,
      "гло": 3674,
      "##мат": 3675,
      "вод": 3676,
      "нашли": 3677,
      "186": 3678,
      "чему": 3679,
      "бур": 3680,
      "кора": 3681,
      "##щими": 3682,
      "председатель": 3683,
      "##ьми": 3684,
      "главе": 3685,
      "бол": 3686,
      "##щер": 3687,
      "секретарь": 3688,
      "максима": 3689,
      "округа": 3690,
      "ладо": 3691,
      "брон": 3692,
      "остался": 3693,
      "##жая": 3694,
      "проходит": 3695,
      "##мия": 3696,
      "воскрес": 3697,
      "свободы": 3698,
      "хол": 3699,
      "насколько": 3700,
      "##рована": 3701,
      "последова": 3702,
      "##вшее": 3703,
      "бор": 3704,
      "газета": 3705,
      "##щики": 3706,
      "наше": 3707,
      "75": 3708,
      "приходится": 3709,
      "человеком": 3710,
      "разговор": 3711,
      "понятно": 3712,
      "развитие": 3713,
      "ву": 3714,
      "техники": 3715,
      "##лян": 3716,
      "направлении": 3717,
      "ам": 3718,
      "форме": 3719,
      "акции": 3720,
      "ведомства": 3721,
      "сожалению": 3722,
      "информация": 3723,
      "фра": 3724,
      "##ight": 3725,
      "сравнению": 3726,
      "конференции": 3727,
      "цена": 3728,
      "молоде": 3729,
      "голов": 3730,
      "2004": 3731,
      "думать": 3732,
      "миллиона": 3733,
      "переговоры": 3734,
      "выборы": 3735,
      "неприят": 3736,
      "хуже": 3737,
      "##тря": 3738,
      "выпуска": 3739,
      "банка": 3740,
      "многочислен": 3741,
      "якобы": 3742,
      "исследования": 3743,
      "ез": 3744,
      "обязательно": 3745,
      "пытался": 3746,
      "головы": 3747,
      "остальные": 3748,
      "##кет": 3749,
      "##op": 3750,
      "##пал": 3751,
      "##ляют": 3752,
      "стены": 3753,
      "результат": 3754,
      "сделали": 3755,
      "села": 3756,
      "##жат": 3757,
      "усили": 3758,
      "##бели": 3759,
      "появилась": 3760,
      "хло": 3761,
      "появился": 3762,
      "##ческими": 3763,
      "бит": 3764,
      "##тических": 3765,
      "##ьев": 3766,
      "систему": 3767,
      "##тории": 3768,
      "187": 3769,
      "систем": 3770,
      "людьми": 3771,
      "редко": 3772,
      "нема": 3773,
      "должность": 3774,
      "строительство": 3775,
      "##стую": 3776,
      "##лло": 3777,
      "сх": 3778,
      "необы": 3779,
      "##ус": 3780,
      "кстати": 3781,
      "втором": 3782,
      "восемь": 3783,
      "новую": 3784,
      "большое": 3785,
      "заместитель": 3786,
      "смысле": 3787,
      "сотрудники": 3788,
      "##ванию": 3789,
      "середине": 3790,
      "жители": 3791,
      "узнать": 3792,
      "коль": 3793,
      "55": 3794,
      "пошел": 3795,
      "труда": 3796,
      "требования": 3797,
      "первое": 3798,
      "санкции": 3799,
      "родился": 3800,
      "завое": 3801,
      "отличие": 3802,
      "курс": 3803,
      "необходимости": 3804,
      "##ьи": 3805,
      "мате": 3806,
      "среду": 3807,
      "пришли": 3808,
      "##клон": 3809,
      "пожи": 3810,
      "заявили": 3811,
      "напада": 3812,
      "##шал": 3813,
      "военного": 3814,
      "местных": 3815,
      "##стая": 3816,
      "##мол": 3817,
      "острова": 3818,
      "возрасте": 3819,
      "##all": 3820,
      "письмо": 3821,
      "главного": 3822,
      "##ці": 3823,
      "##ально": 3824,
      "закона": 3825,
      "строительства": 3826,
      "военные": 3827,
      "##фер": 3828,
      "памяти": 3829,
      "нефти": 3830,
      "прекрасно": 3831,
      "множество": 3832,
      "шел": 3833,
      "##ap": 3834,
      "##стаи": 3835,
      "домов": 3836,
      "кара": 3837,
      "регионе": 3838,
      "шах": 3839,
      "активно": 3840,
      "##ковых": 3841,
      "священ": 3842,
      "стоимость": 3843,
      "создания": 3844,
      "мони": 3845,
      "борьбе": 3846,
      "библи": 3847,
      "эмо": 3848,
      "означает": 3849,
      "кан": 3850,
      "дает": 3851,
      "каз": 3852,
      "вариант": 3853,
      "космо": 3854,
      "опыт": 3855,
      "выбор": 3856,
      "интересно": 3857,
      "страну": 3858,
      "сумму": 3859,
      "##ie": 3860,
      "украинских": 3861,
      "представляет": 3862,
      "комиссии": 3863,
      "жел": 3864,
      "##рованных": 3865,
      "роста": 3866,
      "##ково": 3867,
      "##нку": 3868,
      "лест": 3869,
      "чтоб": 3870,
      "##мс": 3871,
      "конфликта": 3872,
      "защиты": 3873,
      "стратеги": 3874,
      "уголовное": 3875,
      "большую": 3876,
      "наша": 3877,
      "##тического": 3878,
      "религиоз": 3879,
      "боевых": 3880,
      "аналоги": 3881,
      "##горе": 3882,
      "борьбы": 3883,
      "подру": 3884,
      "крова": 3885,
      "депутат": 3886,
      "хотела": 3887,
      "##циони": 3888,
      "продолжал": 3889,
      "нефть": 3890,
      "электри": 3891,
      "агентства": 3892,
      "##чок": 3893,
      "##und": 3894,
      "##твор": 3895,
      "дорогу": 3896,
      "осве": 3897,
      "искать": 3898,
      "улицы": 3899,
      "##ik": 3900,
      "значительно": 3901,
      "чаще": 3902,
      "публика": 3903,
      "службу": 3904,
      "рынка": 3905,
      "ваш": 3906,
      "##ните": 3907,
      "опол": 3908,
      "контракт": 3909,
      "##шены": 3910,
      "##жном": 3911,
      "##лиза": 3912,
      "которыми": 3913,
      "никого": 3914,
      "приняли": 3915,
      "##ина": 3916,
      "##ub": 3917,
      "результаты": 3918,
      "теме": 3919,
      "##пах": 3920,
      "##вка": 3921,
      "трево": 3922,
      "смогли": 3923,
      "рука": 3924,
      "##стых": 3925,
      "##чество": 3926,
      "th": 3927,
      "моих": 3928,
      "##ers": 3929,
      "железнодоро": 3930,
      "любви": 3931,
      "носи": 3932,
      "названием": 3933,
      "##нтов": 3934,
      "двадцать": 3935,
      "капитан": 3936,
      "конец": 3937,
      "протяжении": 3938,
      "самолета": 3939,
      "##кала": 3940,
      "##вос": 3941,
      "фоне": 3942,
      "выро": 3943,
      "##шено": 3944,
      "партия": 3945,
      "границы": 3946,
      "##лыми": 3947,
      "##стные": 3948,
      "предложение": 3949,
      "правило": 3950,
      "тонн": 3951,
      "##гин": 3952,
      "нужен": 3953,
      "планет": 3954,
      "компози": 3955,
      "топли": 3956,
      "##рена": 3957,
      "эпо": 3958,
      "понедельник": 3959,
      "##est": 3960,
      "##ляции": 3961,
      "государственного": 3962,
      "новое": 3963,
      "королев": 3964,
      "выдви": 3965,
      "работают": 3966,
      "##няли": 3967,
      "команд": 3968,
      "языке": 3969,
      "входит": 3970,
      "рождения": 3971,
      "укреп": 3972,
      "лагер": 3973,
      "##лял": 3974,
      "числа": 3975,
      "##щает": 3976,
      "одному": 3977,
      "##дне": 3978,
      "ждать": 3979,
      "некоторое": 3980,
      "сос": 3981,
      "##женные": 3982,
      "размер": 3983,
      "взрыв": 3984,
      "знала": 3985,
      "##ссер": 3986,
      "вез": 3987,
      "##щено": 3988,
      "заслу": 3989,
      "мою": 3990,
      "писал": 3991,
      "небо": 3992,
      "школе": 3993,
      "минуту": 3994,
      "огня": 3995,
      "счетом": 3996,
      "##ственную": 3997,
      "##рово": 3998,
      "последних": 3999,
      "пятницу": 4000,
      "парламента": 4001,
      "42": 4002,
      "##ровка": 4003,
      "##кратно": 4004,
      "##даль": 4005,
      "класса": 4006,
      "ниж": 4007,
      "вру": 4008,
      "смогут": 4009,
      "попал": 4010,
      "представить": 4011,
      "света": 4012,
      "большим": 4013,
      "документы": 4014,
      "село": 4015,
      "мэ": 4016,
      "##мати": 4017,
      "дож": 4018,
      "сквозь": 4019,
      "сор": 4020,
      "сфере": 4021,
      "вслед": 4022,
      "руководство": 4023,
      "значение": 4024,
      "христиан": 4025,
      "сообщается": 4026,
      "65": 4027,
      "сва": 4028,
      "фанта": 4029,
      "крити": 4030,
      "неожиданно": 4031,
      "##ляться": 4032,
      "слабо": 4033,
      "считать": 4034,
      "1941": 4035,
      "##ственном": 4036,
      "пошли": 4037,
      "начать": 4038,
      "##ort": 4039,
      "молодо": 4040,
      "##спи": 4041,
      "несо": 4042,
      "начальник": 4043,
      "2018": 4044,
      "предела": 4045,
      "2001": 4046,
      "страна": 4047,
      "декабре": 4048,
      "нужны": 4049,
      "##роз": 4050,
      "##стка": 4051,
      "террористи": 4052,
      "появились": 4053,
      "##вшими": 4054,
      "чувство": 4055,
      "шту": 4056,
      "##ант": 4057,
      "1990": 4058,
      "самоу": 4059,
      "машина": 4060,
      "##руя": 4061,
      "участия": 4062,
      "русских": 4063,
      "языка": 4064,
      "нашел": 4065,
      "руководством": 4066,
      "издание": 4067,
      "россиян": 4068,
      "территорию": 4069,
      "##хло": 4070,
      "семья": 4071,
      "плат": 4072,
      "волосы": 4073,
      "48": 4074,
      "пак": 4075,
      "сентябре": 4076,
      "##цах": 4077,
      "состоит": 4078,
      "##ис": 4079,
      "души": 4080,
      "##жите": 4081,
      "##льник": 4082,
      "150": 4083,
      "мел": 4084,
      "причин": 4085,
      "ред": 4086,
      "##ом": 4087,
      "ночи": 4088,
      "##стера": 4089,
      "деревня": 4090,
      "##жку": 4091,
      "адрес": 4092,
      "нарушения": 4093,
      "##вол": 4094,
      "голова": 4095,
      "россия": 4096,
      "карто": 4097,
      "январе": 4098,
      "##жан": 4099,
      "тему": 4100,
      "сты": 4101,
      "прием": 4102,
      "оке": 4103,
      "прошел": 4104,
      "##строи": 4105,
      "внес": 4106,
      "привет": 4107,
      "жив": 4108,
      "вероятно": 4109,
      "вопросов": 4110,
      "довер": 4111,
      "##сро": 4112,
      "одо": 4113,
      "##фикации": 4114,
      "память": 4115,
      "##ak": 4116,
      "сообщения": 4117,
      "воздух": 4118,
      "местах": 4119,
      "посту": 4120,
      "постепенно": 4121,
      "##циям": 4122,
      "##ленная": 4123,
      "##льского": 4124,
      "остались": 4125,
      "кле": 4126,
      "вышли": 4127,
      "эксплуа": 4128,
      "отказался": 4129,
      "буты": 4130,
      "бюджета": 4131,
      "вверх": 4132,
      "мама": 4133,
      "жени": 4134,
      "любовь": 4135,
      "моби": 4136,
      "бассе": 4137,
      "заниматься": 4138,
      "##юр": 4139,
      "цель": 4140,
      "2002": 4141,
      "баш": 4142,
      "общего": 4143,
      "тяж": 4144,
      "##тивы": 4145,
      "ров": 4146,
      "##тельном": 4147,
      "##емая": 4148,
      "размере": 4149,
      "44": 4150,
      "значения": 4151,
      "последу": 4152,
      "39": 4153,
      "победы": 4154,
      "гвар": 4155,
      "смысл": 4156,
      "нужна": 4157,
      "корпора": 4158,
      "начинает": 4159,
      "бывшего": 4160,
      "##нную": 4161,
      "применя": 4162,
      "лицом": 4163,
      "##ненно": 4164,
      "пласти": 4165,
      "случаях": 4166,
      "желание": 4167,
      "##мут": 4168,
      "##люб": 4169,
      "лен": 4170,
      "юриди": 4171,
      "прика": 4172,
      "невы": 4173,
      "контроль": 4174,
      "400": 4175,
      "камер": 4176,
      "обслужи": 4177,
      "дя": 4178,
      "##леп": 4179,
      "сидел": 4180,
      "сказали": 4181,
      "произошел": 4182,
      "переме": 4183,
      "существу": 4184,
      "коммер": 4185,
      "одер": 4186,
      "статьи": 4187,
      "43": 4188,
      "41": 4189,
      "должности": 4190,
      "помню": 4191,
      "встрече": 4192,
      "роман": 4193,
      "рук": 4194,
      "минимум": 4195,
      "находились": 4196,
      "чувства": 4197,
      "четверг": 4198,
      "комнате": 4199,
      "завод": 4200,
      "президентом": 4201,
      "заму": 4202,
      "##сная": 4203,
      "производство": 4204,
      "здание": 4205,
      "видов": 4206,
      "ван": 4207,
      "обер": 4208,
      "##пок": 4209,
      "километров": 4210,
      "банк": 4211,
      "##щины": 4212,
      "рубля": 4213,
      "##жают": 4214,
      "специально": 4215,
      "транс": 4216,
      "порядок": 4217,
      "вряд": 4218,
      "рынок": 4219,
      "зал": 4220,
      "свете": 4221,
      "отдел": 4222,
      "прошли": 4223,
      "##кина": 4224,
      "слышал": 4225,
      "словами": 4226,
      "социальных": 4227,
      "каком": 4228,
      "##берг": 4229,
      "##эт": 4230,
      "##цеп": 4231,
      "##жин": 4232,
      "ref": 4233,
      "марте": 4234,
      "материалы": 4235,
      "доктор": 4236,
      "наук": 4237,
      "##гон": 4238,
      "директора": 4239,
      "отношение": 4240,
      "сма": 4241,
      "самолет": 4242,
      "связь": 4243,
      "сведения": 4244,
      "исключительно": 4245,
      "##зили": 4246,
      "употреб": 4247,
      "##ula": 4248,
      "официально": 4249,
      "руководитель": 4250,
      "другую": 4251,
      "##ждает": 4252,
      "эко": 4253,
      "##зал": 4254,
      "беспла": 4255,
      "true": 4256,
      "слегка": 4257,
      "мероприятия": 4258,
      "соглашения": 4259,
      "##жную": 4260,
      "режим": 4261,
      "видели": 4262,
      "системе": 4263,
      "первая": 4264,
      "хотели": 4265,
      "знают": 4266,
      "статье": 4267,
      "вопросам": 4268,
      "##вав": 4269,
      "библиоте": 4270,
      "##ету": 4271,
      "возглавля": 4272,
      "открыл": 4273,
      "##ань": 4274,
      "ног": 4275,
      "##льному": 4276,
      "модели": 4277,
      "визи": 4278,
      "##нга": 4279,
      "##ьет": 4280,
      "имели": 4281,
      "##ленным": 4282,
      "продви": 4283,
      "учиты": 4284,
      "##щина": 4285,
      "государств": 4286,
      "пусты": 4287,
      "команде": 4288,
      "такими": 4289,
      "группе": 4290,
      "занимает": 4291,
      "кровь": 4292,
      "##хии": 4293,
      "##лера": 4294,
      "##цар": 4295,
      "наси": 4296,
      "##кл": 4297,
      "185": 4298,
      "био": 4299,
      "широко": 4300,
      "обстоятельства": 4301,
      "машин": 4302,
      "корабль": 4303,
      "похожи": 4304,
      "хотите": 4305,
      "##сел": 4306,
      "фла": 4307,
      "состава": 4308,
      "мило": 4309,
      "46": 4310,
      "минуты": 4311,
      "игре": 4312,
      "избран": 4313,
      "##рги": 4314,
      "тка": 4315,
      "сомне": 4316,
      "животных": 4317,
      "автомобиль": 4318,
      "ведет": 4319,
      "отчет": 4320,
      "принимать": 4321,
      "##нями": 4322,
      "##мию": 4323,
      "мае": 4324,
      "разум": 4325,
      "арти": 4326,
      "вдоль": 4327,
      "2003": 4328,
      "рот": 4329,
      "##жена": 4330,
      "he": 4331,
      "полномо": 4332,
      "ассоциа": 4333,
      "отдыха": 4334,
      "режима": 4335,
      "груди": 4336,
      "гумани": 4337,
      "парень": 4338,
      "знаком": 4339,
      "мора": 4340,
      "создание": 4341,
      "называется": 4342,
      "##pp": 4343,
      "население": 4344,
      "подряд": 4345,
      "##our": 4346,
      "приходилось": 4347,
      "земля": 4348,
      "штраф": 4349,
      "поднял": 4350,
      "##сив": 4351,
      "относится": 4352,
      "##рэ": 4353,
      "перес": 4354,
      "осторожно": 4355,
      "крупных": 4356,
      "делают": 4357,
      "##тех": 4358,
      "зависимости": 4359,
      "юно": 4360,
      "парламент": 4361,
      "form": 4362,
      "##art": 4363,
      "влияние": 4364,
      "немедленно": 4365,
      "##вки": 4366,
      "шла": 4367,
      "##ал": 4368,
      "возраста": 4369,
      "проявля": 4370,
      "деревя": 4371,
      "##кур": 4372,
      "решила": 4373,
      "##сках": 4374,
      "выхода": 4375,
      "##ab": 4376,
      "турец": 4377,
      "достиг": 4378,
      "успеш": 4379,
      "психи": 4380,
      "стола": 4381,
      "противоре": 4382,
      "предложения": 4383,
      "наслед": 4384,
      "##бан": 4385,
      "переговоров": 4386,
      "труб": 4387,
      "игр": 4388,
      "угодно": 4389,
      "семи": 4390,
      "днем": 4391,
      "графи": 4392,
      "ключе": 4393,
      "ближе": 4394,
      "окна": 4395,
      "знали": 4396,
      "##щению": 4397,
      "сельского": 4398,
      "копи": 4399,
      "самая": 4400,
      "фронта": 4401,
      "##тном": 4402,
      "рубе": 4403,
      "хими": 4404,
      "мело": 4405,
      "##изво": 4406,
      "##чив": 4407,
      "фактически": 4408,
      "нашу": 4409,
      "зали": 4410,
      "едино": 4411,
      "##тические": 4412,
      "короля": 4413,
      "наоборот": 4414,
      "поздно": 4415,
      "##зон": 4416,
      "дета": 4417,
      "газеты": 4418,
      "продукции": 4419,
      "апреле": 4420,
      "будущем": 4421,
      "объектов": 4422,
      "##фов": 4423,
      "розы": 4424,
      "накануне": 4425,
      "зале": 4426,
      "##гани": 4427,
      "ски": 4428,
      "ряда": 4429,
      "кно": 4430,
      "хво": 4431,
      "чемпион": 4432,
      "47": 4433,
      "моно": 4434,
      "##спорт": 4435,
      "серви": 4436,
      "августе": 4437,
      "1999": 4438,
      "ваши": 4439,
      "велико": 4440,
      "бабу": 4441,
      "депутатов": 4442,
      "погибших": 4443,
      "##гора": 4444,
      "поддержки": 4445,
      "вен": 4446,
      "лес": 4447,
      "##реи": 4448,
      "##жка": 4449,
      "коне": 4450,
      "##чне": 4451,
      "зависит": 4452,
      "##зора": 4453,
      "жил": 4454,
      "соответственно": 4455,
      "летом": 4456,
      "армия": 4457,
      "49": 4458,
      "##никах": 4459,
      "никому": 4460,
      "заседании": 4461,
      "клад": 4462,
      "камен": 4463,
      "объявил": 4464,
      "##зацию": 4465,
      "##логов": 4466,
      "опу": 4467,
      "воин": 4468,
      "##щихся": 4469,
      "согласился": 4470,
      "##сант": 4471,
      "трудом": 4472,
      "##нят": 4473,
      "члена": 4474,
      "прошла": 4475,
      "губернатора": 4476,
      "скорость": 4477,
      "картин": 4478,
      "ума": 4479,
      "##лел": 4480,
      "материалами": 4481,
      "называют": 4482,
      "##станции": 4483,
      "##вере": 4484,
      "русского": 4485,
      "##ново": 4486,
      "дали": 4487,
      "рассу": 4488,
      "показал": 4489,
      "школу": 4490,
      "цело": 4491,
      "##ьера": 4492,
      "продолжает": 4493,
      "пришла": 4494,
      "##if": 4495,
      "вои": 4496,
      "ребенок": 4497,
      "##мене": 4498,
      "зао": 4499,
      "идут": 4500,
      "пожар": 4501,
      "въ": 4502,
      "##дры": 4503,
      "формы": 4504,
      "получается": 4505,
      "##лога": 4506,
      "управление": 4507,
      "##дая": 4508,
      "нечто": 4509,
      "дыха": 4510,
      "направления": 4511,
      "человеку": 4512,
      "шут": 4513,
      "столицы": 4514,
      "##лева": 4515,
      "пишу": 4516,
      "##пля": 4517,
      "обли": 4518,
      "##тельными": 4519,
      "бесс": 4520,
      "зару": 4521,
      "отмечается": 4522,
      "яви": 4523,
      "председателя": 4524,
      "окончания": 4525,
      "##бах": 4526,
      "ответственность": 4527,
      "кана": 4528,
      "пау": 4529,
      "красно": 4530,
      "спря": 4531,
      "узнал": 4532,
      "##люби": 4533,
      "американских": 4534,
      "площад": 4535,
      "##ber": 4536,
      "сообра": 4537,
      "##щика": 4538,
      "64": 4539,
      "любом": 4540,
      "##gle": 4541,
      "октябре": 4542,
      "пехо": 4543,
      "остальных": 4544,
      "52": 4545,
      "##мян": 4546,
      "##рка": 4547,
      "люблю": 4548,
      "##рье": 4549,
      "##тана": 4550,
      "устанавли": 4551,
      "новым": 4552,
      "реализации": 4553,
      "##ail": 4554,
      "феврале": 4555,
      "упал": 4556,
      "стрель": 4557,
      "девушки": 4558,
      "нужда": 4559,
      "мяч": 4560,
      "1945": 4561,
      "переи": 4562,
      "путем": 4563,
      "имен": 4564,
      "песни": 4565,
      "сутки": 4566,
      "отсюда": 4567,
      "владе": 4568,
      "сотни": 4569,
      "шоу": 4570,
      "##ило": 4571,
      "окончательно": 4572,
      "искусства": 4573,
      "поможет": 4574,
      "##енко": 4575,
      "очевидно": 4576,
      "привести": 4577,
      "##зами": 4578,
      "сезон": 4579,
      "автомобиля": 4580,
      "вес": 4581,
      "подошел": 4582,
      "##комо": 4583,
      "диск": 4584,
      "городов": 4585,
      "лидера": 4586,
      "##оном": 4587,
      "обратился": 4588,
      "отсутствие": 4589,
      "отлича": 4590,
      "факту": 4591,
      "стояла": 4592,
      "турнира": 4593,
      "соедин": 4594,
      "буквально": 4595,
      "51": 4596,
      "##чность": 4597,
      "корабля": 4598,
      "составил": 4599,
      "ответственности": 4600,
      "акт": 4601,
      "##вига": 4602,
      "##ниями": 4603,
      "империи": 4604,
      "сел": 4605,
      "лиги": 4606,
      "внимательно": 4607,
      "базе": 4608,
      "заявления": 4609,
      "процесса": 4610,
      "пья": 4611,
      "лучших": 4612,
      "футболу": 4613,
      "живет": 4614,
      "сути": 4615,
      "##og": 4616,
      "раздра": 4617,
      "образование": 4618,
      "опубликован": 4619,
      "сильнее": 4620,
      "костю": 4621,
      "воскресенье": 4622,
      "##мма": 4623,
      "программ": 4624,
      "крае": 4625,
      "##дию": 4626,
      "##ъя": 4627,
      "водитель": 4628,
      "внутренних": 4629,
      "группу": 4630,
      "##сан": 4631,
      "быстрее": 4632,
      "использования": 4633,
      "##вшем": 4634,
      "неделе": 4635,
      "##поле": 4636,
      "вида": 4637,
      "заве": 4638,
      "gt": 4639,
      "прошед": 4640,
      "##льм": 4641,
      "##one": 4642,
      "трое": 4643,
      "новая": 4644,
      "роз": 4645,
      "##монт": 4646,
      "начальника": 4647,
      "ворота": 4648,
      "рабочих": 4649,
      "1944": 4650,
      "##ill": 4651,
      "##ist": 4652,
      "международных": 4653,
      "##ant": 4654,
      "органы": 4655,
      "пассажиров": 4656,
      "компьютер": 4657,
      "экономического": 4658,
      "##кут": 4659,
      "модель": 4660,
      "рим": 4661,
      "##руются": 4662,
      "кабин": 4663,
      "серьезно": 4664,
      "##зок": 4665,
      "гим": 4666,
      "вторых": 4667,
      "идея": 4668,
      "##льности": 4669,
      "украинского": 4670,
      "голосом": 4671,
      "началась": 4672,
      "шли": 4673,
      "##ine": 4674,
      "завода": 4675,
      "опти": 4676,
      "соору": 4677,
      "сделала": 4678,
      "внезапно": 4679,
      "##нья": 4680,
      "примеру": 4681,
      "купить": 4682,
      "##чко": 4683,
      "##стым": 4684,
      "последнего": 4685,
      "июне": 4686,
      "поверхности": 4687,
      "душе": 4688,
      "документов": 4689,
      "уте": 4690,
      "блоки": 4691,
      "миру": 4692,
      "селе": 4693,
      "задача": 4694,
      "зоне": 4695,
      "сколь": 4696,
      "##шит": 4697,
      "хро": 4698,
      "ноябре": 4699,
      "кг": 4700,
      "издания": 4701,
      "вошли": 4702,
      "вода": 4703,
      "##вена": 4704,
      "борту": 4705,
      "##стане": 4706,
      "субботу": 4707,
      "общество": 4708,
      "##тни": 4709,
      "супер": 4710,
      "куп": 4711,
      "180": 4712,
      "провели": 4713,
      "попросил": 4714,
      "вед": 4715,
      "отношению": 4716,
      "уво": 4717,
      "стаби": 4718,
      "клет": 4719,
      "усилия": 4720,
      "##зировать": 4721,
      "соли": 4722,
      "пунктов": 4723,
      "уре": 4724,
      "самому": 4725,
      "потреби": 4726,
      "фер": 4727,
      "этими": 4728,
      "июле": 4729,
      "православ": 4730,
      "##вами": 4731,
      "эн": 4732,
      "обвинения": 4733,
      "очи": 4734,
      "др": 4735,
      "##вла": 4736,
      "##сор": 4737,
      "ждет": 4738,
      "столице": 4739,
      "мужа": 4740,
      "различные": 4741,
      "##шись": 4742,
      "данном": 4743,
      "заба": 4744,
      "столе": 4745,
      "неоднократно": 4746,
      "##змом": 4747,
      "хватает": 4748,
      "мистер": 4749,
      "##луб": 4750,
      "рассе": 4751,
      "очков": 4752,
      "старо": 4753,
      "##сии": 4754,
      "организация": 4755,
      "плане": 4756,
      "знаем": 4757,
      "09": 4758,
      "голоса": 4759,
      "впоследствии": 4760,
      "##жное": 4761,
      "любого": 4762,
      "##ллер": 4763,
      "часы": 4764,
      "истреби": 4765,
      "политических": 4766,
      "ушел": 4767,
      "брата": 4768,
      "члены": 4769,
      "окра": 4770,
      "##мок": 4771,
      "пытается": 4772,
      "##тинг": 4773,
      "##шена": 4774,
      "##дные": 4775,
      "договор": 4776,
      "требует": 4777,
      "##горо": 4778,
      "успешно": 4779,
      "бер": 4780,
      "##ленное": 4781,
      "революции": 4782,
      "поспе": 4783,
      "позволит": 4784,
      "184": 4785,
      "##цкого": 4786,
      "нанес": 4787,
      "##тиков": 4788,
      "яро": 4789,
      "##сное": 4790,
      "##нью": 4791,
      "##фона": 4792,
      "провинции": 4793,
      "##енного": 4794,
      "воздуха": 4795,
      "показать": 4796,
      "##ленную": 4797,
      "##сена": 4798,
      "кисло": 4799,
      "тура": 4800,
      "исполнитель": 4801,
      "правил": 4802,
      "позицию": 4803,
      "психологи": 4804,
      "говорила": 4805,
      "##тными": 4806,
      "1991": 4807,
      "связано": 4808,
      "проводить": 4809,
      "регули": 4810,
      "##емым": 4811,
      "облег": 4812,
      "количества": 4813,
      "##вера": 4814,
      "глубоко": 4815,
      "вернуть": 4816,
      "ворот": 4817,
      "##ссов": 4818,
      "стояли": 4819,
      "оттуда": 4820,
      "##рно": 4821,
      "напол": 4822,
      "назвать": 4823,
      "секунд": 4824,
      "квартире": 4825,
      "книгу": 4826,
      "##ровании": 4827,
      "##ционно": 4828,
      "53": 4829,
      "боли": 4830,
      "##пуск": 4831,
      "энергии": 4832,
      "бизнеса": 4833,
      "деревни": 4834,
      "собирается": 4835,
      "##зию": 4836,
      "регистра": 4837,
      "##гри": 4838,
      "боевиков": 4839,
      "##лию": 4840,
      "ступ": 4841,
      "планируется": 4842,
      "природ": 4843,
      "выглядит": 4844,
      "странно": 4845,
      "серебря": 4846,
      "сопровожда": 4847,
      "st": 4848,
      "сообщение": 4849,
      "молодых": 4850,
      "##цова": 4851,
      "другому": 4852,
      "строго": 4853,
      "объем": 4854,
      "качества": 4855,
      "членом": 4856,
      "главных": 4857,
      "мыш": 4858,
      "русские": 4859,
      "дивизии": 4860,
      "зим": 4861,
      "науки": 4862,
      "напротив": 4863,
      "игроков": 4864,
      "церковь": 4865,
      "1943": 4866,
      "56": 4867,
      "##рованные": 4868,
      "достоин": 4869,
      "получилось": 4870,
      "программа": 4871,
      "##тю": 4872,
      "##село": 4873,
      "##рович": 4874,
      "пункта": 4875,
      "##дора": 4876,
      "считается": 4877,
      "поселения": 4878,
      "соглашение": 4879,
      "##ob": 4880,
      "профессор": 4881,
      "крестьян": 4882,
      "играл": 4883,
      "привлека": 4884,
      "партнер": 4885,
      "читать": 4886,
      "губы": 4887,
      "##лк": 4888,
      "нав": 4889,
      "стена": 4890,
      "миллиардов": 4891,
      "рано": 4892,
      "##пин": 4893,
      "##рского": 4894,
      "считаю": 4895,
      "гуманитар": 4896,
      "объяснить": 4897,
      "городского": 4898,
      "программе": 4899,
      "петер": 4900,
      "услуг": 4901,
      "спасибо": 4902,
      "летнего": 4903,
      "##ly": 4904,
      "54": 4905,
      "транспорта": 4906,
      "##стки": 4907,
      "встал": 4908,
      "183": 4909,
      "дважды": 4910,
      "концу": 4911,
      "обеспечения": 4912,
      "кризиса": 4913,
      "идеи": 4914,
      "местные": 4915,
      "##теры": 4916,
      "живут": 4917,
      "de": 4918,
      "гне": 4919,
      "позднее": 4920,
      "##ллу": 4921,
      "правила": 4922,
      "принадлежит": 4923,
      "ранены": 4924,
      "##тт": 4925,
      "##графии": 4926,
      "##неф": 4927,
      "гори": 4928,
      "##ld": 4929,
      "ракеты": 4930,
      "торо": 4931,
      "поднялся": 4932,
      "другая": 4933,
      "##тировать": 4934,
      "оставить": 4935,
      "##нном": 4936,
      "предусматри": 4937,
      "следствия": 4938,
      "##ковского": 4939,
      "принес": 4940,
      "механи": 4941,
      "подготовки": 4942,
      "##шкин": 4943,
      "проверки": 4944,
      "попытки": 4945,
      "больших": 4946,
      "полном": 4947,
      "выр": 4948,
      "бросил": 4949,
      "снаря": 4950,
      "делам": 4951,
      "каждом": 4952,
      "доли": 4953,
      "##кол": 4954,
      "подобные": 4955,
      "статус": 4956,
      "руке": 4957,
      "проник": 4958,
      "сюжет": 4959,
      "##ландии": 4960,
      "верно": 4961,
      "полуо": 4962,
      "##ец": 4963,
      "обеспечить": 4964,
      "мон": 4965,
      "##вард": 4966,
      "основных": 4967,
      "солнце": 4968,
      "сверху": 4969,
      "квартиры": 4970,
      "посред": 4971,
      "попытался": 4972,
      "фонда": 4973,
      "причине": 4974,
      "##ляются": 4975,
      "##рат": 4976,
      "политика": 4977,
      "колон": 4978,
      "зага": 4979,
      "свидете": 4980,
      "полка": 4981,
      "веке": 4982,
      "промышленности": 4983,
      "повтор": 4984,
      "уве": 4985,
      "совместно": 4986,
      "соц": 4987,
      "дочери": 4988,
      "выходит": 4989,
      "##жается": 4990,
      "##ковые": 4991,
      "территория": 4992,
      "комнаты": 4993,
      "заказ": 4994,
      "нашим": 4995,
      "останется": 4996,
      "##тк": 4997,
      "неви": 4998,
      "большого": 4999,
      "расти": 5000,
      "грудь": 5001,
      "приме": 5002,
      "##ian": 5003,
      "знак": 5004,
      "сверх": 5005,
      "подобных": 5006,
      "будущее": 5007,
      "##твори": 5008,
      "господин": 5009,
      "предоставля": 5010,
      "57": 5011,
      "##голов": 5012,
      "##тли": 5013,
      "1998": 5014,
      "бла": 5015,
      "кофе": 5016,
      "губернатор": 5017,
      "участок": 5018,
      "отметить": 5019,
      "отделения": 5020,
      "ано": 5021,
      "ход": 5022,
      "##риев": 5023,
      "несчаст": 5024,
      "посвящен": 5025,
      "видит": 5026,
      "зелены": 5027,
      "пытаясь": 5028,
      "впечатление": 5029,
      "##береж": 5030,
      "нашем": 5031,
      "##дю": 5032,
      "убить": 5033,
      "##куп": 5034,
      "##ters": 5035,
      "181": 5036,
      "##сова": 5037,
      "положения": 5038,
      "обнаружили": 5039,
      "уника": 5040,
      "института": 5041,
      "машине": 5042,
      "воздухе": 5043,
      "оставил": 5044,
      "сэр": 5045,
      "штаб": 5046,
      "58": 5047,
      "сена": 5048,
      "комплекс": 5049,
      "многое": 5050,
      "граф": 5051,
      "##дли": 5052,
      "образу": 5053,
      "однажды": 5054,
      "кожа": 5055,
      "ею": 5056,
      "американского": 5057,
      "молод": 5058,
      "местного": 5059,
      "##рено": 5060,
      "01": 5061,
      "вар": 5062,
      "кот": 5063,
      "составила": 5064,
      "происшествия": 5065,
      "флота": 5066,
      "##сибир": 5067,
      "##манов": 5068,
      "##тивным": 5069,
      "делал": 5070,
      "изготов": 5071,
      "готова": 5072,
      "программу": 5073,
      "##чины": 5074,
      "переписи": 5075,
      "текст": 5076,
      "попасть": 5077,
      "остаться": 5078,
      "свыше": 5079,
      "ваше": 5080,
      "контроля": 5081,
      "прибыли": 5082,
      "прочита": 5083,
      "##ord": 5084,
      "парти": 5085,
      "силами": 5086,
      "отправился": 5087,
      "солне": 5088,
      "##ran": 5089,
      "собственно": 5090,
      "деревне": 5091,
      "участвовал": 5092,
      "конститу": 5093,
      "##чью": 5094,
      "марки": 5095,
      "чемпионат": 5096,
      "писать": 5097,
      "оказывается": 5098,
      "сердца": 5099,
      "##тел": 5100,
      "блок": 5101,
      "корпуса": 5102,
      "испыта": 5103,
      "случаев": 5104,
      "девочка": 5105,
      "нев": 5106,
      "бук": 5107,
      "журнала": 5108,
      "##рас": 5109,
      "бал": 5110,
      "плате": 5111,
      "диза": 5112,
      "содержит": 5113,
      "##валь": 5114,
      "штаба": 5115,
      "выпуск": 5116,
      "##шенных": 5117,
      "##эта": 5118,
      "##жие": 5119,
      "впереди": 5120,
      "речи": 5121,
      "приказ": 5122,
      "любит": 5123,
      "##тино": 5124,
      "король": 5125,
      "выдержа": 5126,
      "##вшему": 5127,
      "##метров": 5128,
      "введен": 5129,
      "экспеди": 5130,
      "бен": 5131,
      "глоба": 5132,
      "фотографии": 5133,
      "огра": 5134,
      "моим": 5135,
      "##рн": 5136,
      "охран": 5137,
      "запол": 5138,
      "##совет": 5139,
      "остановился": 5140,
      "видом": 5141,
      "жены": 5142,
      "класс": 5143,
      "ветер": 5144,
      "наступа": 5145,
      "кула": 5146,
      "планы": 5147,
      "занял": 5148,
      "громко": 5149,
      "будь": 5150,
      "ответа": 5151,
      "##тари": 5152,
      "ребята": 5153,
      "##чками": 5154,
      "##рованию": 5155,
      "##др": 5156,
      "##чее": 5157,
      "##вия": 5158,
      "##вающих": 5159,
      "пан": 5160,
      "следующем": 5161,
      "##фт": 5162,
      "избежать": 5163,
      "письма": 5164,
      "конфликт": 5165,
      "##лят": 5166,
      "пита": 5167,
      "собо": 5168,
      "последствия": 5169,
      "участием": 5170,
      "взяли": 5171,
      "дура": 5172,
      "рассказывает": 5173,
      "утро": 5174,
      "выступления": 5175,
      "зарубе": 5176,
      "##менов": 5177,
      "ул": 5178,
      "пространство": 5179,
      "мель": 5180,
      "потери": 5181,
      "##рг": 5182,
      "скри": 5183,
      "##стное": 5184,
      "полиция": 5185,
      "подписал": 5186,
      "скорости": 5187,
      "пытались": 5188,
      "##ep": 5189,
      "недель": 5190,
      "признал": 5191,
      "высказыва": 5192,
      "восьми": 5193,
      "окно": 5194,
      "1992": 5195,
      "##ost": 5196,
      "пило": 5197,
      "зоны": 5198,
      "альбом": 5199,
      "станов": 5200,
      "передачи": 5201,
      "отдельных": 5202,
      "##ив": 5203,
      "чемпионов": 5204,
      "справедливо": 5205,
      "##вку": 5206,
      "##мур": 5207,
      "продажи": 5208,
      "##мили": 5209,
      "##дец": 5210,
      "прока": 5211,
      "девять": 5212,
      "получения": 5213,
      "подтвердил": 5214,
      "##тров": 5215,
      "начинается": 5216,
      "нормально": 5217,
      "комплекса": 5218,
      "##ell": 5219,
      "1942": 5220,
      "национали": 5221,
      "##тав": 5222,
      "фрак": 5223,
      "высказа": 5224,
      "##кле": 5225,
      "вор": 5226,
      "##нье": 5227,
      "призы": 5228,
      "##ждению": 5229,
      "##центра": 5230,
      "голосов": 5231,
      "энерги": 5232,
      "##ct": 5233,
      "ответить": 5234,
      "среднем": 5235,
      "08": 5236,
      "нефте": 5237,
      "честно": 5238,
      "вошел": 5239,
      "миллиарда": 5240,
      "вкус": 5241,
      "командир": 5242,
      "уголовного": 5243,
      "белорус": 5244,
      "началось": 5245,
      "заранее": 5246,
      "##теров": 5247,
      "союза": 5248,
      "##фом": 5249,
      "минима": 5250,
      "проектов": 5251,
      "родители": 5252,
      "карьеру": 5253,
      "улицу": 5254,
      "отдель": 5255,
      "проще": 5256,
      "задачи": 5257,
      "1980": 5258,
      "##пать": 5259,
      "остров": 5260,
      "сухо": 5261,
      "##льность": 5262,
      "горы": 5263,
      "спасти": 5264,
      "сила": 5265,
      "спать": 5266,
      "сохранить": 5267,
      "сетях": 5268,
      "городах": 5269,
      "забил": 5270,
      "##гала": 5271,
      "комитет": 5272,
      "фильме": 5273,
      "##вица": 5274,
      "государственных": 5275,
      "отлично": 5276,
      "##under": 5277,
      "япон": 5278,
      "одни": 5279,
      "израи": 5280,
      "услов": 5281,
      "шум": 5282,
      "пункт": 5283,
      "участники": 5284,
      "##ge": 5285,
      "расследование": 5286,
      "процессе": 5287,
      "обез": 5288,
      "опер": 5289,
      "книг": 5290,
      "вело": 5291,
      "id": 5292,
      "взяла": 5293,
      "дово": 5294,
      "##чис": 5295,
      "##зион": 5296,
      "выступил": 5297,
      "##ился": 5298,
      "##торами": 5299,
      "ке": 5300,
      "половине": 5301,
      "обоих": 5302,
      "##жим": 5303,
      "85": 5304,
      "фин": 5305,
      "решить": 5306,
      "добиться": 5307,
      "технологии": 5308,
      "##дных": 5309,
      "##лат": 5310,
      "международного": 5311,
      "##фии": 5312,
      "столом": 5313,
      "пля": 5314,
      "корреспондент": 5315,
      "##кель": 5316,
      "утверждает": 5317,
      "намного": 5318,
      "имена": 5319,
      "1996": 5320,
      "мото": 5321,
      "банки": 5322,
      "основании": 5323,
      "##такт": 5324,
      "бир": 5325,
      "режиме": 5326,
      "делом": 5327,
      "##ял": 5328,
      "страшно": 5329,
      "возро": 5330,
      "шка": 5331,
      "создании": 5332,
      "##ологии": 5333,
      "59": 5334,
      "произошла": 5335,
      "##ind": 5336,
      "литератур": 5337,
      "ходу": 5338,
      "самостоятельно": 5339,
      "мальчик": 5340,
      "играет": 5341,
      "##мыми": 5342,
      "отметили": 5343,
      "##тивное": 5344,
      "премии": 5345,
      "естественно": 5346,
      "вино": 5347,
      "дают": 5348,
      "##хам": 5349,
      "##тивная": 5350,
      "квартиру": 5351,
      "второе": 5352,
      "поставить": 5353,
      "##гона": 5354,
      "##вик": 5355,
      "причины": 5356,
      "1994": 5357,
      "##женного": 5358,
      "##ровался": 5359,
      "торговли": 5360,
      "выступал": 5361,
      "артилле": 5362,
      "##жными": 5363,
      "регионов": 5364,
      "##21": 5365,
      "специалистов": 5366,
      "сило": 5367,
      "##щенко": 5368,
      "##tt": 5369,
      "подразделения": 5370,
      "1997": 5371,
      "увидела": 5372,
      "##женно": 5373,
      "поставил": 5374,
      "занимается": 5375,
      "руба": 5376,
      "гибели": 5377,
      "астро": 5378,
      "групп": 5379,
      "дев": 5380,
      "описы": 5381,
      "инженер": 5382,
      "##стон": 5383,
      "поражение": 5384,
      "кризис": 5385,
      "планирует": 5386,
      "писатель": 5387,
      "блю": 5388,
      "##сье": 5389,
      "##товых": 5390,
      "взрыва": 5391,
      "правления": 5392,
      "ограничи": 5393,
      "лидеров": 5394,
      "##стен": 5395,
      "кло": 5396,
      "брю": 5397,
      "##лана": 5398,
      "гол": 5399,
      "индивидуаль": 5400,
      "##ft": 5401,
      "теории": 5402,
      "подвод": 5403,
      "живу": 5404,
      "осталась": 5405,
      "курса": 5406,
      "око": 5407,
      "коммуна": 5408,
      "препят": 5409,
      "##жур": 5410,
      "смогла": 5411,
      "везде": 5412,
      "нерв": 5413,
      "сан": 5414,
      "процента": 5415,
      "привез": 5416,
      "##стики": 5417,
      "установить": 5418,
      "##юк": 5419,
      "записи": 5420,
      "непосредственно": 5421,
      "трак": 5422,
      "чувствовал": 5423,
      "##ющему": 5424,
      "звер": 5425,
      "пояс": 5426,
      "университет": 5427,
      "##вшаяся": 5428,
      "120": 5429,
      "политике": 5430,
      "координа": 5431,
      "вопроса": 5432,
      "нож": 5433,
      "папа": 5434,
      "огне": 5435,
      "##мби": 5436,
      "##стным": 5437,
      "лежит": 5438,
      "##ковым": 5439,
      "##чук": 5440,
      "помимо": 5441,
      "пошла": 5442,
      "будущего": 5443,
      "товаров": 5444,
      "состоянию": 5445,
      "потерял": 5446,
      "##сек": 5447,
      "проверить": 5448,
      "стихи": 5449,
      "работали": 5450,
      "##ционная": 5451,
      "бата": 5452,
      "герои": 5453,
      "книге": 5454,
      "##ственными": 5455,
      "материал": 5456,
      "периода": 5457,
      "##сев": 5458,
      "прояв": 5459,
      "расследования": 5460,
      "душу": 5461,
      "дворе": 5462,
      "##рель": 5463,
      "нефтя": 5464,
      "интересы": 5465,
      "картины": 5466,
      "##пка": 5467,
      "украинские": 5468,
      "предстоит": 5469,
      "аэропорта": 5470,
      "##бен": 5471,
      "##мова": 5472,
      "перевод": 5473,
      "небольшо": 5474,
      "1993": 5475,
      "материалов": 5476,
      "##ума": 5477,
      "син": 5478,
      "руководства": 5479,
      "используется": 5480,
      "удара": 5481,
      "нарушение": 5482,
      "учреждения": 5483,
      "жан": 5484,
      "обязанности": 5485,
      "тет": 5486,
      "##метов": 5487,
      "болезни": 5488,
      "причаст": 5489,
      "границе": 5490,
      "##ственности": 5491,
      "1995": 5492,
      "понимал": 5493,
      "##end": 5494,
      "политику": 5495,
      "63": 5496,
      "вов": 5497,
      "продуктов": 5498,
      "мин": 5499,
      "специалисты": 5500,
      "секунду": 5501,
      "нос": 5502,
      "радика": 5503,
      "##поля": 5504,
      "удастся": 5505,
      "поступил": 5506,
      "рекорд": 5507,
      "##дана": 5508,
      "##льев": 5509,
      "сотрудничества": 5510,
      "выжи": 5511,
      "приво": 5512,
      "лето": 5513,
      "приехал": 5514,
      "здоровья": 5515,
      "##тировал": 5516,
      "##ss": 5517,
      "сторона": 5518,
      "смысла": 5519,
      "##рене": 5520,
      "номина": 5521,
      "судя": 5522,
      "крым": 5523,
      "рассказать": 5524,
      "вечера": 5525,
      "динами": 5526,
      "услышал": 5527,
      "понимать": 5528,
      "киев": 5529,
      "этапе": 5530,
      "обмен": 5531,
      "воде": 5532,
      "стене": 5533,
      "600": 5534,
      "получает": 5535,
      "зак": 5536,
      "ля": 5537,
      "62": 5538,
      "##ровку": 5539,
      "##ud": 5540,
      "забро": 5541,
      "##нении": 5542,
      "окончил": 5543,
      "##тивов": 5544,
      "гимна": 5545,
      "##вати": 5546,
      "неизвестно": 5547,
      "принципе": 5548,
      "##рк": 5549,
      "категории": 5550,
      "канала": 5551,
      "близко": 5552,
      "ремонт": 5553,
      "исключением": 5554,
      "занимался": 5555,
      "##емое": 5556,
      "губернии": 5557,
      "считал": 5558,
      "като": 5559,
      "шоссе": 5560,
      "##кового": 5561,
      "немало": 5562,
      "##зме": 5563,
      "##бал": 5564,
      "объяснил": 5565,
      "попали": 5566,
      "шанс": 5567,
      "##рис": 5568,
      "##ченного": 5569,
      "примет": 5570,
      "##вказ": 5571,
      "опасности": 5572,
      "стоят": 5573,
      "##рели": 5574,
      "имела": 5575,
      "95": 5576,
      "эль": 5577,
      "больницу": 5578,
      "встречу": 5579,
      "угол": 5580,
      "доллара": 5581,
      "крат": 5582,
      "##сель": 5583,
      "медицин": 5584,
      "##шель": 5585,
      "блока": 5586,
      "личности": 5587,
      "99": 5588,
      "##швили": 5589,
      "вызывает": 5590,
      "вон": 5591,
      "фар": 5592,
      "##ющимся": 5593,
      "журналистов": 5594,
      "бумаги": 5595,
      "женщину": 5596,
      "съе": 5597,
      "уши": 5598,
      "эми": 5599,
      "платить": 5600,
      "отказаться": 5601,
      "##бек": 5602,
      "##дея": 5603,
      "76": 5604,
      "волн": 5605,
      "заг": 5606,
      "министерства": 5607,
      "##бет": 5608,
      "##ченным": 5609,
      "сидя": 5610,
      "##тическая": 5611,
      "пусто": 5612,
      "оса": 5613,
      "услуги": 5614,
      "##син": 5615,
      "третьего": 5616,
      "раско": 5617,
      "грана": 5618,
      "сон": 5619,
      "изменить": 5620,
      "##ванных": 5621,
      "правоохранительных": 5622,
      "результатам": 5623,
      "положении": 5624,
      "веща": 5625,
      "##ack": 5626,
      "произведения": 5627,
      "тема": 5628,
      "имеется": 5629,
      "консульта": 5630,
      "границу": 5631,
      "футбола": 5632,
      "переход": 5633,
      "##лика": 5634,
      "##ври": 5635,
      "прер": 5636,
      "веру": 5637,
      "##яр": 5638,
      "сыграл": 5639,
      "законом": 5640,
      "##пира": 5641,
      "ногами": 5642,
      "##стил": 5643,
      "легче": 5644,
      "сказано": 5645,
      "планеты": 5646,
      "разумеется": 5647,
      "использование": 5648,
      "кресло": 5649,
      "новом": 5650,
      "вопросу": 5651,
      "оставалось": 5652,
      "академии": 5653,
      "ресурсы": 5654,
      "совершил": 5655,
      "фло": 5656,
      "твои": 5657,
      "ассоциации": 5658,
      "##нными": 5659,
      "пограни": 5660,
      "##вто": 5661,
      "##ционное": 5662,
      "институт": 5663,
      "тари": 5664,
      "руководителя": 5665,
      "##пала": 5666,
      "представителя": 5667,
      "##мно": 5668,
      "отставку": 5669,
      "именем": 5670,
      "имею": 5671,
      "##рим": 5672,
      "ходить": 5673,
      "впрочем": 5674,
      "##дие": 5675,
      "житель": 5676,
      "1970": 5677,
      "приняла": 5678,
      "бюро": 5679,
      "будучи": 5680,
      "сеть": 5681,
      "##голь": 5682,
      "оружием": 5683,
      "дорого": 5684,
      "скончался": 5685,
      "##se": 5686,
      "дорога": 5687,
      "##зю": 5688,
      "лам": 5689,
      "сумел": 5690,
      "вя": 5691,
      "##коль": 5692,
      "##вающие": 5693,
      "базы": 5694,
      "бого": 5695,
      "оча": 5696,
      "сомнения": 5697,
      "предлагает": 5698,
      "подклю": 5699,
      "вынес": 5700,
      "преподава": 5701,
      "1960": 5702,
      "эксперты": 5703,
      "суток": 5704,
      "03": 5705,
      "дре": 5706,
      "департамента": 5707,
      "##чиком": 5708,
      "страх": 5709,
      "##нета": 5710,
      "академи": 5711,
      "##10": 5712,
      "продолжать": 5713,
      "напоминает": 5714,
      "нара": 5715,
      "обрабо": 5716,
      "##щиеся": 5717,
      "##вина": 5718,
      "аварии": 5719,
      "полковник": 5720,
      "сборную": 5721,
      "выступает": 5722,
      "масса": 5723,
      "отече": 5724,
      "гран": 5725,
      "ярко": 5726,
      "##шками": 5727,
      "подзем": 5728,
      "милиции": 5729,
      "жизнью": 5730,
      "герман": 5731,
      "выразил": 5732,
      "спину": 5733,
      "##цева": 5734,
      "##льп": 5735,
      "документ": 5736,
      "проведение": 5737,
      "05": 5738,
      "держать": 5739,
      "металли": 5740,
      "играх": 5741,
      "##жих": 5742,
      "учетом": 5743,
      "ощущение": 5744,
      "##вано": 5745,
      "68": 5746,
      "пытаются": 5747,
      "нрав": 5748,
      "армию": 5749,
      "оли": 5750,
      "приказал": 5751,
      "вни": 5752,
      "##мель": 5753,
      "##кома": 5754,
      "##тору": 5755,
      "чиновников": 5756,
      "ничто": 5757,
      "##банка": 5758,
      "##ver": 5759,
      "реально": 5760,
      "народов": 5761,
      "##енная": 5762,
      "источники": 5763,
      "масштаб": 5764,
      "тренера": 5765,
      "##цвет": 5766,
      "ордена": 5767,
      "сочета": 5768,
      "рыба": 5769,
      "штат": 5770,
      "беженцев": 5771,
      "запас": 5772,
      "осна": 5773,
      "##леб": 5774,
      "##лович": 5775,
      "сложности": 5776,
      "бег": 5777,
      "77": 5778,
      "##лево": 5779,
      "леса": 5780,
      "заметили": 5781,
      "модерни": 5782,
      "вина": 5783,
      "араб": 5784,
      "##дная": 5785,
      "поддержке": 5786,
      "выяс": 5787,
      "##дру": 5788,
      "сумма": 5789,
      "кабинет": 5790,
      "канал": 5791,
      "теп": 5792,
      "склады": 5793,
      "##зви": 5794,
      "72": 5795,
      "состояния": 5796,
      "попол": 5797,
      "бороться": 5798,
      "лы": 5799,
      "общественного": 5800,
      "##ast": 5801,
      "днев": 5802,
      "66": 5803,
      "приказа": 5804,
      "карты": 5805,
      "стоимости": 5806,
      "звание": 5807,
      "выполнен": 5808,
      "##хоз": 5809,
      "изначально": 5810,
      "##ос": 5811,
      "##фан": 5812,
      "волну": 5813,
      "##рома": 5814,
      "продукты": 5815,
      "продолжил": 5816,
      "начиная": 5817,
      "вырос": 5818,
      "сознание": 5819,
      "##никова": 5820,
      "книга": 5821,
      "жертв": 5822,
      "охраны": 5823,
      "##лялся": 5824,
      "ужас": 5825,
      "показывает": 5826,
      "кампании": 5827,
      "мнения": 5828,
      "пони": 5829,
      "##дного": 5830,
      "плечо": 5831,
      "группировки": 5832,
      "отмечают": 5833,
      "##чии": 5834,
      "испан": 5835,
      "дю": 5836,
      "##фера": 5837,
      "собирался": 5838,
      "##чивать": 5839,
      "передать": 5840,
      "##хан": 5841,
      "служи": 5842,
      "##щенных": 5843,
      "плечи": 5844,
      "плюс": 5845,
      "теоре": 5846,
      "версия": 5847,
      "лоб": 5848,
      "концерт": 5849,
      "моде": 5850,
      "способен": 5851,
      "##совета": 5852,
      "исследователь": 5853,
      "ученые": 5854,
      "взят": 5855,
      "стиле": 5856,
      "успеха": 5857,
      "бок": 5858,
      "##рои": 5859,
      "##рисо": 5860,
      "##эк": 5861,
      "падения": 5862,
      "1920": 5863,
      "состоялся": 5864,
      "ехать": 5865,
      "позна": 5866,
      "##ive": 5867,
      "##чел": 5868,
      "десятки": 5869,
      "развитию": 5870,
      "##рья": 5871,
      "насчет": 5872,
      "ресурсов": 5873,
      "остановить": 5874,
      "назначения": 5875,
      "достижения": 5876,
      "07": 5877,
      "аргу": 5878,
      "целях": 5879,
      "##рных": 5880,
      "открыто": 5881,
      "намерен": 5882,
      "##под": 5883,
      "ногу": 5884,
      "названия": 5885,
      "заметно": 5886,
      "##per": 5887,
      "##банк": 5888,
      "вторая": 5889,
      "научно": 5890,
      "замуж": 5891,
      "боже": 5892,
      "открыть": 5893,
      "сестра": 5894,
      "содержание": 5895,
      "запах": 5896,
      "начался": 5897,
      "эфире": 5898,
      "составит": 5899,
      "##ону": 5900,
      "школа": 5901,
      "поражения": 5902,
      "петербург": 5903,
      "км²": 5904,
      "оказаться": 5905,
      "свободу": 5906,
      "##oy": 5907,
      "##дева": 5908,
      "навсегда": 5909,
      "любил": 5910,
      "доброволь": 5911,
      "04": 5912,
      "состоялась": 5913,
      "выиграл": 5914,
      "##ленном": 5915,
      "волшеб": 5916,
      "магни": 5917,
      "озву": 5918,
      "##ческому": 5919,
      "предотвра": 5920,
      "словом": 5921,
      "переу": 5922,
      "##нив": 5923,
      "раду": 5924,
      "##лд": 5925,
      "##ок": 5926,
      "рад": 5927,
      "сно": 5928,
      "советских": 5929,
      "выяснилось": 5930,
      "##юще": 5931,
      "поток": 5932,
      "участвовать": 5933,
      "спло": 5934,
      "##стого": 5935,
      "последним": 5936,
      "деревья": 5937,
      "характера": 5938,
      "признать": 5939,
      "02": 5940,
      "ранения": 5941,
      "частично": 5942,
      "179": 5943,
      "самолетов": 5944,
      "правду": 5945,
      "##az": 5946,
      "поведение": 5947,
      "73": 5948,
      "округ": 5949,
      "верить": 5950,
      "стру": 5951,
      "наказание": 5952,
      "##пуль": 5953,
      "расходы": 5954,
      "делали": 5955,
      "контакт": 5956,
      "входят": 5957,
      "финансов": 5958,
      "давление": 5959,
      "гордо": 5960,
      "мозга": 5961,
      "опере": 5962,
      "природы": 5963,
      "служеб": 5964,
      "пострадавших": 5965,
      "иди": 5966,
      "1930": 5967,
      "договора": 5968,
      "##пель": 5969,
      "офицер": 5970,
      "нано": 5971,
      "стари": 5972,
      "обществе": 5973,
      "пен": 5974,
      "показали": 5975,
      "1940": 5976,
      "серы": 5977,
      "депутаты": 5978,
      "фона": 5979,
      "авиации": 5980,
      "доход": 5981,
      "брен": 5982,
      "полтора": 5983,
      "пальцы": 5984,
      "питания": 5985,
      "уса": 5986,
      "топ": 5987,
      "военнослужащих": 5988,
      "университете": 5989,
      "67": 5990,
      "нах": 5991,
      "##димо": 5992,
      "понимает": 5993,
      "леги": 5994,
      "##сет": 5995,
      "демонстра": 5996,
      "1939": 5997,
      "удержи": 5998,
      "##мами": 5999,
      "ущерб": 6000,
      "углу": 6001,
      "определить": 6002,
      "лежа": 6003,
      "угрозы": 6004,
      "получит": 6005,
      "долг": 6006,
      "грани": 6007,
      "понятия": 6008,
      "вклад": 6009,
      "##пами": 6010,
      "написано": 6011,
      "следующие": 6012,
      "атаки": 6013,
      "нападения": 6014,
      "тщательно": 6015,
      "##граф": 6016,
      "##пр": 6017,
      "вплоть": 6018,
      "1918": 6019,
      "##ne": 6020,
      "получать": 6021,
      "философ": 6022,
      "1989": 6023,
      "##ry": 6024,
      "реке": 6025,
      "1917": 6026,
      "половины": 6027,
      "минуте": 6028,
      "подходя": 6029,
      "основания": 6030,
      "паралле": 6031,
      "прида": 6032,
      "##рованного": 6033,
      "кладбище": 6034,
      "убы": 6035,
      "##пти": 6036,
      "экипажа": 6037,
      "западе": 6038,
      "##ff": 6039,
      "отметила": 6040,
      "река": 6041,
      "монет": 6042,
      "городу": 6043,
      "800": 6044,
      "настав": 6045,
      "начались": 6046,
      "борьбу": 6047,
      "данного": 6048,
      "поколения": 6049,
      "неплохо": 6050,
      "##виков": 6051,
      "энерго": 6052,
      "подробно": 6053,
      "принадлежа": 6054,
      "проходят": 6055,
      "сделано": 6056,
      "хода": 6057,
      "платье": 6058,
      "недалеко": 6059,
      "задержан": 6060,
      "детьми": 6061,
      "успех": 6062,
      "вере": 6063,
      "почита": 6064,
      "риск": 6065,
      "##шок": 6066,
      "душа": 6067,
      "##ere": 6068,
      "##кость": 6069,
      "##хин": 6070,
      "работников": 6071,
      "начинают": 6072,
      "звезды": 6073,
      "девушку": 6074,
      "укры": 6075,
      "собственного": 6076,
      "министров": 6077,
      "колен": 6078,
      "61": 6079,
      "##24": 6080,
      "необходимость": 6081,
      "князь": 6082,
      "издели": 6083,
      "острове": 6084,
      "старше": 6085,
      "пье": 6086,
      "зубы": 6087,
      "##ляя": 6088,
      "дому": 6089,
      "атаку": 6090,
      "оставаться": 6091,
      "##юн": 6092,
      "##ером": 6093,
      "корабли": 6094,
      "##сот": 6095,
      "магазин": 6096,
      "журналист": 6097,
      "атом": 6098,
      "золото": 6099,
      "##лес": 6100,
      "продемонстри": 6101,
      "поу": 6102,
      "мясо": 6103,
      "привык": 6104,
      "станут": 6105,
      "желания": 6106,
      "принимал": 6107,
      "##вики": 6108,
      "##жке": 6109,
      "фабри": 6110,
      "##вшимся": 6111,
      "250": 6112,
      "##ака": 6113,
      "покинуть": 6114,
      "точку": 6115,
      "эффект": 6116,
      "##пова": 6117,
      "##сками": 6118,
      "74": 6119,
      "очереди": 6120,
      "дух": 6121,
      "##ванные": 6122,
      "четверть": 6123,
      "##кона": 6124,
      "граждане": 6125,
      "поставки": 6126,
      "регулярно": 6127,
      "твердо": 6128,
      "подобного": 6129,
      "средне": 6130,
      "крупные": 6131,
      "сп": 6132,
      "лесу": 6133,
      "##емом": 6134,
      "сборная": 6135,
      "##рные": 6136,
      "страха": 6137,
      "источников": 6138,
      "основные": 6139,
      "##рона": 6140,
      "спуска": 6141,
      "тридцать": 6142,
      "террористов": 6143,
      "следствие": 6144,
      "кандидатов": 6145,
      "наличие": 6146,
      "##слава": 6147,
      "оборудования": 6148,
      "школь": 6149,
      "продоволь": 6150,
      "фонд": 6151,
      "звезд": 6152,
      "##вят": 6153,
      "кали": 6154,
      "##ющегося": 6155,
      "матчах": 6156,
      "предше": 6157,
      "призвал": 6158,
      "пришло": 6159,
      "появилось": 6160,
      "создан": 6161,
      "известен": 6162,
      "эм": 6163,
      "пространства": 6164,
      "такси": 6165,
      "##шенные": 6166,
      "пассажир": 6167,
      "##льда": 6168,
      "покинул": 6169,
      "относятся": 6170,
      "следовало": 6171,
      "защиту": 6172,
      "черт": 6173,
      "прибыл": 6174,
      "##лаз": 6175,
      "находилась": 6176,
      "чужо": 6177,
      "отряд": 6178,
      "медве": 6179,
      "ура": 6180,
      "##рда": 6181,
      "##eg": 6182,
      "##где": 6183,
      "диплома": 6184,
      "снижение": 6185,
      "##ровались": 6186,
      "пользоваться": 6187,
      "всяких": 6188,
      "собственных": 6189,
      "черно": 6190,
      "разор": 6191,
      "##уре": 6192,
      "##стная": 6193,
      "зовут": 6194,
      "##сал": 6195,
      "настоящему": 6196,
      "снять": 6197,
      "колонии": 6198,
      "отвечает": 6199,
      "##кови": 6200,
      "##фаль": 6201,
      "месту": 6202,
      "музыки": 6203,
      "миссис": 6204,
      "известных": 6205,
      "предложен": 6206,
      "недостаточно": 6207,
      "иду": 6208,
      "##80": 6209,
      "фили": 6210,
      "##енным": 6211,
      "приходит": 6212,
      "помещения": 6213,
      "отношениях": 6214,
      "мусульман": 6215,
      "император": 6216,
      "##тером": 6217,
      "долю": 6218,
      "титул": 6219,
      "нере": 6220,
      "база": 6221,
      "отдал": 6222,
      "лов": 6223,
      "американские": 6224,
      "полю": 6225,
      "оптими": 6226,
      "среднего": 6227,
      "кап": 6228,
      "законы": 6229,
      "заключения": 6230,
      "генерала": 6231,
      "бак": 6232,
      "##рал": 6233,
      "большинства": 6234,
      "муже": 6235,
      "пострадали": 6236,
      "эксперимента": 6237,
      "видим": 6238,
      "##бл": 6239,
      "##пто": 6240,
      "заключается": 6241,
      "##дзе": 6242,
      "меда": 6243,
      "##лона": 6244,
      "##ов": 6245,
      "##лине": 6246,
      "скор": 6247,
      "камень": 6248,
      "сочин": 6249,
      "##тури": 6250,
      "раска": 6251,
      "##фин": 6252,
      "проблему": 6253,
      "приготов": 6254,
      "##щают": 6255,
      "самим": 6256,
      "всяком": 6257,
      "законопроект": 6258,
      "автора": 6259,
      "##лялись": 6260,
      "служил": 6261,
      "расстоянии": 6262,
      "огромное": 6263,
      "сотрудник": 6264,
      "##сным": 6265,
      "каждым": 6266,
      "друже": 6267,
      "##щали": 6268,
      "консерва": 6269,
      "раздели": 6270,
      "##ала": 6271,
      "вступ": 6272,
      "регионального": 6273,
      "привело": 6274,
      "ничем": 6275,
      "заседания": 6276,
      "##дик": 6277,
      "годом": 6278,
      "##фина": 6279,
      "представления": 6280,
      "##зму": 6281,
      "судьба": 6282,
      "##града": 6283,
      "обнаружил": 6284,
      "функции": 6285,
      "дипломатиче": 6286,
      "ть": 6287,
      "насчиты": 6288,
      "обладает": 6289,
      "гигант": 6290,
      "##дика": 6291,
      "появляется": 6292,
      "##лков": 6293,
      "##out": 6294,
      "иденти": 6295,
      "##ису": 6296,
      "больнице": 6297,
      "корпус": 6298,
      "оппозиции": 6299,
      "друж": 6300,
      "адвокат": 6301,
      "топлива": 6302,
      "штата": 6303,
      "##зино": 6304,
      "глубине": 6305,
      "контр": 6306,
      "белых": 6307,
      "хорошие": 6308,
      "автомобили": 6309,
      "дорог": 6310,
      "показатель": 6311,
      "имущества": 6312,
      "зная": 6313,
      "причинам": 6314,
      "пишут": 6315,
      "центром": 6316,
      "песен": 6317,
      "##ib": 6318,
      "ограничения": 6319,
      "турнире": 6320,
      "1000": 6321,
      "лучшим": 6322,
      "продолжают": 6323,
      "##бит": 6324,
      "бою": 6325,
      "мани": 6326,
      "солнца": 6327,
      "остальное": 6328,
      "округе": 6329,
      "соответствует": 6330,
      "вызыва": 6331,
      "всеоб": 6332,
      "прокуратуры": 6333,
      "офицеров": 6334,
      "вернулась": 6335,
      "идеаль": 6336,
      "существенно": 6337,
      "судов": 6338,
      "федерального": 6339,
      "компанию": 6340,
      "наве": 6341,
      "разрешения": 6342,
      "альбома": 6343,
      "##диа": 6344,
      "краю": 6345,
      "##ass": 6346,
      "связаны": 6347,
      "гон": 6348,
      "подобное": 6349,
      "запуска": 6350,
      "врага": 6351,
      "лишения": 6352,
      "князя": 6353,
      "авторов": 6354,
      "элемента": 6355,
      "##зовы": 6356,
      "аэ": 6357,
      "единственным": 6358,
      "##чков": 6359,
      "полицию": 6360,
      "указыва": 6361,
      "##дре": 6362,
      "вооруженных": 6363,
      "решать": 6364,
      "бух": 6365,
      "давать": 6366,
      "выполнять": 6367,
      "полк": 6368,
      "операцию": 6369,
      "фронт": 6370,
      "счета": 6371,
      "бригады": 6372,
      "##ph": 6373,
      "##нях": 6374,
      "требуется": 6375,
      "собственные": 6376,
      "эксперт": 6377,
      "фаль": 6378,
      "##нус": 6379,
      "лицу": 6380,
      "читал": 6381,
      "пола": 6382,
      "##вах": 6383,
      "зача": 6384,
      "сообщают": 6385,
      "существования": 6386,
      "голосования": 6387,
      "##ain": 6388,
      "традиции": 6389,
      "on": 6390,
      "##ity": 6391,
      "##ore": 6392,
      "заседание": 6393,
      "эли": 6394,
      "топо": 6395,
      "севере": 6396,
      "проф": 6397,
      "успели": 6398,
      "мыши": 6399,
      "хозяин": 6400,
      "06": 6401,
      "конкурса": 6402,
      "выражение": 6403,
      "ведут": 6404,
      "положил": 6405,
      "убил": 6406,
      "##ленными": 6407,
      "##тками": 6408,
      "##мита": 6409,
      "свето": 6410,
      "ошибку": 6411,
      "звук": 6412,
      "врач": 6413,
      "пожал": 6414,
      "мино": 6415,
      "установки": 6416,
      "##зина": 6417,
      "крово": 6418,
      "большинстве": 6419,
      "официальном": 6420,
      "началом": 6421,
      "всякого": 6422,
      "современных": 6423,
      "al": 6424,
      "появится": 6425,
      "принимает": 6426,
      "теми": 6427,
      "переимено": 6428,
      "национального": 6429,
      "##кен": 6430,
      "тени": 6431,
      "бог": 6432,
      "кури": 6433,
      "##мбу": 6434,
      "остаются": 6435,
      "туристов": 6436,
      "списке": 6437,
      "качество": 6438,
      "##мед": 6439,
      "69": 6440,
      "комментарии": 6441,
      "перекры": 6442,
      "самую": 6443,
      "замок": 6444,
      "учения": 6445,
      "отделение": 6446,
      "##тес": 6447,
      "##io": 6448,
      "экспертов": 6449,
      "указал": 6450,
      "сознания": 6451,
      "странами": 6452,
      "телеканала": 6453,
      "поклон": 6454,
      "сия": 6455,
      "дыхание": 6456,
      "открытия": 6457,
      "сроки": 6458,
      "розо": 6459,
      "побо": 6460,
      "отличается": 6461,
      "##ust": 6462,
      "музея": 6463,
      "плана": 6464,
      "проводится": 6465,
      "используют": 6466,
      "коп": 6467,
      "испытания": 6468,
      "##гим": 6469,
      "коричне": 6470,
      "снаб": 6471,
      "согласен": 6472,
      "скажем": 6473,
      "##тория": 6474,
      "здравоохранения": 6475,
      "стоять": 6476,
      "обита": 6477,
      "применения": 6478,
      "белые": 6479,
      "навстречу": 6480,
      "измер": 6481,
      "##ционную": 6482,
      "травмы": 6483,
      "продолжается": 6484,
      "##25": 6485,
      "озера": 6486,
      "детям": 6487,
      "##жек": 6488,
      "##мона": 6489,
      "результатов": 6490,
      "##тность": 6491,
      "жену": 6492,
      "1950": 6493,
      "##чени": 6494,
      "этап": 6495,
      "происхождения": 6496,
      "швед": 6497,
      "71": 6498,
      "##женным": 6499,
      "премьера": 6500,
      "товар": 6501,
      "кв": 6502,
      "##ata": 6503,
      "полное": 6504,
      "интересов": 6505,
      "опасность": 6506,
      "вывод": 6507,
      "командира": 6508,
      "футболист": 6509,
      "##ox": 6510,
      "проекты": 6511,
      "царя": 6512,
      "температура": 6513,
      "юге": 6514,
      "отдать": 6515,
      "##ора": 6516,
      "приговор": 6517,
      "обши": 6518,
      "игрок": 6519,
      "весело": 6520,
      "##рея": 6521,
      "##ont": 6522,
      "бази": 6523,
      "##ват": 6524,
      "##мета": 6525,
      "временно": 6526,
      "преимущественно": 6527,
      "вирту": 6528,
      "суть": 6529,
      "батальона": 6530,
      "финала": 6531,
      "##ip": 6532,
      "проводит": 6533,
      "сектора": 6534,
      "разработан": 6535,
      "возраст": 6536,
      "помогает": 6537,
      "деревьев": 6538,
      "западных": 6539,
      "##ash": 6540,
      "##аги": 6541,
      "бронзо": 6542,
      "заболевания": 6543,
      "вел": 6544,
      "включает": 6545,
      "офф": 6546,
      "смотрит": 6547,
      "необходимые": 6548,
      "домо": 6549,
      "газете": 6550,
      "обращения": 6551,
      "хватало": 6552,
      "структур": 6553,
      "роско": 6554,
      "литературы": 6555,
      "берега": 6556,
      "обоз": 6557,
      "вошла": 6558,
      "молодого": 6559,
      "внешне": 6560,
      "оку": 6561,
      "министром": 6562,
      "##сную": 6563,
      "цене": 6564,
      "##метри": 6565,
      "придержи": 6566,
      "##вшуюся": 6567,
      "берег": 6568,
      "заря": 6569,
      "##дав": 6570,
      "нала": 6571,
      "##жны": 6572,
      "ровно": 6573,
      "сидит": 6574,
      "увидели": 6575,
      "регионах": 6576,
      "вторую": 6577,
      "находиться": 6578,
      "особенности": 6579,
      "разница": 6580,
      "московского": 6581,
      "##гель": 6582,
      "##вичу": 6583,
      "расчет": 6584,
      "##ционным": 6585,
      "телефону": 6586,
      "мирового": 6587,
      "обеих": 6588,
      "##бам": 6589,
      "пожара": 6590,
      "коммуника": 6591,
      "##вшееся": 6592,
      "порту": 6593,
      "учитель": 6594,
      "##ram": 6595,
      "##ith": 6596,
      "86": 6597,
      "буль": 6598,
      "##торе": 6599,
      "http": 6600,
      "третьем": 6601,
      "решительно": 6602,
      "реформы": 6603,
      "обыкнов": 6604,
      "лихо": 6605,
      "вход": 6606,
      "подверг": 6607,
      "счету": 6608,
      "прошу": 6609,
      "##рного": 6610,
      "пистолет": 6611,
      "даст": 6612,
      "работала": 6613,
      "моро": 6614,
      "рассказ": 6615,
      "##сне": 6616,
      "следы": 6617,
      "собрать": 6618,
      "научных": 6619,
      "##ex": 6620,
      "улица": 6621,
      "реальности": 6622,
      "проходил": 6623,
      "половину": 6624,
      "пообещал": 6625,
      "провела": 6626,
      "депутата": 6627,
      "партию": 6628,
      "миссии": 6629,
      "##енное": 6630,
      "существование": 6631,
      "##див": 6632,
      "связанные": 6633,
      "снял": 6634,
      "подготовке": 6635,
      "стри": 6636,
      "виды": 6637,
      "##хим": 6638,
      "##ляция": 6639,
      "таре": 6640,
      "придет": 6641,
      "идею": 6642,
      "леди": 6643,
      "прочих": 6644,
      "опе": 6645,
      "##тины": 6646,
      "лени": 6647,
      "вооружения": 6648,
      "пробу": 6649,
      "зелено": 6650,
      "единиц": 6651,
      "строя": 6652,
      "сказ": 6653,
      "##тс": 6654,
      "снег": 6655,
      "подал": 6656,
      "##щенные": 6657,
      "заставить": 6658,
      "здании": 6659,
      "поры": 6660,
      "высокого": 6661,
      "лестнице": 6662,
      "одежду": 6663,
      "больницы": 6664,
      "десятков": 6665,
      "внутрь": 6666,
      "живых": 6667,
      "картина": 6668,
      "##класс": 6669,
      "жизнен": 6670,
      "вынуждены": 6671,
      "являлся": 6672,
      "семью": 6673,
      "карту": 6674,
      "народу": 6675,
      "##щался": 6676,
      "вещь": 6677,
      "создал": 6678,
      "##ште": 6679,
      "капитана": 6680,
      "участке": 6681,
      "градусов": 6682,
      "##щаются": 6683,
      "некоторым": 6684,
      "мальчика": 6685,
      "обоснова": 6686,
      "студентов": 6687,
      "решением": 6688,
      "летняя": 6689,
      "бои": 6690,
      "##гана": 6691,
      "мисс": 6692,
      "запрет": 6693,
      "##чному": 6694,
      "миг": 6695,
      "республикан": 6696,
      "парк": 6697,
      "курсе": 6698,
      "вопло": 6699,
      "фирмы": 6700,
      "отрасли": 6701,
      "политического": 6702,
      "осво": 6703,
      "экза": 6704,
      "собственности": 6705,
      "##ренко": 6706,
      "влияния": 6707,
      "борьба": 6708,
      "ада": 6709,
      "отказ": 6710,
      "be": 6711,
      "экономических": 6712,
      "пари": 6713,
      "мягко": 6714,
      "седь": 6715,
      "строить": 6716,
      "вступил": 6717,
      "##язы": 6718,
      "детали": 6719,
      "##зву": 6720,
      "##кович": 6721,
      "ошибки": 6722,
      "поведения": 6723,
      "78": 6724,
      "структуры": 6725,
      "выбора": 6726,
      "термина": 6727,
      "грубо": 6728,
      "существуют": 6729,
      "отказались": 6730,
      "бежать": 6731,
      "фильмов": 6732,
      "текущего": 6733,
      "экономике": 6734,
      "поход": 6735,
      "назвали": 6736,
      "больно": 6737,
      "попала": 6738,
      "##тивную": 6739,
      "або": 6740,
      "темы": 6741,
      "здоровье": 6742,
      "пуле": 6743,
      "чьи": 6744,
      "построить": 6745,
      "##ствующих": 6746,
      "дат": 6747,
      "пеше": 6748,
      "##ich": 6749,
      "жар": 6750,
      "сбро": 6751,
      "пить": 6752,
      "##тран": 6753,
      "##илл": 6754,
      "##щенно": 6755,
      "##50": 6756,
      "##ровке": 6757,
      "поддерживать": 6758,
      "отцом": 6759,
      "вовремя": 6760,
      "##чья": 6761,
      "одежды": 6762,
      "ожидается": 6763,
      "##тности": 6764,
      "##тивными": 6765,
      "политические": 6766,
      "протеста": 6767,
      "1988": 6768,
      "занятия": 6769,
      "дина": 6770,
      "стадии": 6771,
      "##шкина": 6772,
      "присоедин": 6773,
      "вернулись": 6774,
      "высоты": 6775,
      "рок": 6776,
      "балан": 6777,
      "авиакомпании": 6778,
      "расту": 6779,
      "##ковы": 6780,
      "любые": 6781,
      "##ровок": 6782,
      "##бии": 6783,
      "возникает": 6784,
      "долга": 6785,
      "занимал": 6786,
      "провозгла": 6787,
      "клубе": 6788,
      "700": 6789,
      "##чники": 6790,
      "##провод": 6791,
      "праздник": 6792,
      "аэропорту": 6793,
      "силах": 6794,
      "вопросом": 6795,
      "картину": 6796,
      "трам": 6797,
      "##граде": 6798,
      "получают": 6799,
      "##хая": 6800,
      "пакет": 6801,
      "двадцати": 6802,
      "прочие": 6803,
      "##тация": 6804,
      "доми": 6805,
      "вышло": 6806,
      "моду": 6807,
      "дополнительные": 6808,
      "представителями": 6809,
      "драгоцен": 6810,
      "##30": 6811,
      "имея": 6812,
      "понимают": 6813,
      "рассказывал": 6814,
      "##тологи": 6815,
      "хватило": 6816,
      "выполнения": 6817,
      "дала": 6818,
      "медали": 6819,
      "##sp": 6820,
      "##рака": 6821,
      "экологи": 6822,
      "##тическое": 6823,
      "театр": 6824,
      "##ond": 6825,
      "группо": 6826,
      "осенью": 6827,
      "комиссия": 6828,
      "смеша": 6829,
      "направление": 6830,
      "##iz": 6831,
      "четко": 6832,
      "##жского": 6833,
      "автоном": 6834,
      "пары": 6835,
      "##женная": 6836,
      "хлеб": 6837,
      "##жина": 6838,
      "полгода": 6839,
      "основы": 6840,
      "кожи": 6841,
      "проез": 6842,
      "колеба": 6843,
      "отвечать": 6844,
      "танков": 6845,
      "журнал": 6846,
      "способны": 6847,
      "увеличить": 6848,
      "##дак": 6849,
      "самих": 6850,
      "социально": 6851,
      "шпи": 6852,
      "мгновенно": 6853,
      "ас": 6854,
      "каждую": 6855,
      "оре": 6856,
      "##che": 6857,
      "##ork": 6858,
      "мост": 6859,
      "рассмотреть": 6860,
      "куро": 6861,
      "солдаты": 6862,
      "закону": 6863,
      "пут": 6864,
      "##кора": 6865,
      "оборудование": 6866,
      "поставля": 6867,
      "гидро": 6868,
      "##лости": 6869,
      "мете": 6870,
      "уверенно": 6871,
      "бывают": 6872,
      "##ссор": 6873,
      "доказать": 6874,
      "##стического": 6875,
      "задач": 6876,
      "туа": 6877,
      "обращение": 6878,
      "экспорт": 6879,
      "##ate": 6880,
      "шею": 6881,
      "следующее": 6882,
      "символи": 6883,
      "военную": 6884,
      "общественных": 6885,
      "связанных": 6886,
      "представление": 6887,
      "##мара": 6888,
      "высоте": 6889,
      "нашла": 6890,
      "81": 6891,
      "##юзе": 6892,
      "способности": 6893,
      "неот": 6894,
      "дочер": 6895,
      "84": 6896,
      "способом": 6897,
      "##иться": 6898,
      "каме": 6899,
      "каждому": 6900,
      "любят": 6901,
      "следующего": 6902,
      "ут": 6903,
      "игрока": 6904,
      "##шихся": 6905,
      "этапа": 6906,
      "вещества": 6907,
      "победа": 6908,
      "телеканал": 6909,
      "постели": 6910,
      "##дья": 6911,
      "ввести": 6912,
      "##мерно": 6913,
      "старик": 6914,
      "клиентов": 6915,
      "признался": 6916,
      "годам": 6917,
      "разговора": 6918,
      "##шиеся": 6919,
      "шар": 6920,
      "сад": 6921,
      "отдельные": 6922,
      "##шат": 6923,
      "отвечал": 6924,
      "позади": 6925,
      "храм": 6926,
      "правом": 6927,
      "труп": 6928,
      "##хал": 6929,
      "позволить": 6930,
      "доля": 6931,
      "господ": 6932,
      "президенту": 6933,
      "принятия": 6934,
      "написать": 6935,
      "становятся": 6936,
      "разведки": 6937,
      "заместителя": 6938,
      "опыта": 6939,
      "##рхи": 6940,
      "флаг": 6941,
      "конгре": 6942,
      "многом": 6943,
      "храма": 6944,
      "##хова": 6945,
      "##деб": 6946,
      "сапо": 6947,
      "##плек": 6948,
      "исправи": 6949,
      "апо": 6950,
      "утверждают": 6951,
      "благотвори": 6952,
      "обучения": 6953,
      "императора": 6954,
      "называли": 6955,
      "запись": 6956,
      "завершилась": 6957,
      "арестован": 6958,
      "##дным": 6959,
      "##био": 6960,
      "иран": 6961,
      "суммы": 6962,
      "знания": 6963,
      "вела": 6964,
      "##вис": 6965,
      "79": 6966,
      "преобразова": 6967,
      "##чеб": 6968,
      "среды": 6969,
      "факты": 6970,
      "возвращения": 6971,
      "станция": 6972,
      "неи": 6973,
      "##жались": 6974,
      "##чна": 6975,
      "счастье": 6976,
      "##нек": 6977,
      "посад": 6978,
      "##ix": 6979,
      "линию": 6980,
      "##amp": 6981,
      "##ссель": 6982,
      "доказательства": 6983,
      "мечта": 6984,
      "отправил": 6985,
      "наступление": 6986,
      "старые": 6987,
      "##пит": 6988,
      "коме": 6989,
      "прекратить": 6990,
      "падение": 6991,
      "разрабаты": 6992,
      "сцене": 6993,
      "##пии": 6994,
      "##стере": 6995,
      "уга": 6996,
      "передал": 6997,
      "памятник": 6998,
      "ушла": 6999,
      "директоров": 7000,
      "##лав": 7001,
      "половина": 7002,
      "девочки": 7003,
      "ске": 7004,
      "ветра": 7005,
      "местности": 7006,
      "подар": 7007,
      "##дена": 7008,
      "способность": 7009,
      "выяснить": 7010,
      "подраздел": 7011,
      "входя": 7012,
      "стер": 7013,
      "##ure": 7014,
      "87": 7015,
      "хорошего": 7016,
      "называть": 7017,
      "сорок": 7018,
      "зала": 7019,
      "защите": 7020,
      "счастью": 7021,
      "боевые": 7022,
      "помог": 7023,
      "бре": 7024,
      "каждая": 7025,
      "иску": 7026,
      "законодательства": 7027,
      "молодые": 7028,
      "##man": 7029,
      "##бия": 7030,
      "играли": 7031,
      "##центри": 7032,
      "##шер": 7033,
      "формирования": 7034,
      "убор": 7035,
      "гаранти": 7036,
      "решению": 7037,
      "технику": 7038,
      "народного": 7039,
      "лучшие": 7040,
      "письмен": 7041,
      "##жник": 7042,
      "идеологи": 7043,
      "82": 7044,
      "разработ": 7045,
      "##надца": 7046,
      "поддерживает": 7047,
      "программи": 7048,
      "надпись": 7049,
      "архе": 7050,
      "##ire": 7051,
      "##щались": 7052,
      "доктора": 7053,
      "направлен": 7054,
      "##реб": 7055,
      "малы": 7056,
      "шаги": 7057,
      "сотрудничество": 7058,
      "пуска": 7059,
      "##юри": 7060,
      "поми": 7061,
      "##свя": 7062,
      "похорон": 7063,
      "особого": 7064,
      "полета": 7065,
      "звезда": 7066,
      "разобраться": 7067,
      "зон": 7068,
      "##кости": 7069,
      "старого": 7070,
      "скоростью": 7071,
      "целе": 7072,
      "исход": 7073,
      "многочисленные": 7074,
      "объекты": 7075,
      "волны": 7076,
      "серьезные": 7077,
      "удовольствие": 7078,
      "художник": 7079,
      "известны": 7080,
      "какими": 7081,
      "современного": 7082,
      "номера": 7083,
      "##эл": 7084,
      "содержания": 7085,
      "##ствию": 7086,
      "представляют": 7087,
      "пункты": 7088,
      "##дневно": 7089,
      "обеспечение": 7090,
      "##гера": 7091,
      "##шков": 7092,
      "боевики": 7093,
      "редак": 7094,
      "##зуется": 7095,
      "##слан": 7096,
      "миллион": 7097,
      "заявлении": 7098,
      "воли": 7099,
      "##ену": 7100,
      "сигнал": 7101,
      "периоди": 7102,
      "уезда": 7103,
      "создана": 7104,
      "сувер": 7105,
      "сообщества": 7106,
      "96": 7107,
      "##ченная": 7108,
      "полную": 7109,
      "##жав": 7110,
      "повышения": 7111,
      "88": 7112,
      "упала": 7113,
      "специалист": 7114,
      "приви": 7115,
      "жилья": 7116,
      "##сны": 7117,
      "русском": 7118,
      "жидко": 7119,
      "магистра": 7120,
      "коммуны": 7121,
      "наг": 7122,
      "тексте": 7123,
      "восток": 7124,
      "прису": 7125,
      "оценки": 7126,
      "подле": 7127,
      "патриар": 7128,
      "##честер": 7129,
      "проигры": 7130,
      "рада": 7131,
      "общения": 7132,
      "коллеги": 7133,
      "израиль": 7134,
      "##рек": 7135,
      "капитала": 7136,
      "привел": 7137,
      "занять": 7138,
      "##зли": 7139,
      "палаты": 7140,
      "столкновения": 7141,
      "языком": 7142,
      "менять": 7143,
      "стену": 7144,
      "повышение": 7145,
      "##лое": 7146,
      "пределах": 7147,
      "музыку": 7148,
      "реклам": 7149,
      "операция": 7150,
      "##ci": 7151,
      "аф": 7152,
      "пуль": 7153,
      "происходило": 7154,
      "ставки": 7155,
      "##ане": 7156,
      "полного": 7157,
      "1938": 7158,
      "уничтожить": 7159,
      "закончил": 7160,
      "дья": 7161,
      "##дное": 7162,
      "##вь": 7163,
      "хри": 7164,
      "детства": 7165,
      "засе": 7166,
      "##сист": 7167,
      "капитали": 7168,
      "пыталась": 7169,
      "хорошая": 7170,
      "пространстве": 7171,
      "привели": 7172,
      "##are": 7173,
      "ряде": 7174,
      "земель": 7175,
      "##куль": 7176,
      "высокие": 7177,
      "базо": 7178,
      "##фия": 7179,
      "ударил": 7180,
      "подве": 7181,
      "дивизи": 7182,
      "1937": 7183,
      "функциони": 7184,
      "##стии": 7185,
      "границ": 7186,
      "актер": 7187,
      "выса": 7188,
      "##стыми": 7189,
      "лед": 7190,
      "инфраструктуры": 7191,
      "старин": 7192,
      "матер": 7193,
      "убили": 7194,
      "окажется": 7195,
      "безопасность": 7196,
      "старых": 7197,
      "использованием": 7198,
      "проме": 7199,
      "лечения": 7200,
      "##илла": 7201,
      "турнир": 7202,
      "оставался": 7203,
      "обязательства": 7204,
      "степень": 7205,
      "1986": 7206,
      "прися": 7207,
      "##виль": 7208,
      "несу": 7209,
      "появления": 7210,
      "пределами": 7211,
      "шер": 7212,
      "гено": 7213,
      "типи": 7214,
      "направился": 7215,
      "##ok": 7216,
      "привлечь": 7217,
      "шагов": 7218,
      "личного": 7219,
      "обратиться": 7220,
      "полет": 7221,
      "наблюдения": 7222,
      "появление": 7223,
      "срока": 7224,
      "##ченно": 7225,
      "американцы": 7226,
      "##тью": 7227,
      "мозг": 7228,
      "составляло": 7229,
      "биологи": 7230,
      "публикации": 7231,
      "уходит": 7232,
      "аван": 7233,
      "общи": 7234,
      "##пот": 7235,
      "любое": 7236,
      "##честве": 7237,
      "ушли": 7238,
      "заметить": 7239,
      "комментариев": 7240,
      "1987": 7241,
      "##емости": 7242,
      "##жок": 7243,
      "##форд": 7244,
      "городских": 7245,
      "излу": 7246,
      "поставок": 7247,
      "ставить": 7248,
      "доступа": 7249,
      "##rom": 7250,
      "резиден": 7251,
      "предприятие": 7252,
      "ученых": 7253,
      "убит": 7254,
      "попытка": 7255,
      "вторым": 7256,
      "объект": 7257,
      "гале": 7258,
      "wh": 7259,
      "театре": 7260,
      "пли": 7261,
      "пад": 7262,
      "##мил": 7263,
      "наказания": 7264,
      "##oe": 7265,
      "правительстве": 7266,
      "объекта": 7267,
      "просит": 7268,
      "le": 7269,
      "рев": 7270,
      "дерева": 7271,
      "правительством": 7272,
      "евреев": 7273,
      "160": 7274,
      "##ровалось": 7275,
      "эволю": 7276,
      "кровью": 7277,
      "##кии": 7278,
      "черные": 7279,
      "максимально": 7280,
      "##ствования": 7281,
      "новому": 7282,
      "доходов": 7283,
      "##емую": 7284,
      "ослаб": 7285,
      "178": 7286,
      "182": 7287,
      "продать": 7288,
      "независимости": 7289,
      "предоставить": 7290,
      "##ens": 7291,
      "просил": 7292,
      "##ненко": 7293,
      "поверхность": 7294,
      "интернете": 7295,
      "##дек": 7296,
      "секунды": 7297,
      "расстояние": 7298,
      "##льф": 7299,
      "песня": 7300,
      "аэропорт": 7301,
      "##ъем": 7302,
      "сзади": 7303,
      "1919": 7304,
      "пери": 7305,
      "вблизи": 7306,
      "коалиции": 7307,
      "служить": 7308,
      "аппарат": 7309,
      "случаи": 7310,
      "составляют": 7311,
      "вызвал": 7312,
      "##рма": 7313,
      "называет": 7314,
      "тип": 7315,
      "чел": 7316,
      "выводу": 7317,
      "визита": 7318,
      "надежды": 7319,
      "поднять": 7320,
      "контракта": 7321,
      "квартале": 7322,
      "осужден": 7323,
      "1985": 7324,
      "областного": 7325,
      "кандидат": 7326,
      "праздни": 7327,
      "угрозу": 7328,
      "пиро": 7329,
      "песню": 7330,
      "##рованная": 7331,
      "##вес": 7332,
      "еду": 7333,
      "сделки": 7334,
      "##11": 7335,
      "сыном": 7336,
      "слушать": 7337,
      "входа": 7338,
      "расположена": 7339,
      "десант": 7340,
      "статью": 7341,
      "школ": 7342,
      "##нис": 7343,
      "оборот": 7344,
      "воспользоваться": 7345,
      "училище": 7346,
      "перевер": 7347,
      "соч": 7348,
      "тремя": 7349,
      "проходили": 7350,
      "выходить": 7351,
      "макро": 7352,
      "погло": 7353,
      "хорош": 7354,
      "судна": 7355,
      "воле": 7356,
      "уровнем": 7357,
      "серде": 7358,
      "приехали": 7359,
      "##стар": 7360,
      "вину": 7361,
      "судья": 7362,
      "##кера": 7363,
      "##tr": 7364,
      "##ченными": 7365,
      "дождь": 7366,
      "внизу": 7367,
      "пропуска": 7368,
      "чудо": 7369,
      "##лизова": 7370,
      "задачу": 7371,
      "исправ": 7372,
      "пома": 7373,
      "третье": 7374,
      "рос": 7375,
      "век": 7376,
      "врагов": 7377,
      "предложили": 7378,
      "продолжала": 7379,
      "пище": 7380,
      "купил": 7381,
      "разработки": 7382,
      "встретиться": 7383,
      "собрания": 7384,
      "расходов": 7385,
      "гроз": 7386,
      "финансовых": 7387,
      "усе": 7388,
      "медаль": 7389,
      "##спор": 7390,
      "набере": 7391,
      "##чева": 7392,
      "огромные": 7393,
      "искусство": 7394,
      "пострадал": 7395,
      "церемонии": 7396,
      "договорились": 7397,
      "производитель": 7398,
      "заводе": 7399,
      "радости": 7400,
      "удары": 7401,
      "похож": 7402,
      "##тара": 7403,
      "безусловно": 7404,
      "##нель": 7405,
      "##лица": 7406,
      "врачи": 7407,
      "продолжить": 7408,
      "поезда": 7409,
      "прибыль": 7410,
      "парке": 7411,
      "##ros": 7412,
      "товарищ": 7413,
      "подарок": 7414,
      "золота": 7415,
      "83": 7416,
      "бывших": 7417,
      "лошади": 7418,
      "виртуаль": 7419,
      "регистрации": 7420,
      "##нические": 7421,
      "разнообраз": 7422,
      "##вее": 7423,
      "аппарата": 7424,
      "судно": 7425,
      "управлять": 7426,
      "##кову": 7427,
      "отряда": 7428,
      "##зив": 7429,
      "немцы": 7430,
      "##ани": 7431,
      "источника": 7432,
      "##бно": 7433,
      "##ковая": 7434,
      "татар": 7435,
      "сани": 7436,
      "##мила": 7437,
      "an": 7438,
      "первыми": 7439,
      "государством": 7440,
      "##дис": 7441,
      "##тоне": 7442,
      "футбол": 7443,
      "метра": 7444,
      "добраться": 7445,
      "##ляю": 7446,
      "разрешение": 7447,
      "##чан": 7448,
      "ежегодно": 7449,
      "мяса": 7450,
      "##ock": 7451,
      "дам": 7452,
      "##ue": 7453,
      "перехода": 7454,
      "##ong": 7455,
      "##лятор": 7456,
      "заняла": 7457,
      "любую": 7458,
      "##жев": 7459,
      "выго": 7460,
      "##берт": 7461,
      "рю": 7462,
      "##vi": 7463,
      "группах": 7464,
      "##веду": 7465,
      "огнем": 7466,
      "хлоп": 7467,
      "учитывая": 7468,
      "использовали": 7469,
      "выступать": 7470,
      "красоты": 7471,
      "##хот": 7472,
      "детстве": 7473,
      "каждое": 7474,
      "проверку": 7475,
      "код": 7476,
      "служа": 7477,
      "парка": 7478,
      "подходит": 7479,
      "высоких": 7480,
      "177": 7481,
      "присутствие": 7482,
      "известного": 7483,
      "лагерь": 7484,
      "веществ": 7485,
      "основным": 7486,
      "##ровалась": 7487,
      "продаже": 7488,
      "мэра": 7489,
      "боях": 7490,
      "очер": 7491,
      "участка": 7492,
      "механиз": 7493,
      "опасно": 7494,
      "таин": 7495,
      "##рки": 7496,
      "площадке": 7497,
      "городом": 7498,
      "пр": 7499,
      "съем": 7500,
      "требуют": 7501,
      "фракции": 7502,
      "фикси": 7503,
      "##рку": 7504,
      "построен": 7505,
      "карман": 7506,
      "##тивном": 7507,
      "##стических": 7508,
      "тюрьмы": 7509,
      "шансы": 7510,
      "принят": 7511,
      "хозяина": 7512,
      "старался": 7513,
      "##чника": 7514,
      "финале": 7515,
      "бомбардиров": 7516,
      "заро": 7517,
      "уехал": 7518,
      "немецких": 7519,
      "89": 7520,
      "##ьем": 7521,
      "собираются": 7522,
      "матчи": 7523,
      "соперника": 7524,
      "финансирования": 7525,
      "оккупа": 7526,
      "письме": 7527,
      "редакции": 7528,
      "гиб": 7529,
      "тира": 7530,
      "дворец": 7531,
      "##зар": 7532,
      "эпохи": 7533,
      "кусок": 7534,
      "специальные": 7535,
      "##зам": 7536,
      "повторил": 7537,
      "моста": 7538,
      "слухи": 7539,
      "объединения": 7540,
      "##уз": 7541,
      "лагеря": 7542,
      "поездки": 7543,
      "вызвать": 7544,
      "рыб": 7545,
      "возможных": 7546,
      "твое": 7547,
      "радость": 7548,
      "##теле": 7549,
      "возглавил": 7550,
      "провод": 7551,
      "##ул": 7552,
      "##ube": 7553,
      "##кове": 7554,
      "портал": 7555,
      "проведении": 7556,
      "невер": 7557,
      "кад": 7558,
      "держал": 7559,
      "##стин": 7560,
      "практике": 7561,
      "108": 7562,
      "большими": 7563,
      "журнале": 7564,
      "шеп": 7565,
      "##новского": 7566,
      "##филь": 7567,
      "учился": 7568,
      "прокуратура": 7569,
      "##тическим": 7570,
      "интенсив": 7571,
      "1984": 7572,
      "цы": 7573,
      "1965": 7574,
      "обещал": 7575,
      "сход": 7576,
      "уша": 7577,
      "прочим": 7578,
      "туман": 7579,
      "установлено": 7580,
      "бага": 7581,
      "долгое": 7582,
      "кабинета": 7583,
      "отсутствия": 7584,
      "позиция": 7585,
      "##лист": 7586,
      "псевдо": 7587,
      "продаж": 7588,
      "существа": 7589,
      "великолеп": 7590,
      "худ": 7591,
      "was": 7592,
      "назем": 7593,
      "##ционном": 7594,
      "версию": 7595,
      "##ленд": 7596,
      "иных": 7597,
      "спине": 7598,
      "##лизации": 7599,
      "##зах": 7600,
      "активности": 7601,
      "вечно": 7602,
      "##ненные": 7603,
      "готовности": 7604,
      "волос": 7605,
      "карта": 7606,
      "звон": 7607,
      "открытие": 7608,
      "туристи": 7609,
      "выполнить": 7610,
      "самолеты": 7611,
      "материала": 7612,
      "ближ": 7613,
      "упро": 7614,
      "##12": 7615,
      "соз": 7616,
      "добавить": 7617,
      "общее": 7618,
      "it": 7619,
      "ислам": 7620,
      "хозяев": 7621,
      "точнее": 7622,
      "перешел": 7623,
      "реакции": 7624,
      "объявили": 7625,
      "давления": 7626,
      "поисках": 7627,
      "вероятность": 7628,
      "четверо": 7629,
      "##тры": 7630,
      "открыла": 7631,
      "улиц": 7632,
      "канад": 7633,
      "видимому": 7634,
      "передви": 7635,
      "создавать": 7636,
      "проща": 7637,
      "чиновники": 7638,
      "карте": 7639,
      "братьев": 7640,
      "статья": 7641,
      "французского": 7642,
      "##раль": 7643,
      "##стика": 7644,
      "предполагает": 7645,
      "подготовку": 7646,
      "поддержать": 7647,
      "секретаря": 7648,
      "тера": 7649,
      "тел": 7650,
      "борт": 7651,
      "нов": 7652,
      "цену": 7653,
      "открыли": 7654,
      "##жников": 7655,
      "##ice": 7656,
      "##дес": 7657,
      "федерации": 7658,
      "считали": 7659,
      "##ick": 7660,
      "подробности": 7661,
      "враже": 7662,
      "##нар": 7663,
      "подход": 7664,
      "целиком": 7665,
      "используются": 7666,
      "реку": 7667,
      "##ченное": 7668,
      "вследствие": 7669,
      "заключил": 7670,
      "ракета": 7671,
      "кош": 7672,
      "рассматривать": 7673,
      "дерево": 7674,
      "##ect": 7675,
      "ожидать": 7676,
      "##ae": 7677,
      "развитии": 7678,
      "очки": 7679,
      "царь": 7680,
      "прор": 7681,
      "имущество": 7682,
      "собрались": 7683,
      "пик": 7684,
      "председателем": 7685,
      "##ими": 7686,
      "двигаться": 7687,
      "сюр": 7688,
      "##хен": 7689,
      "башни": 7690,
      "флот": 7691,
      "ступень": 7692,
      "упор": 7693,
      "девяти": 7694,
      "игроки": 7695,
      "пробо": 7696,
      "##ленко": 7697,
      "линия": 7698,
      "продажу": 7699,
      "##логом": 7700,
      "лагере": 7701,
      "кано": 7702,
      "личность": 7703,
      "монастыря": 7704,
      "ведомстве": 7705,
      "набрал": 7706,
      "единого": 7707,
      "##уса": 7708,
      "##ank": 7709,
      "##зель": 7710,
      "проверка": 7711,
      "зону": 7712,
      "свободно": 7713,
      "броне": 7714,
      "взгляды": 7715,
      "передо": 7716,
      "растя": 7717,
      "##her": 7718,
      "генерального": 7719,
      "покупать": 7720,
      "массы": 7721,
      "сторонам": 7722,
      "##жья": 7723,
      "товары": 7724,
      "##шне": 7725,
      "гражданин": 7726,
      "гли": 7727,
      "веков": 7728,
      "восстановить": 7729,
      "бесплатно": 7730,
      "предс": 7731,
      "назван": 7732,
      "пребывания": 7733,
      "уха": 7734,
      "законов": 7735,
      "трагедии": 7736,
      "мане": 7737,
      "обучение": 7738,
      "арест": 7739,
      "объявила": 7740,
      "##глу": 7741,
      "студии": 7742,
      "защитить": 7743,
      "кости": 7744,
      "##ровав": 7745,
      "последнюю": 7746,
      "##нических": 7747,
      "автоматиче": 7748,
      "повест": 7749,
      "заложен": 7750,
      "##чны": 7751,
      "страда": 7752,
      "##чине": 7753,
      "##лак": 7754,
      "героя": 7755,
      "подобно": 7756,
      "1946": 7757,
      "помогать": 7758,
      "фамилия": 7759,
      "имеются": 7760,
      "элементы": 7761,
      "##американ": 7762,
      "развле": 7763,
      "друзьями": 7764,
      "участник": 7765,
      "сопротивление": 7766,
      "##ence": 7767,
      "умерла": 7768,
      "педагоги": 7769,
      "исходя": 7770,
      "базу": 7771,
      "экономика": 7772,
      "ежедневно": 7773,
      "##фель": 7774,
      "немцев": 7775,
      "1975": 7776,
      "проводят": 7777,
      "голланд": 7778,
      "##рист": 7779,
      "1968": 7780,
      "##суа": 7781,
      "проре": 7782,
      "героев": 7783,
      "результатом": 7784,
      "присла": 7785,
      "прими": 7786,
      "справа": 7787,
      "принимают": 7788,
      "ман": 7789,
      "защитник": 7790,
      "отдельно": 7791,
      "чемпионом": 7792,
      "1979": 7793,
      "иро": 7794,
      "асси": 7795,
      "растения": 7796,
      "вооружение": 7797,
      "авторы": 7798,
      "политик": 7799,
      "##меры": 7800,
      "этаже": 7801,
      "ожидал": 7802,
      "методи": 7803,
      "##ment": 7804,
      "следующим": 7805,
      "##стик": 7806,
      "показала": 7807,
      "болельщиков": 7808,
      "сцены": 7809,
      "аку": 7810,
      "##евна": 7811,
      "списка": 7812,
      "элементов": 7813,
      "наблюдать": 7814,
      "княже": 7815,
      "двоих": 7816,
      "потребовал": 7817,
      "серия": 7818,
      "##ky": 7819,
      "областях": 7820,
      "великого": 7821,
      "130": 7822,
      "##гр": 7823,
      "освобождения": 7824,
      "установили": 7825,
      "зени": 7826,
      "добав": 7827,
      "##фана": 7828,
      "ледя": 7829,
      "крепости": 7830,
      "защищать": 7831,
      "понимание": 7832,
      "оставив": 7833,
      "представлен": 7834,
      "опубликовал": 7835,
      "##товые": 7836,
      "природе": 7837,
      "отправить": 7838,
      "составляла": 7839,
      "лома": 7840,
      "дивер": 7841,
      "неподалеку": 7842,
      "военным": 7843,
      "миром": 7844,
      "мирных": 7845,
      "повод": 7846,
      "##ін": 7847,
      "созданию": 7848,
      "помещение": 7849,
      "шири": 7850,
      "ведущих": 7851,
      "расположены": 7852,
      "середины": 7853,
      "##номи": 7854,
      "##сера": 7855,
      "участии": 7856,
      "ябло": 7857,
      "затя": 7858,
      "св": 7859,
      "установлены": 7860,
      "частных": 7861,
      "лопа": 7862,
      "директором": 7863,
      "отпуска": 7864,
      "сотен": 7865,
      "1982": 7866,
      "97": 7867,
      "замед": 7868,
      "##ствующие": 7869,
      "курт": 7870,
      "установлен": 7871,
      "моменты": 7872,
      "изли": 7873,
      "оставили": 7874,
      "магазина": 7875,
      "##еро": 7876,
      "помощник": 7877,
      "старшего": 7878,
      "увидев": 7879,
      "дым": 7880,
      "водителя": 7881,
      "судить": 7882,
      "допустить": 7883,
      "звуки": 7884,
      "кандидата": 7885,
      "подтвердили": 7886,
      "98": 7887,
      "снего": 7888,
      "лист": 7889,
      "рады": 7890,
      "хорошее": 7891,
      "окончании": 7892,
      "победил": 7893,
      "слове": 7894,
      "##ровского": 7895,
      "срочно": 7896,
      "философии": 7897,
      "собственную": 7898,
      "1967": 7899,
      "художника": 7900,
      "американцев": 7901,
      "важным": 7902,
      "поставили": 7903,
      "ир": 7904,
      "такому": 7905,
      "анализа": 7906,
      "выби": 7907,
      "связана": 7908,
      "враг": 7909,
      "92": 7910,
      "реформ": 7911,
      "родственников": 7912,
      "ликвидации": 7913,
      "увеличение": 7914,
      "выбрать": 7915,
      "количестве": 7916,
      "советского": 7917,
      "##опера": 7918,
      "улицах": 7919,
      "нераз": 7920,
      "рит": 7921,
      "рабочие": 7922,
      "телом": 7923,
      "правилам": 7924,
      "нежели": 7925,
      "выросла": 7926,
      "представлены": 7927,
      "ов": 7928,
      "концентра": 7929,
      "горь": 7930,
      "поселение": 7931,
      "наиболь": 7932,
      "танки": 7933,
      "метод": 7934,
      "маленькая": 7935,
      "##дона": 7936,
      "освободить": 7937,
      "анализ": 7938,
      "##ссон": 7939,
      "судьбы": 7940,
      "боги": 7941,
      "составили": 7942,
      "##нская": 7943,
      "1973": 7944,
      "народных": 7945,
      "восстановление": 7946,
      "ударов": 7947,
      "##40": 7948,
      "организацию": 7949,
      "превышает": 7950,
      "валюты": 7951,
      "##хими": 7952,
      "телефона": 7953,
      "траги": 7954,
      "конвер": 7955,
      "is": 7956,
      "1966": 7957,
      "крыла": 7958,
      "зарплаты": 7959,
      "ценности": 7960,
      "1972": 7961,
      "заняться": 7962,
      "##old": 7963,
      "1976": 7964,
      "актриса": 7965,
      "##цина": 7966,
      "тюрем": 7967,
      "избавиться": 7968,
      "угла": 7969,
      "серию": 7970,
      "географи": 7971,
      "склад": 7972,
      "##уна": 7973,
      "подав": 7974,
      "органах": 7975,
      "преимущество": 7976,
      "ключ": 7977,
      "стекло": 7978,
      "обратил": 7979,
      "километрах": 7980,
      "##бери": 7981,
      "исполнения": 7982,
      "170": 7983,
      "немецкого": 7984,
      "преступление": 7985,
      "профессора": 7986,
      "занимаются": 7987,
      "коррупции": 7988,
      "организовать": 7989,
      "настроения": 7990,
      "##евского": 7991,
      "##нена": 7992,
      "that": 7993,
      "упраж": 7994,
      "лон": 7995,
      "хру": 7996,
      "наличии": 7997,
      "графа": 7998,
      "сэ": 7999,
      "понятие": 8000,
      "##зис": 8001,
      "собак": 8002,
      "1963": 8003,
      "двум": 8004,
      "ухо": 8005,
      "показания": 8006,
      "##ame": 8007,
      "услышать": 8008,
      "возможным": 8009,
      "морских": 8010,
      "##рованием": 8011,
      "шлю": 8012,
      "экстра": 8013,
      "парков": 8014,
      "##ang": 8015,
      "выступление": 8016,
      "узнали": 8017,
      "вред": 8018,
      "деви": 8019,
      "##лоне": 8020,
      "##бус": 8021,
      "событие": 8022,
      "использует": 8023,
      "механизм": 8024,
      "важных": 8025,
      "1964": 8026,
      "искренне": 8027,
      "заставил": 8028,
      "зуб": 8029,
      "цветов": 8030,
      "открыт": 8031,
      "##ational": 8032,
      "настроение": 8033,
      "востоку": 8034,
      "сыграть": 8035,
      "принимали": 8036,
      "крю": 8037,
      "##uss": 8038,
      "следить": 8039,
      "холодно": 8040,
      "добычи": 8041,
      "потеряли": 8042,
      "записы": 8043,
      "##риф": 8044,
      "сестры": 8045,
      "##жаются": 8046,
      "##лэ": 8047,
      "счастья": 8048,
      "фестиваля": 8049,
      "варианты": 8050,
      "душ": 8051,
      "некогда": 8052,
      "стекла": 8053,
      "энергетики": 8054,
      "##ung": 8055,
      "перекре": 8056,
      "##ллин": 8057,
      "сег": 8058,
      "##новых": 8059,
      "главная": 8060,
      "ежегод": 8061,
      "генети": 8062,
      "выводы": 8063,
      "импорт": 8064,
      "удобно": 8065,
      "воинов": 8066,
      "катастрофы": 8067,
      "заключение": 8068,
      "ух": 8069,
      "##хли": 8070,
      "##жье": 8071,
      "як": 8072,
      "1983": 8073,
      "отвле": 8074,
      "1974": 8075,
      "состоялось": 8076,
      "местом": 8077,
      "##няк": 8078,
      "властями": 8079,
      "нормы": 8080,
      "карьеры": 8081,
      "конкурс": 8082,
      "гвардии": 8083,
      "указывает": 8084,
      "массив": 8085,
      "пределы": 8086,
      "##дке": 8087,
      "масло": 8088,
      "##лям": 8089,
      "изображения": 8090,
      "моск": 8091,
      "продав": 8092,
      "чувств": 8093,
      "современные": 8094,
      "католи": 8095,
      "попробовать": 8096,
      "святого": 8097,
      "##тину": 8098,
      "нигде": 8099,
      "насилия": 8100,
      "регион": 8101,
      "девушек": 8102,
      "мировых": 8103,
      "la": 8104,
      "набор": 8105,
      "произведен": 8106,
      "слева": 8107,
      "еле": 8108,
      "растет": 8109,
      "at": 8110,
      "налогов": 8111,
      "выглядел": 8112,
      "брази": 8113,
      "человечества": 8114,
      "##ковича": 8115,
      "получив": 8116,
      "ощущения": 8117,
      "основу": 8118,
      "##воло": 8119,
      "достичь": 8120,
      "партизан": 8121,
      "национальных": 8122,
      "муниципального": 8123,
      "категори": 8124,
      "вин": 8125,
      "дядя": 8126,
      "наре": 8127,
      "sh": 8128,
      "насы": 8129,
      "опуска": 8130,
      "ков": 8131,
      "эксплуатации": 8132,
      "грамот": 8133,
      "официального": 8134,
      "создали": 8135,
      "отва": 8136,
      "93": 8137,
      "остатки": 8138,
      "направлены": 8139,
      "судо": 8140,
      "##нического": 8141,
      "оско": 8142,
      "цифры": 8143,
      "раб": 8144,
      "1959": 8145,
      "##рита": 8146,
      "акка": 8147,
      "проходить": 8148,
      "заявляет": 8149,
      "доллар": 8150,
      "видят": 8151,
      "птиц": 8152,
      "нынешнего": 8153,
      "управлением": 8154,
      "делается": 8155,
      "предположить": 8156,
      "затруд": 8157,
      "просле": 8158,
      "судом": 8159,
      "вернется": 8160,
      "##17": 8161,
      "1981": 8162,
      "напрямую": 8163,
      "##новым": 8164,
      "заведу": 8165,
      "собрав": 8166,
      "тренером": 8167,
      "спер": 8168,
      "##щиком": 8169,
      "справиться": 8170,
      "приблизительно": 8171,
      "##дского": 8172,
      "умеет": 8173,
      "боло": 8174,
      "зачастую": 8175,
      "инцидента": 8176,
      "встретил": 8177,
      "##водство": 8178,
      "##тику": 8179,
      "предложить": 8180,
      "численность": 8181,
      "##хина": 8182,
      "лечение": 8183,
      "участвовали": 8184,
      "зла": 8185,
      "1956": 8186,
      "лидеры": 8187,
      "привлек": 8188,
      "подразуме": 8189,
      "полным": 8190,
      "собран": 8191,
      "спортсмен": 8192,
      "верхов": 8193,
      "предусматривает": 8194,
      "контролем": 8195,
      "##ваемых": 8196,
      "пятьдесят": 8197,
      "форума": 8198,
      "##iss": 8199,
      "лока": 8200,
      "##чников": 8201,
      "##лео": 8202,
      "закреп": 8203,
      "носит": 8204,
      "1962": 8205,
      "уверенность": 8206,
      "##ton": 8207,
      "женщине": 8208,
      "завершения": 8209,
      "##нением": 8210,
      "бана": 8211,
      "дохода": 8212,
      "автобус": 8213,
      "короле": 8214,
      "обсуждения": 8215,
      "дне": 8216,
      "многочисленных": 8217,
      "искусств": 8218,
      "маг": 8219,
      "получат": 8220,
      "##рованным": 8221,
      "нередко": 8222,
      "жертвы": 8223,
      "играют": 8224,
      "кабинете": 8225,
      "очка": 8226,
      "маленькие": 8227,
      "##ax": 8228,
      "камни": 8229,
      "доходы": 8230,
      "побед": 8231,
      "проч": 8232,
      "жилищ": 8233,
      "##суэ": 8234,
      "##oci": 8235,
      "отнюдь": 8236,
      "мэр": 8237,
      "убивать": 8238,
      "камеры": 8239,
      "методы": 8240,
      "##ies": 8241,
      "экспедиции": 8242,
      "##джер": 8243,
      "герцог": 8244,
      "##ам": 8245,
      "обвинение": 8246,
      "украинцев": 8247,
      "детских": 8248,
      "смертью": 8249,
      "представлял": 8250,
      "стремительно": 8251,
      "засу": 8252,
      "деятельностью": 8253,
      "пыль": 8254,
      "посты": 8255,
      "1978": 8256,
      "##ринг": 8257,
      "самоуправ": 8258,
      "жила": 8259,
      "журналисты": 8260,
      "прекращения": 8261,
      "1948": 8262,
      "##we": 8263,
      "обстоятельств": 8264,
      "инфек": 8265,
      "общую": 8266,
      "средствами": 8267,
      "важное": 8268,
      "##60": 8269,
      "107": 8270,
      "представил": 8271,
      "##уда": 8272,
      "братья": 8273,
      "1936": 8274,
      "стадионе": 8275,
      "тюрьме": 8276,
      "1929": 8277,
      "снижения": 8278,
      "делаю": 8279,
      "позволяют": 8280,
      "орденом": 8281,
      "возникла": 8282,
      "применение": 8283,
      "событиях": 8284,
      "проекту": 8285,
      "бара": 8286,
      "отказалась": 8287,
      "медиа": 8288,
      "##теро": 8289,
      "эт": 8290,
      "заведения": 8291,
      "проро": 8292,
      "западу": 8293,
      "финал": 8294,
      "зоо": 8295,
      "лиге": 8296,
      "1961": 8297,
      "безум": 8298,
      "родилась": 8299,
      "##каи": 8300,
      "успехом": 8301,
      "главно": 8302,
      "брак": 8303,
      "##шив": 8304,
      "первонача": 8305,
      "главу": 8306,
      "1971": 8307,
      "мешает": 8308,
      "отцу": 8309,
      "учиться": 8310,
      "##lin": 8311,
      "##берга": 8312,
      "планете": 8313,
      "длинные": 8314,
      "##нау": 8315,
      "воспитан": 8316,
      "##тике": 8317,
      "строительстве": 8318,
      "признан": 8319,
      "повстан": 8320,
      "черты": 8321,
      "дополнительных": 8322,
      "преми": 8323,
      "двигателя": 8324,
      "отправиться": 8325,
      "посреди": 8326,
      "итоги": 8327,
      "учителя": 8328,
      "конечном": 8329,
      "коридор": 8330,
      "выходу": 8331,
      "проводил": 8332,
      "##хара": 8333,
      "предыдущих": 8334,
      "юби": 8335,
      "сторонников": 8336,
      "кольцо": 8337,
      "тропи": 8338,
      "убедить": 8339,
      "перемен": 8340,
      "перестал": 8341,
      "1958": 8342,
      "площадью": 8343,
      "2020": 8344,
      "112": 8345,
      "товарища": 8346,
      "звучит": 8347,
      "110": 8348,
      "##pe": 8349,
      "словах": 8350,
      "дороже": 8351,
      "##мора": 8352,
      "##анали": 8353,
      "хоккеи": 8354,
      "точка": 8355,
      "молодежи": 8356,
      "врача": 8357,
      "настоящего": 8358,
      "давал": 8359,
      "памятника": 8360,
      "1977": 8361,
      "работо": 8362,
      "отправились": 8363,
      "##стских": 8364,
      "фронте": 8365,
      "сотрудниками": 8366,
      "использовал": 8367,
      "членами": 8368,
      "квартир": 8369,
      "союзников": 8370,
      "премию": 8371,
      "##бла": 8372,
      "стихотвор": 8373,
      "стиль": 8374,
      "собаки": 8375,
      "грам": 8376,
      "##age": 8377,
      "##цин": 8378,
      "желая": 8379,
      "цветы": 8380,
      "##фта": 8381,
      "поэт": 8382,
      "осуществляется": 8383,
      "пальцев": 8384,
      "шагом": 8385,
      "сообщить": 8386,
      "or": 8387,
      "птицы": 8388,
      "1969": 8389,
      "предметы": 8390,
      "многим": 8391,
      "последнем": 8392,
      "годами": 8393,
      "газет": 8394,
      "##ническая": 8395,
      "##тового": 8396,
      "##вель": 8397,
      "конструкции": 8398,
      "pic": 8399,
      "зона": 8400,
      "##динг": 8401,
      "независимо": 8402,
      "гипер": 8403,
      "##тет": 8404,
      "незначи": 8405,
      "шле": 8406,
      "выглядеть": 8407,
      "несколькими": 8408,
      "ряды": 8409,
      "91": 8410,
      "промы": 8411,
      "писателя": 8412,
      "планах": 8413,
      "##ish": 8414,
      "любых": 8415,
      "1957": 8416,
      "выступили": 8417,
      "призем": 8418,
      "щел": 8419,
      "спортсменов": 8420,
      "бирже": 8421,
      "конкретно": 8422,
      "##ьян": 8423,
      "небольшие": 8424,
      "движением": 8425,
      "иные": 8426,
      "бокс": 8427,
      "исследование": 8428,
      "дабы": 8429,
      "стремя": 8430,
      "хлеба": 8431,
      "своеобраз": 8432,
      "оказать": 8433,
      "принцип": 8434,
      "общая": 8435,
      "выросли": 8436,
      "##вающая": 8437,
      "##вара": 8438,
      "горло": 8439,
      "двигатель": 8440,
      "фунтов": 8441,
      "коротко": 8442,
      "побу": 8443,
      "выве": 8444,
      "##ваи": 8445,
      "предлагают": 8446,
      "правам": 8447,
      "ходил": 8448,
      "хор": 8449,
      "##мп": 8450,
      "инцидент": 8451,
      "каран": 8452,
      "поде": 8453,
      "удивительно": 8454,
      "специфи": 8455,
      "##uc": 8456,
      "##ились": 8457,
      "коллег": 8458,
      "судьбу": 8459,
      "случая": 8460,
      "инициативе": 8461,
      "площадки": 8462,
      "аж": 8463,
      "##ровало": 8464,
      "лидером": 8465,
      "переговорах": 8466,
      "##шева": 8467,
      "используя": 8468,
      "повреждения": 8469,
      "лез": 8470,
      "##циан": 8471,
      "##ood": 8472,
      "болезнь": 8473,
      "упла": 8474,
      "интересах": 8475,
      "утрен": 8476,
      "надежду": 8477,
      "сельсовета": 8478,
      "игроком": 8479,
      "экипаж": 8480,
      "единственная": 8481,
      "соответствующие": 8482,
      "рубль": 8483,
      "закрыть": 8484,
      "независимость": 8485,
      "клубов": 8486,
      "обратились": 8487,
      "##шников": 8488,
      "неба": 8489,
      "политиков": 8490,
      "специальных": 8491,
      "гара": 8492,
      "властью": 8493,
      "использовании": 8494,
      "известные": 8495,
      "##кия": 8496,
      "вызвало": 8497,
      "##дир": 8498,
      "##зона": 8499,
      "управлении": 8500,
      "островов": 8501,
      "отнес": 8502,
      "заменить": 8503,
      "##жер": 8504,
      "##лока": 8505,
      "ногах": 8506,
      "##бля": 8507,
      "обнаружены": 8508,
      "выполнение": 8509,
      "1954": 8510,
      "поиски": 8511,
      "подавля": 8512,
      "##еров": 8513,
      "выплаты": 8514,
      "обуслов": 8515,
      "почет": 8516,
      "изя": 8517,
      "рубежом": 8518,
      "пятнадцать": 8519,
      "организма": 8520,
      "новыми": 8521,
      "встречается": 8522,
      "with": 8523,
      "##ами": 8524,
      "торговых": 8525,
      "высоким": 8526,
      "матерью": 8527,
      "94": 8528,
      "гражданина": 8529,
      "изображение": 8530,
      "##лі": 8531,
      "волю": 8532,
      "вырази": 8533,
      "извести": 8534,
      "##енов": 8535,
      "недолго": 8536,
      "закрыл": 8537,
      "##ah": 8538,
      "неправильно": 8539,
      "прошлое": 8540,
      "имеем": 8541,
      "волна": 8542,
      "нападение": 8543,
      "черного": 8544,
      "фильмы": 8545,
      "парни": 8546,
      "обязаны": 8547,
      "груз": 8548,
      "реакция": 8549,
      "находилось": 8550,
      "##инг": 8551,
      "позволил": 8552,
      "волости": 8553,
      "колони": 8554,
      "поддержка": 8555,
      "тень": 8556,
      "попытку": 8557,
      "откровенно": 8558,
      "проходи": 8559,
      "##стое": 8560,
      "##унд": 8561,
      "1921": 8562,
      "низко": 8563,
      "трол": 8564,
      "проекте": 8565,
      "##рении": 8566,
      "второ": 8567,
      "корпорации": 8568,
      "устав": 8569,
      "##уме": 8570,
      "определя": 8571,
      "##маном": 8572,
      "проходя": 8573,
      "винтов": 8574,
      "оценить": 8575,
      "ужаса": 8576,
      "распространение": 8577,
      "чувствует": 8578,
      "разговоры": 8579,
      "##зав": 8580,
      "##сенко": 8581,
      "опытом": 8582,
      "возвращается": 8583,
      "1935": 8584,
      "##зра": 8585,
      "океана": 8586,
      "среде": 8587,
      "официальных": 8588,
      "1922": 8589,
      "долгосро": 8590,
      "языков": 8591,
      "деньгами": 8592,
      "знакомых": 8593,
      "решено": 8594,
      "замка": 8595,
      "##нову": 8596,
      "победить": 8597,
      "##нио": 8598,
      "лаборатории": 8599,
      "поэта": 8600,
      "##трин": 8601,
      "человеческого": 8602,
      "таба": 8603,
      "демократии": 8604,
      "ослож": 8605,
      "##сели": 8606,
      "призыва": 8607,
      "доклад": 8608,
      "правительству": 8609,
      "вызвали": 8610,
      "заместителем": 8611,
      "##щенного": 8612,
      "объясняет": 8613,
      "крем": 8614,
      "наружу": 8615,
      "показывают": 8616,
      "рен": 8617,
      "воспоминания": 8618,
      "поступило": 8619,
      "клавиатуры": 8620,
      "вопросе": 8621,
      "администрация": 8622,
      "телевизион": 8623,
      "появляются": 8624,
      "хит": 8625,
      "давали": 8626,
      "##oom": 8627,
      "##руем": 8628,
      "джи": 8629,
      "##тическом": 8630,
      "согласия": 8631,
      "лошадь": 8632,
      "согласилась": 8633,
      "выиграть": 8634,
      "присутствии": 8635,
      "чт": 8636,
      "##ненных": 8637,
      "средство": 8638,
      "кожу": 8639,
      "полагает": 8640,
      "авторитет": 8641,
      "вскры": 8642,
      "туре": 8643,
      "направил": 8644,
      "оперативно": 8645,
      "артиллерии": 8646,
      "обратилась": 8647,
      "литов": 8648,
      "кнопки": 8649,
      "белого": 8650,
      "дешевле": 8651,
      "сильным": 8652,
      "приведет": 8653,
      "data": 8654,
      "режиссер": 8655,
      "отби": 8656,
      "участков": 8657,
      "послал": 8658,
      "местами": 8659,
      "жилых": 8660,
      "##вающего": 8661,
      "сектор": 8662,
      "русским": 8663,
      "##еном": 8664,
      "продавать": 8665,
      "любая": 8666,
      "русско": 8667,
      "экономику": 8668,
      "романа": 8669,
      "выбрал": 8670,
      "сахар": 8671,
      "написала": 8672,
      "совершить": 8673,
      "наем": 8674,
      "побережье": 8675,
      "##рян": 8676,
      "занимались": 8677,
      "несомненно": 8678,
      "грави": 8679,
      "огла": 8680,
      "палец": 8681,
      "двора": 8682,
      "##сис": 8683,
      "экономические": 8684,
      "##ime": 8685,
      "##ach": 8686,
      "автором": 8687,
      "пропаганди": 8688,
      "активов": 8689,
      "##pt": 8690,
      "устроить": 8691,
      "##вак": 8692,
      "##15": 8693,
      "крылья": 8694,
      "##меи": 8695,
      "##тельны": 8696,
      "консо": 8697,
      "продолжали": 8698,
      "объема": 8699,
      "встречаются": 8700,
      "изучения": 8701,
      "смяг": 8702,
      "эс": 8703,
      "иннова": 8704,
      "связыва": 8705,
      "религии": 8706,
      "благоприят": 8707,
      "клетки": 8708,
      "1947": 8709,
      "##ark": 8710,
      "##шни": 8711,
      "дождя": 8712,
      "вариантов": 8713,
      "дивизия": 8714,
      "государственные": 8715,
      "##сном": 8716,
      "столицу": 8717,
      "умереть": 8718,
      "расширя": 8719,
      "прогноз": 8720,
      "заявлял": 8721,
      "##щегося": 8722,
      "слову": 8723,
      "озеро": 8724,
      "##вика": 8725,
      "сотрудника": 8726,
      "последняя": 8727,
      "исполня": 8728,
      "##илась": 8729,
      "духа": 8730,
      "заняли": 8731,
      "посольства": 8732,
      "позволило": 8733,
      "восстановления": 8734,
      "обстоятельствах": 8735,
      "быстры": 8736,
      "оценил": 8737,
      "сете": 8738,
      "1924": 8739,
      "родину": 8740,
      "##berg": 8741,
      "текста": 8742,
      "подать": 8743,
      "монастырь": 8744,
      "командование": 8745,
      "мусор": 8746,
      "мужем": 8747,
      "имело": 8748,
      "##тис": 8749,
      "чечен": 8750,
      "1926": 8751,
      "тяжелые": 8752,
      "##act": 8753,
      "окрестно": 8754,
      "убежден": 8755,
      "решении": 8756,
      "замен": 8757,
      "публику": 8758,
      "##энерго": 8759,
      "сильные": 8760,
      "прохо": 8761,
      "исторических": 8762,
      "получение": 8763,
      "посредством": 8764,
      "ввиду": 8765,
      "норве": 8766,
      "еды": 8767,
      "начальником": 8768,
      "1953": 8769,
      "снега": 8770,
      "командованием": 8771,
      "140": 8772,
      "проли": 8773,
      "документе": 8774,
      "печати": 8775,
      "следом": 8776,
      "свидетельствует": 8777,
      "технических": 8778,
      "фамилии": 8779,
      "изменя": 8780,
      "жене": 8781,
      "прокурор": 8782,
      "as": 8783,
      "возвращаться": 8784,
      "математиче": 8785,
      "большом": 8786,
      "постановление": 8787,
      "1914": 8788,
      "изменение": 8789,
      "населенных": 8790,
      "флан": 8791,
      "кухне": 8792,
      "захват": 8793,
      "длина": 8794,
      "терми": 8795,
      "взгляда": 8796,
      "упразд": 8797,
      "наряду": 8798,
      "возглавлял": 8799,
      "распа": 8800,
      "##рующих": 8801,
      "1949": 8802,
      "надежда": 8803,
      "##дара": 8804,
      "предложила": 8805,
      "инструмента": 8806,
      "оценкам": 8807,
      "сельсовет": 8808,
      "хитро": 8809,
      "##нному": 8810,
      "оценке": 8811,
      "реальность": 8812,
      "велел": 8813,
      "##ллы": 8814,
      "##стную": 8815,
      "американская": 8816,
      "##сите": 8817,
      "аги": 8818,
      "международным": 8819,
      "дебютировал": 8820,
      "1933": 8821,
      "определенные": 8822,
      "взрослых": 8823,
      "##ъю": 8824,
      "разным": 8825,
      "настоящая": 8826,
      "свидетельствуют": 8827,
      "##риса": 8828,
      "республике": 8829,
      "соревнованиях": 8830,
      "техника": 8831,
      "партнеров": 8832,
      "звания": 8833,
      "ударом": 8834,
      "прон": 8835,
      "фини": 8836,
      "рыно": 8837,
      "сержант": 8838,
      "тупо": 8839,
      "собирались": 8840,
      "полная": 8841,
      "ухода": 8842,
      "военное": 8843,
      "##ального": 8844,
      "масси": 8845,
      "воевать": 8846,
      "фундамента": 8847,
      "началу": 8848,
      "тысячу": 8849,
      "##лта": 8850,
      "супруга": 8851,
      "силе": 8852,
      "##емыми": 8853,
      "австра": 8854,
      "служит": 8855,
      "##женными": 8856,
      "понимая": 8857,
      "внутреннего": 8858,
      "сериала": 8859,
      "склон": 8860,
      "штате": 8861,
      "одинаково": 8862,
      "высшего": 8863,
      "идио": 8864,
      "квадратных": 8865,
      "ведомство": 8866,
      "близких": 8867,
      "решет": 8868,
      "вызов": 8869,
      "самыми": 8870,
      "##графия": 8871,
      "хар": 8872,
      "моменту": 8873,
      "южно": 8874,
      "бабушка": 8875,
      "жителя": 8876,
      "разведыва": 8877,
      "удавалось": 8878,
      "1934": 8879,
      "дворца": 8880,
      "ножом": 8881,
      "сжа": 8882,
      "финансирование": 8883,
      "любовью": 8884,
      "делах": 8885,
      "следующих": 8886,
      "продолжение": 8887,
      "собрание": 8888,
      "финансовые": 8889,
      "советник": 8890,
      "автоматически": 8891,
      "берет": 8892,
      "##леров": 8893,
      "совокуп": 8894,
      "дата": 8895,
      "декора": 8896,
      "самоо": 8897,
      "юг": 8898,
      "##ых": 8899,
      "оценку": 8900,
      "визит": 8901,
      "судьи": 8902,
      "крик": 8903,
      "осад": 8904,
      "##ката": 8905,
      "индекс": 8906,
      "владения": 8907,
      "масла": 8908,
      "##ьо": 8909,
      "потеряла": 8910,
      "долл": 8911,
      "микрофон": 8912,
      "советские": 8913,
      "оранже": 8914,
      "указ": 8915,
      "носить": 8916,
      "составить": 8917,
      "##ровых": 8918,
      "рабочего": 8919,
      "##летнего": 8920,
      "ведется": 8921,
      "лучшее": 8922,
      "##нько": 8923,
      "отчего": 8924,
      "нар": 8925,
      "древних": 8926,
      "мари": 8927,
      "отступа": 8928,
      "больных": 8929,
      "редактор": 8930,
      "заказа": 8931,
      "нежела": 8932,
      "литературе": 8933,
      "##ющаяся": 8934,
      "вывести": 8935,
      "урав": 8936,
      "##oll": 8937,
      "технического": 8938,
      "доказательств": 8939,
      "ряду": 8940,
      "камня": 8941,
      "отсе": 8942,
      "поддержал": 8943,
      "##дт": 8944,
      "устран": 8945,
      "поиска": 8946,
      "правя": 8947,
      "максимум": 8948,
      "египет": 8949,
      "дольше": 8950,
      "стрелять": 8951,
      "хорошим": 8952,
      "проводятся": 8953,
      "собака": 8954,
      "фре": 8955,
      "встреч": 8956,
      "изменилось": 8957,
      "намерения": 8958,
      "клубом": 8959,
      "##ka": 8960,
      "африкан": 8961,
      "высота": 8962,
      "##тическую": 8963,
      "заи": 8964,
      "термин": 8965,
      "массу": 8966,
      "минус": 8967,
      "легендар": 8968,
      "считая": 8969,
      "введения": 8970,
      "угля": 8971,
      "##19": 8972,
      "##менко": 8973,
      "##ас": 8974,
      "##ult": 8975,
      "привела": 8976,
      "подняться": 8977,
      "данному": 8978,
      "##ator": 8979,
      "тепла": 8980,
      "санти": 8981,
      "##физи": 8982,
      "наступления": 8983,
      "своя": 8984,
      "дар": 8985,
      "мастера": 8986,
      "высоком": 8987,
      "рыбы": 8988,
      "зажи": 8989,
      "вреда": 8990,
      "##рад": 8991,
      "ареста": 8992,
      "##ina": 8993,
      "жителям": 8994,
      "большее": 8995,
      "##емость": 8996,
      "социального": 8997,
      "##мали": 8998,
      "иного": 8999,
      "паспорт": 9000,
      "учеников": 9001,
      "пиво": 9002,
      "попытке": 9003,
      "черных": 9004,
      "контролировать": 9005,
      "владелец": 9006,
      "you": 9007,
      "##мата": 9008,
      "месяцы": 9009,
      "символ": 9010,
      "вдвое": 9011,
      "участки": 9012,
      "промо": 9013,
      "магазине": 9014,
      "заряд": 9015,
      "##спект": 9016,
      "провода": 9017,
      "выставки": 9018,
      "выпа": 9019,
      "##вшемся": 9020,
      "##хия": 9021,
      "непрерыв": 9022,
      "собрал": 9023,
      "##14": 9024,
      "юноше": 9025,
      "гнев": 9026,
      "пота": 9027,
      "дискуссии": 9028,
      "отправили": 9029,
      "сельское": 9030,
      "домом": 9031,
      "морского": 9032,
      "##мато": 9033,
      "##стными": 9034,
      "статуса": 9035,
      "форм": 9036,
      "поре": 9037,
      "176": 9038,
      "приобрести": 9039,
      "визу": 9040,
      "недвижимости": 9041,
      "##ченную": 9042,
      "поселка": 9043,
      "##рив": 9044,
      "обладают": 9045,
      "карьере": 9046,
      "разработке": 9047,
      "меняется": 9048,
      "##кана": 9049,
      "лодки": 9050,
      "диагности": 9051,
      "фигура": 9052,
      "1923": 9053,
      "##тус": 9054,
      "##нены": 9055,
      "единственное": 9056,
      "полуострова": 9057,
      "падает": 9058,
      "решает": 9059,
      "адресу": 9060,
      "высокая": 9061,
      "##мса": 9062,
      "объеме": 9063,
      "охла": 9064,
      "симпати": 9065,
      "признаки": 9066,
      "любить": 9067,
      "приема": 9068,
      "запрещено": 9069,
      "министерство": 9070,
      "##ано": 9071,
      "1932": 9072,
      "говорилось": 9073,
      "округу": 9074,
      "##тна": 9075,
      "наблюдается": 9076,
      "бь": 9077,
      "##ide": 9078,
      "##ньо": 9079,
      "стоян": 9080,
      "известна": 9081,
      "полковника": 9082,
      "цвето": 9083,
      "коня": 9084,
      "##гию": 9085,
      "рациона": 9086,
      "показатели": 9087,
      "пригласил": 9088,
      "сферы": 9089,
      "слава": 9090,
      "##ждается": 9091,
      "крест": 9092,
      "##чье": 9093,
      "##pr": 9094,
      "##da": 9095,
      "##енную": 9096,
      "предположительно": 9097,
      "выбран": 9098,
      "диалог": 9099,
      "фантасти": 9100,
      "пенсии": 9101,
      "транспортных": 9102,
      "исполнении": 9103,
[...]
