[PAD]
[UNK]
[CLS]
[SEP]
[MASK]
о
е
а
и
н
т
с
р
л
в
к
м
д
п
у
я
ы
,
г
б
з
.
ч
ж
х
ш
ю
-
ц
щ
э
ф
1
0
2
»
«
"
e
)
9
(
?
:
a
o
5
3
r
i
4
t
n
!
8
—
6
7
s
l
u
d
…
h
c
/
m
;
p
g
–
і
y
%
b
f
k
w
v
_
&
x
]
[
=
z
'
q
№
“
+
$
>
°
*
”
#
j
<
„
’
@
|
−
•
→
€
}
{
·
\
±
~
×
‘
α
†
^
£
`
§
―
‰
##о
##е
##а
##и
##н
##т
##с
##р
##л
##в
##к
##м
##д
##п
##у
##я
##ы
##г
##ь
##б
##з
##ч
##ж
##х
##ш
##ю
##ц
##щ
##э
##ф
##1
##0
##2
##e
##9
##a
##o
##5
##3
##r
##i
##4
##t
##n
##8
##6
##7
##s
##l
##u
##ъ
##d
##h
##c
##m
##p
##g
##і
##y
##b
##f
##k
##w
##v
##x
##z
##q
##°
##j
##−
##²
##ѣ
##×
##ł
##³
##½
##то
##ен
##ст
##ра
##ко
##но
##ро
##го
по
##ре
##ли
##ка
##ни
##ет
на
##ва
##ла
##ри
##ль
##ло
##та
##ны
##за
##на
##те
##во
не
##ть
##ер
##да
##ки
##ся
##ле
##ени
##ти
за
ко
##ми
##ви
##ру
##ем
##ди
про
со
ра
##не
##де
что
##ля
го
то
##ци
##ма
##сь
от
##до
##ско
во
##же
##ве
##мо
бы
до
ка
##хо
при
##бо
##по
##си
##ста
##ча
##ну
##сти
##чи
##че
об
##се
##ры
##ду
вы
мо
##ски
##ши
##сто
##лу
##жи
##ку
из
это
та
пре
##па
##ме
##га
##ере
##со
ре
те
##ения
##ного
##ных
##тель
но
##ги
##вы
##сть
##са
##щи
##ше
##му
##ня
##ря
##жа
##пи
##лю
бо
##ще
##ные
раз
##ту
##мен
под
##ение
##ств
ма
кото
ни
##лся
##ты
##ют
все
##зи
##вер
##би
де
как
##зо
##ется
ме
да
##лен
ста
сво
##сси
се
он
##пе
ли
са
##об
##сле
##ции
##ство
##це
ми
его
пере
##ар
##ке
##бы
ст
##ша
##ров
##бе
##ным
##ться
бу
так
хо
##ды
ве
##нов
##ния
##жно
си
##гда
##су
20
##ба
##ков
##он
же
##лько
##вет
рас
бе
##мы
##рова
##ска
##пу
##ского
##ная
##ное
##ор
пред
##про
для
##ща
##ран
##ак
19
ру
ро
##лы
##ень
##гу
которы
##ние
##лет
##дет
сто
##лись
##зы
##жен
##ном
##ха
су
##ца
кон
##кра
##ства
года
##рав
ин
ви
##лась
##тов
##гра
##ву
##лось
воз
##ан
##мя
##тся
па
##сли
##ден
че
жи
ва
од
дру
было
был
##бу
##тив
##вать
##зу
зна
##сту
##ром
##ности
##став
##фи
лю
##ских
##ную
##ком
ча
##аль
##тя
##нима
пра
##она
##ющи
##мер
##том
##шь
##ск
после
ком
##зна
боль
##нии
дол
##жет
##чно
пер
мы
##вши
ты
##цен
слу
рабо
##дь
##дер
##ении
мен
201
##ность
она
##вя
ку
сло
уже
только
или
гла
##ин
их
##дя
##сы
##ция
##ник
году
стра
полу
пу
##вал
прои
##мет
##дин
ле
##сте
##ления
##пре
они
##бя
##гла
ту
##ман
челове
##лек
##пы
сказа
##чен
ее
##пер
##ев
му
##род
##кры
чем
##тра
время
чтобы
обра
##ными
этом
будет
##рен
##ские
пи
меня
еще
ос
само
ди
##рии
фи
##ника
##ек
##ству
##стра
когда
##при
ав
были
пла
##цы
лет
##лее
##ются
##дар
##тельно
##вали
##нее
##тор
##мот
##лов
ду
##ге
##тер
##бли
##дела
##вля
оста
##ред
##нь
##руп
была
##ская
свои
##стро
ис
может
также
если
##вая
ба
вер
##жу
##тиче
сле
##дом
эти
##нд
##ению
того
чи
оч
##шен
##ление
мне
##00
пол
##рга
##льно
вс
##нова
##кон
##хи
том
##мени
##ском
##фор
есть
которые
##вых
тре
##er
поли
##дов
##шо
##вые
##три
пе
##вает
##зова
спо
##ез
гра
##ета
##рь
##сла
##пра
кра
##сс
##нул
##жд
##дова
голо
##цию
##пол
##ят
без
поч
где
пар
ок
##дно
##вно
цен
##рта
этого
##чь
##ением
##ких
обла
##вед
ак
уча
##бра
ну
ки
нет
##сты
очень
даже
##ил
более
##ников
##кие
##теля
помо
##вого
##кую
##кого
дела
##ете
чу
##сов
тем
быть
ар
##тро
им
##вро
##лом
тер
ему
##кан
име
##цо
##сно
обо
буду
##циаль
##чу
18
нас
##ники
##ене
авто
себя
можно
##тия
##час
пос
##зда
сказал
##ью
200
це
##логи
##ена
##рт
росси
га
##кто
##цу
исто
ско
подо
##лли
дан
##клю
##цион
него
##сло
человек
эк
##стве
горо
жен
##шу
##шел
##его
##шего
##жения
пока
вла
##жение
##тели
между
слова
тех
просто
##вест
##писа
прави
##ках
##дол
##ит
них
##in
##нови
##ками
##гово
там
кто
работа
##ским
##тери
лу
поло
##фе
##дел
##an
##тно
##тере
ла
##чего
##шения
сов
##нг
ответ
##ван
день
##енно
##емы
которо
##ким
больше
##зя
##менно
##нк
много
##цев
один
10
явля
спе
##пера
##кла
##ское
два
ло
##зе
##бор
##дели
##пла
##шение
##кое
этот
уда
##льта
сер
##ья
##держа
против
могу
##али
##нет
послед
##ять
##яс
дет
##емо
##сса
пло
созда
иг
##on
##мери
##вод
##ут
##вым
##кая
органи
##вое
компа
##ним
##щен
##стя
над
##мента
вот
##ших
##рия
чет
##пас
##рон
##щего
всего
всех
##ряд
счита
##торы
ша
тру
##тре
друго
хоро
##чение
##оне
##чения
##лага
вос
несколько
через
##or
би
три
##тан
##форма
##чет
##нут
15
обе
##кре
ти
##вра
##яв
##мент
##льного
мог
##лем
руб
##тру
продол
##лн
доро
себе
##стер
##рован
##en
дву
##ешь
##рак
возможно
##вом
##нию
##тин
кор
##нес
соб
##чем
фор
##от
##шли
мини
гу
##нец
##вала
луч
##ющих
находи
##мина
##скую
##тен
##лин
стро
##ход
##бер
сем
ры
##вар
##рито
сред
области
тоже
высо
##чина
##стов
##щу
##ar
##льных
##ген
теле
состоя
кар
дви
переда
кри
дума
свою
ад
##ню
самы
глав
стал
перед
сы
##ссо
##вания
12
##циона
ничего
##рабо
##щее
##нен
надо
##шло
##ниче
оказа
##лия
##коло
укра
зем
наз
##нем
нем
место
##ети
воен
извест
##жал
террито
##he
##вор
будут
##им
которая
##ному
уби
ше
##ровать
##ством
смо
##ющие
##шая
следу
здесь
##вич
##тем
тут
моло
коро
##сом
##дера
тра
##туа
##лез
руко
##нер
##нием
##es
##вели
информа
глаза
##воз
##твер
##ностью
бли
##лан
нам
##al
потом
##at
17
##него
##раз
тебя
##пло
199
##ссе
обще
##пад
эта
заявил
показа
##зации
кла
которых
##нуть
##роме
кре
мно
лишь
пы
##ях
муж
##бле
спи
дело
##льные
экономи
вас
##них
неко
##чки
##зом
##ян
является
теперь
реги
##шки
##нали
бра
11
жизни
##чных
##вают
потому
год
##хра
мат
бан
##зан
##лено
прав
разви
##гов
сообщает
2015
##бро
сам
##сков
##вание
чер
сего
сра
##тки
тот
##шка
##зд
##мни
##стью
##щения
хотя
дома
благо
##фо
16
##жден
##щая
тя
ха
##фа
матери
нау
гру
города
##вается
сегодня
вам
успе
##ждения
тор
##ено
##тии
##ственно
право
##чер
##ваться
##еха
ним
##рд
ска
вра
оп
##ье
вне
уни
##вин
около
##вших
занима
ог
ря
##шие
кол
своих
##рук
##дель
обы
человека
##it
##вари
ника
двух
могут
фа
##хов
мест
почти
дере
чего
рус
времени
##вую
поль
сен
город
##ган
игра
значи
##ческих
##кт
милли
управ
ситуа
тогда
бро
нужно
пря
настоя
##лены
жу
украин
##рую
уго
##кло
2014
фо
ули
194
##сит
##om
тебе
защи
американ
##сем
страны
14
насе
##ерт
30
##чные
##стан
стороны
##ru
##ху
##ток
именно
словам
стре
зо
всегда
##мини
опера
спа
##тора
ри
##личе
##тить
своего
комп
случае
##тур
люди
##бур
глу
13
##вшись
##из
##туры
##мии
других
ху
основ
##обра
даль
жа
части
стран
##щение
##рах
##рю
##мов
##шим
которого
смер
##вле
##ема
##чка
ци
##щих
##блю
##тил
совет
##вался
недо
произо
пода
##вери
ши
##сут
сту
нико
##щем
##кова
##ческого
меся
##виа
##гре
##ствия
вся
язы
мира
##тие
нее
пор
буд
##le
ги
25
коми
##ствие
ан
стать
отли
попа
деся
##re
нео
экс
##рио
##рок
##нами
вместе
ино
##скому
##чного
уг
##кам
кни
клу
одно
жизнь
этих
##st
пыта
ян
должно
##ic
##жать
виде
должен
##чить
дер
##бре
##ствует
##тельство
должны
##чил
неза
ге
иск
любо
нибудь
##ница
момент
##скими
ведь
жур
##кро
роди
##вшего
##ot
##лена
способ
##вшие
сразу
тысяч
большо
вели
##тами
##нах
рассказа
нару
##имо
##ору
часть
закон
вопрос
##еры
##лении
дея
мн
круп
##дви
сте
мене
##ясь
наде
##тера
##ске
##шин
##кси
лег
##того
интер
мар
непо
евро
вообще
сла
##онов
конце
преж
свет
собствен
почему
чемпиона
снова
хорошо
компании
выра
либо
##дии
сви
##воль
уч
##дут
окру
##вел
строи
ради
##ены
данным
##чал
территории
##фф
составля
##пере
##рию
пле
мя
работы
появи
образом
всем
однако
некоторы
##кти
полити
жела
##шее
##рев
сбор
сме
гор
одного
##кс
ус
осо
##дра
эту
##ницы
власти
обна
##лии
весь
##рует
ново
сли
##лки
пресс
##ou
##шую
##графи
кру
##ссии
стало
назад
##ведения
конечно
мет
##бри
##шем
##мом
никогда
числе
восто
знаю
уста
места
198
связи
##тически
##лик
##тон
##рами
##шении
част
##тных
этим
образова
доку
дека
сти
сказать
##чин
##рин
##ником
люби
##лья
тро
совершен
шта
млн
нор
бере
совсем
учи
изда
##ляр
решение
сентября
##мена
иде
##готов
официаль
политиче
конф
##жении
##стр
##ющим
##боль
##зии
посе
называ
##ющего
##чку
неу
фе
##дил
##цов
продолжа
лучше
##рам
среди
стали
граждан
##is
мир
противо
стоя
##дит
##доро
##тр
деятель
одна
увер
##ческие
##ac
##там
сделать
##телем
необходимо
##лла
попы
стар
##нно
результате
стан
##лого
##ровал
##слен
уди
собира
сообщил
##рот
окон
тяже
##нить
писа
##щие
пози
такое
##ску
##или
##точно
разме
четыре
##ственного
разли
деле
##их
тому
дня
тол
месте
другие
##лета
##нице
##нал
основа
##пом
куль
свое
##раб
своим
##вен
зако
22
##над
род
затем
осу
##нения
менее
##тура
##ристи
21
пя
##ить
фу
##лит
две
повер
кры
пример
представля
кур
бес
км
##ель
##ила
сни
скоро
администра
196
193
00
фото
##зов
##вались
которое
принима
197
состав
таки
##мыш
##льное
##рит
руки
имеет
##чены
##el
говорит
##тах
##циа
24
##стри
##кус
неме
такие
организа
рез
##лок
быстро
##нок
##льная
прин
удо
октября
делать
международ
##пада
##дук
поме
кажды
сами
##ум
котором
##ева
100
##чат
авиа
каза
мая
стала
сказала
##ter
##шно
производ
##льным
деву
##ницу
стол
установ
газ
##жем
самом
##il
##ствовать
начала
президент
говоря
исследова
долго
кос
##пли
мень
никто
##тых
января
лицо
ито
пора
куда
ор
находится
бю
##част
уж
мол
памя
проводи
##сен
##as
которую
##тые
ск
вд
##am
бри
##ждение
тур
вол
##зма
аль
##тар
музы
отметил
региона
таких
народ
##еру
февраля
##ствии
президента
друг
##тина
##ствовал
кли
измен
##рения
##так
центра
##нт
##ленно
##нам
##дро
августа
##лами
поэтому
##дал
живо
неф
специаль
23
пара
##жных
##рования
##сил
##еди
получил
стоит
слишком
##рее
##точ
##щую
ды
##тал
##нка
деньги
например
группы
хи
социаль
50
##стно
192
коло
##вид
##лев
195
##et
меди
##каз
##нди
##нил
##ed
марта
равно
##лл
июля
##чие
##еты
##лда
пять
##вало
##тая
##док
##щении
##id
годы
мл
ночь
наи
миро
##ol
суд
мало
##роде
##чает
сель
сум
фран
##нин
##жо
##ьер
прямо
участие
##сили
##тельных
##тать
##выми
##няя
##нять
##ing
##лые
рядом
##лых
##лением
двер
отказа
кро
мире
столи
заме
191
ноября
##чо
относи
##бин
сю
четвер
##шед
свер
часто
пово
гро
треть
един
вок
июня
руководи
кого
##таль
##чная
удалось
прошло
качестве
работу
ссы
##езд
##чным
##хе
спросил
##ственных
##пара
апреля
какие
млрд
реб
борь
электро
этому
выс
тон
##цами
##слав
##чик
##oo
современ
тыс
##чая
голову
наро
##лять
26
оно
##кви
мед
смы
таким
хва
поте
чуть
##us
поддерж
малень
сама
##риан
##тельные
огром
секре
##вок
безопасности
##сед
##гии
сторону
агент
игро
плани
##зм
##бург
##гом
точно
##лина
ранее
права
сере
##жит
немного
##ляет
##тельного
27
минут
##шет
##нев
##qu
достаточно
выступа
28
оте
##стом
глава
золо
мор
ходе
городе
##кин
##чит
вид
##лова
универ
неиз
должна
истории
декабря
цер
серьез
пси
воло
государства
всю
2016
##пози
##дали
гре
##сок
возможность
##рко
##нных
##сон
течение
дене
##лка
##лим
вдруг
совершенно
трен
##жил
поз
##ями
передает
могли
##шку
##лег
губер
организации
семь
##ro
публи
начал
##пор
известно
ото
внутрен
указа
сим
анти
##чное
##гру
##эро
##un
дра
фон
руку
##ваются
идет
готов
##валась
биз
особенно
##нала
##нные
началь
рам
##дили
##зь
40
анг
##никами
све
находя
##дия
вну
будто
своем
##били
расположен
начале
погиб
вет
##гам
беспо
##нув
истори
##нав
холо
такого
норма
долларов
ныне
##ваю
ответил
##еме
##чески
##ровали
##жные
физи
друга
##мости
контра
##ществ
иностран
близ
трех
нес
тан
отра
##тка
пользова
##ad
одним
реали
оконча
дом
диа
словно
оби
говорится
##валось
постро
партии
##вода
##гли
##ологи
##рем
обу
полностью
запад
самого
населения
времен
часов
информации
след
счет
внеш
ними
##нику
верси
##тные
приз
хоть
потеря
системы
встреча
##гами
давно
шо
непри
##риа
армии
вокруг
##лью
значит
##рил
которым
сил
стране
2013
##стати
##ям
нельзя
##ion
##тили
com
пои
уголов
##рес
рак
29
##бом
the
##лению
паль
запи
##кими
говорить
##эн
##рое
суб
кажется
искус
отношения
##кура
команды
двига
##хом
##рина
хотел
поскольку
кроме
смерти
##ниц
##and
санк
##новь
##рос
##льном
работ
подготов
##шему
скры
очередь
оде
аб
##роб
рассказал
##еть
составе
дальше
наши
##тельным
мнению
аре
вече
тр
частности
кино
##телями
содержа
внимание
##ленных
допол
##лог
##гие
влия
##щим
##фон
поле
##нского
выше
##шенко
##стями
тек
ал
рамках
##фика
бюджет
вполне
##ig
##доров
хочу
силы
##эр
меньше
пят
период
отношении
упа
##зор
##жали
##ствуют
##ческая
##жением
##жного
говорил
попу
##ющее
министр
##емых
сцен
##рик
##кар
##зер
вновь
протя
##дж
##мах
##стру
количество
ап
видео
сделал
интерес
века
мета
помощи
каса
##im
##хран
ост
##град
многие
степ
qu
нового
##ющая
комит
неде
отсут
сколько
##рец
знал
мощ
федера
##пов
##la
компания
ситуации
##гер
##чном
##мон
раньше
работать
правительства
##тного
##ента
##вшая
имени
архи
##тым
управления
оди
последние
добро
уче
##лях
##торов
##лко
превра
развития
31
кам
группа
настоящее
сре
конца
##цем
##форми
##енси
умер
##они
прежде
думаю
нему
##дки
ум
##чено
желез
пес
считает
##юза
ата
уверен
зло
##телям
##бов
##мень
##сона
кило
туда
лица
##дина
##тник
уме
##льную
##ственные
##ch
понял
француз
##руется
маль
##чную
сильно
бло
проте
легко
реки
выда
##тельное
взгляд
сна
##вили
ква
демо
сокра
самых
##руют
составляет
существо
видел
сом
могла
2012
сообщили
##нили
совме
##сер
первых
самое
технологи
службы
##ent
каждо
##нке
решил
пропа
##ленные
бога
выи
одну
##лье
##лад
кня
новые
боя
##нки
имя
мага
опять
тради
пишет
такая
довольно
дверь
##сам
пути
##мар
##лот
##мые
##ква
мере
##лам
следует
плохо
иска
2010
##гры
новых
помощью
игры
##ведение
полно
##нюю
ще
##вшим
поро
##мых
##бил
##рту
наконец
прод
план
произошло
##мира
годах
голос
##ir
##нение
##матиче
первого
##рование
зе
наших
##ваясь
##дами
##шта
знает
заседа
практически
##шению
впервые
чемпионата
##рез
##фици
##нного
ид
средства
посте
##рус
##чек
очеред
возник
станет
поста
пяти
прос
##раи
некоторые
гер
своими
объяс
##сю
канди
##сами
крас
реко
зам
##ат
пришлось
проблемы
скорее
наш
происходит
##печат
воды
мас
отправ
разо
мето
##дор
##никам
мона
одном
миллионов
роль
наблюда
хочет
решения
дав
правда
##дко
нена
многих
##дах
##ra
глубо
военно
##лле
##вича
##гах
анали
60
примерно
геро
аэро
##ченко
премьер
##мана
##тья
##шил
спор
##ew
низ
зави
замести
##сур
##цам
##зем
клю
##дан
пост
матча
самым
тю
ката
##лах
##пар
##стях
деятельности
арми
помощь
движения
##тит
ль
##ун
дли
2011
##лер
инф
##два
##гна
##бора
тело
оцен
35
дел
ана
##ческое
улице
вышел
бума
силу
парт
важно
полиции
##ственным
техниче
##ванием
краси
обычно
женщина
средств
пользу
связан
##вов
являются
##дам
меха
денег
##зил
гос
##лая
трав
проб
##дения
##чета
лично
##няет
уси
##гно
добавил
независи
вместо
чита
##тики
будем
говорят
##слов
нескольких
возможности
речь
##менти
##чении
получить
мои
##сах
форма
of
бар
##ческим
радио
##тию
выну
другими
##жным
доказа
система
##ственное
##ur
отец
вопросы
##щему
##лети
корре
матче
обеща
##боро
##ровки
сих
функ
начали
прибли
ошиб
сюда
бом
##низ
никаких
##лым
спорт
длин
##тивно
оказался
слово
стара
главы
сне
##думы
правитель
тео
##бло
нач
вроде
нали
##тельная
серд
невозможно
сторон
коллек
##мир
##мор
замеча
годов
массо
промышлен
##тива
меч
##бран
##цер
суде
сообщалось
дево
##пан
##шек
разве
жить
ску
##рева
##гар
##мым
свобод
##емые
понять
##чке
древ
##мин
следова
метров
мысли
##ia
работе
##порт
представитель
разу
клуба
психо
нынеш
чинов
гости
получили
моя
##няется
цвет
состоянии
190
стату
##ляется
несмотря
шу
другим
70
можете
пото
уточ
##сад
служба
корот
мужчина
##дев
##фак
весьма
вперед
москов
##год
##тания
зрения
##ace
приводи
водо
ситуация
позд
утра
типа
раза
##пен
револю
горя
##кри
некоторых
2009
##дри
работает
##оз
##поли
бле
2008
доступ
проект
##нике
колле
суда
##кса
ноги
сложно
##тиви
уз
внутри
эле
доби
пенси
иногда
##чили
фотографи
##гло
##кли
##туру
радо
условиях
другу
центре
45
соба
посла
зу
цели
женщины
первую
держа
благодаря
сот
далеко
кому
название
##тила
посвя
женщин
центр
месяцев
кив
проблема
разных
образ
##туре
моз
наиболее
постоянно
уровне
дополнитель
##ую
##пет
доме
гри
заметил
первом
##гро
бизнес
особо
##тика
безу
##ческую
##лку
север
работал
веду
##тое
##ент
предупре
придется
пару
90
ев
##гут
##жает
обороны
какое
знать
##мую
данные
статисти
##город
##тором
##шке
ран
сможет
дороги
##чности
##ющими
путь
какая
ряд
завтра
глаз
выход
##ссия
информацию
соответству
поверх
клуб
имеют
кори
болез
военных
едва
воро
машины
высоко
награ
увидел
##мая
##чика
##ссы
пору
покупа
тысячи
##бар
##лон
ори
насто
линии
##тона
реак
встречи
число
британ
настро
неве
команду
##чих
##тали
столь
сет
понимаю
ат
##гия
шесть
##чник
##бурге
##писи
каким
##гал
поводу
ока
абсолю
яв
##os
казалось
##фри
яр
##тивных
остро
основном
##ственная
##фу
шан
использовать
in
##ера
торгов
министра
став
коле
##стров
правительство
##ook
эпи
##анта
избира
зачем
кров
поясни
земли
форми
мать
##жели
##чиво
##джи
##ut
##тное
свидетель
##тую
##сток
##щиков
холод
80
события
вынужден
тихо
юри
##рованы
проекта
##мое
ува
демон
союз
покры
##тку
хотелось
программы
мер
re
замо
удар
##ссу
##бурга
первым
ru
транспорт
точки
##ow
бело
макси
конкре
##ov
##стана
руках
принял
мг
пала
лиц
##ционных
##тке
##кому
своему
итоге
возвраща
становится
##ag
##жки
есте
столько
микро
обязан
##20
##жная
##тите
дети
твор
##стам
##ционного
десять
пересе
целом
исчез
кате
любов
сф
операции
см
сначала
##бка
характер
степени
##нина
удоб
которому
инициа
##образ
##вшихся
проблем
##нная
##пру
пом
##обе
##стами
##лил
всему
выступ
нашего
рав
другом
никак
целью
##меня
взял
##поль
нака
##тная
отца
взаимо
директор
моря
##емого
подчеркнул
##фы
##чными
##ствовали
##мос
интервью
путе
практи
принять
##чился
ау
ца
##рица
тела
море
##iv
##ющую
уровня
написал
##леты
цар
##зация
##чена
службе
иначе
комитета
позволя
поля
ниже
сердце
прошлом
добы
##ствием
нарко
##дим
##тным
##дон
##чиков
тен
отре
непре
распростран
##шими
согласно
странице
##тек
играть
худож
вовсе
каких
##ниях
сосед
##ческом
зад
##пно
трудно
##льт
власть
сын
штра
гар
2007
##вии
команда
музыка
##циях
весе
виду
гром
час
слуша
пусть
студен
##нда
вернулся
настолько
вещи
пого
##рет
стен
игру
культуры
подс
гораздо
касается
порядке
##зия
##рение
тепло
пове
смог
сообщении
##чению
общем
школы
видимо
500
самые
иметь
общества
оружия
еже
##доль
36
появля
##тельности
перво
арен
##пел
срок
дать
##нное
нами
##мит
##жены
впечат
откуда
##пил
политики
церков
остав
муниципа
провести
##ана
глазами
выпла
изо
помочь
вести
двор
предвари
##лив
образования
уро
позже
взять
некото
генерал
мыс
300
силь
##ится
##нта
боро
администрации
##em
##тыми
оппози
месяца
дни
##това
##шев
##um
девушка
32
идти
for
сек
дал
десяти
производи
##оте
совета
первые
уровень
двери
##щик
##пки
оружие
земле
одновременно
вечером
##лец
##нению
рода
экспо
##зин
прошлого
гео
мили
производства
имел
брат
##луч
документа
республики
##кали
посмотреть
находятся
инвести
##бок
##джа
представители
##ec
##ні
марш
ua
видно
наверное
оба
спец
моего
позиции
189
##вит
разно
автор
цвета
смерть
##чила
фильм
учены
спорта
другого
##мера
##кер
процесс
##ht
театра
##дио
семьи
##кров
месяц
мяг
большинство
домаш
государство
##ровала
различных
000
##мого
теку
оказалось
##гни
часа
##ченных
иностранных
##кор
думал
заво
оказыва
##женных
##ждении
включая
версии
каждого
##гран
##пя
делу
вами
пти
##ay
учеб
двумя
##сила
матч
тренер
##пись
вечер
одино
честь
друзья
стоял
считают
провин
2006
ракет
явно
недели
and
##хар
лидер
##нос
##тельную
утром
##гети
медленно
опа
форму
##сторон
данных
##форм
момента
роли
2000
##чики
##oc
##нным
##гая
##бир
труд
никакого
духов
ситуацию
##тала
##телю
резко
развед
##вшиеся
руками
ими
##нера
внимания
станции
располага
##сред
воздуш
таком
существует
солдат
вчера
##оны
33
мужчин
дро
факт
##льд
##летов
площади
##od
незакон
порт
важ
погибли
##ce
##нан
делает
##мани
##ri
##ющем
##ющихся
интернет
членов
отдела
пет
предыду
плен
##тации
##пле
##тании
предпринима
креп
##щать
2017
площадь
бед
область
яко
церкви
итогам
можем
постанов
красо
возле
ген
пон
деятельность
##ционные
##мость
круг
книги
изменения
темно
газа
зарабо
язык
экономики
##тивного
голу
косми
##эль
другое
ава
сети
регуляр
оказались
движение
##вании
##стые
##тим
##льными
##кру
видеть
избе
неделю
относительно
##лке
проведения
группи
##book
зар
юго
список
религи
##ів
такую
##жено
нер
основе
мнение
##зирован
ребенка
ядер
берегу
похоже
досто
случилось
землю
лоша
гг
конструк
доб
зер
стреми
спаса
приводит
34
трени
газо
решили
##ленного
банков
##сия
##th
##рика
##енных
недавно
##нович
##кос
отвер
##вшую
слов
опо
##чества
реа
ранен
хок
сегодняш
сезона
разные
##циями
##бель
##жению
вице
мастер
ночью
получила
тяжело
причина
остается
##лую
огонь
участников
логи
##ess
##обо
заре
вскоре
вниз
меры
##гали
##ation
принято
фир
телефон
отмечает
##одо
прежнему
знамени
##зит
положение
всеми
рост
класси
ясно
процентов
цены
народа
##тье
история
##тивные
путеше
##суль
главное
член
##чия
молча
прис
##ятся
кем
предложил
порядка
зака
двое
мм
облада
обратно
назначен
пришел
##дже
северо
осталось
времена
предприятия
##вшегося
жест
второго
четырех
источник
##бами
##тельность
концов
здания
##логии
опла
порта
смотреть
объедин
непро
to
людям
управля
мое
патри
историю
##дение
культур
##сл
зато
орден
поезд
номер
какую
верх
##нге
##цом
метро
зара
предмет
жена
##ними
сотрудников
##кал
отстав
##видно
судеб
шаг
##ланд
сообщила
стороне
кафе
##сного
рынке
##енные
##дка
нравится
находился
прио
сына
глазах
##ровано
проведен
победу
университета
##щена
зи
заявила
серии
родствен
итальян
##эм
##плы
##ченные
оз
брать
жда
##енти
преступления
увидеть
соответствии
твер
спас
##сна
зри
сцена
боле
соревнова
меж
временем
##ваны
##шина
условия
##евич
агентство
готовы
##тную
семье
плю
голове
выборов
##вец
##риаль
##щены
мимо
##бина
##лями
полков
188
противника
самостоя
маги
ибо
органов
произнес
умень
последнее
жили
сму
спустя
##вому
фильма
незна
##гули
упомина
выборах
##шко
хотят
разда
##чим
прото
##стных
позволяет
знаете
##гина
края
##бю
заявление
##стям
лице
дороге
##вана
вышла
##нит
##чев
потреб
назвал
какого
2005
##тик
38
монасты
говорили
энергети
мысль
##тков
воду
правильно
состояние
начало
дис
отрица
##мас
##ul
крови
машину
##нских
##кта
буква
##дем
кое
грузо
поступа
поддержку
дочь
##няют
востоке
чере
зас
странах
успел
##ваем
вижу
большие
чрез
сезоне
ору
вернуться
млад
преда
провел
оказалась
шести
##носи
могло
далее
большая
чемпионате
стары
##бера
скан
##стного
##ющиеся
##гор
фами
##щается
##тников
##ard
небе
активи
37
возника
абсолютно
##ложение
чисто
создать
ввер
главным
лета
горе
##сные
мужчины
##зен
паро
моему
улуч
##сных
##av
частью
добра
##щал
##ляли
комнату
##роваться
бывает
новости
причем
окружа
гло
##мат
вод
нашли
186
чему
бур
кора
##щими
председатель
##ьми
главе
бол
##щер
секретарь
максима
округа
ладо
брон
остался
##жая
проходит
##мия
воскрес
свободы
хол
насколько
##рована
последова
##вшее
бор
газета
##щики
наше
75
приходится
человеком
разговор
понятно
развитие
ву
техники
##лян
направлении
ам
форме
акции
ведомства
сожалению
информация
фра
##ight
сравнению
конференции
цена
молоде
голов
2004
думать
миллиона
переговоры
выборы
неприят
хуже
##тря
выпуска
банка
многочислен
якобы
исследования
ез
обязательно
пытался
головы
остальные
##кет
##op
##пал
##ляют
стены
результат
сделали
села
##жат
усили
##бели
появилась
хло
появился
##ческими
бит
##тических
##ьев
систему
##тории
187
систем
людьми
редко
нема
должность
строительство
##стую
##лло
сх
необы
##ус
кстати
втором
восемь
новую
большое
заместитель
смысле
сотрудники
##ванию
середине
жители
узнать
коль
55
пошел
труда
требования
первое
санкции
родился
завое
отличие
курс
необходимости
##ьи
мате
среду
пришли
##клон
пожи
заявили
напада
##шал
военного
местных
##стая
##мол
острова
возрасте
##all
письмо
главного
##ці
##ально
закона
строительства
военные
##фер
памяти
нефти
прекрасно
множество
шел
##ap
##стаи
домов
кара
регионе
шах
активно
##ковых
священ
стоимость
создания
мони
борьбе
библи
эмо
означает
кан
дает
каз
вариант
космо
опыт
выбор
интересно
страну
сумму
##ie
украинских
представляет
комиссии
жел
##рованных
роста
##ково
##нку
лест
чтоб
##мс
конфликта
защиты
стратеги
уголовное
большую
наша
##тического
религиоз
боевых
аналоги
##горе
борьбы
подру
крова
депутат
хотела
##циони
продолжал
нефть
электри
агентства
##чок
##und
##твор
дорогу
осве
искать
улицы
##ik
значительно
чаще
публика
службу
рынка
ваш
##ните
опол
контракт
##шены
##жном
##лиза
которыми
никого
приняли
##ина
##ub
результаты
теме
##пах
##вка
трево
смогли
рука
##стых
##чество
th
моих
##ers
железнодоро
любви
носи
названием
##нтов
двадцать
капитан
конец
протяжении
самолета
##кала
##вос
фоне
выро
##шено
партия
границы
##лыми
##стные
предложение
правило
тонн
##гин
нужен
планет
компози
топли
##рена
эпо
понедельник
##est
##ляции
государственного
новое
королев
выдви
работают
##няли
команд
языке
входит
рождения
укреп
лагер
##лял
числа
##щает
одному
##дне
ждать
некоторое
сос
##женные
размер
взрыв
знала
##ссер
вез
##щено
заслу
мою
писал
небо
школе
минуту
огня
счетом
##ственную
##рово
последних
пятницу
парламента
42
##ровка
##кратно
##даль
класса
ниж
вру
смогут
попал
представить
света
большим
документы
село
мэ
##мати
дож
сквозь
сор
сфере
вслед
руководство
значение
христиан
сообщается
65
сва
фанта
крити
неожиданно
##ляться
слабо
считать
1941
##ственном
пошли
начать
##ort
молодо
##спи
несо
начальник
2018
предела
2001
страна
декабре
нужны
##роз
##стка
террористи
появились
##вшими
чувство
шту
##ант
1990
самоу
машина
##руя
участия
русских
языка
нашел
руководством
издание
россиян
территорию
##хло
семья
плат
волосы
48
пак
сентябре
##цах
состоит
##ис
души
##жите
##льник
150
мел
причин
ред
##ом
ночи
##стера
деревня
##жку
адрес
нарушения
##вол
голова
россия
карто
январе
##жан
тему
сты
прием
оке
прошел
##строи
внес
привет
жив
вероятно
вопросов
довер
##сро
одо
##фикации
память
##ak
сообщения
воздух
местах
посту
постепенно
##циям
##ленная
##льского
остались
кле
вышли
эксплуа
отказался
буты
бюджета
вверх
мама
жени
любовь
моби
бассе
заниматься
##юр
цель
2002
баш
общего
тяж
##тивы
ров
##тельном
##емая
размере
44
значения
последу
39
победы
гвар
смысл
нужна
корпора
начинает
бывшего
##нную
применя
лицом
##ненно
пласти
случаях
желание
##мут
##люб
лен
юриди
прика
невы
контроль
400
камер
обслужи
дя
##леп
сидел
сказали
произошел
переме
существу
коммер
одер
статьи
43
41
должности
помню
встрече
роман
рук
минимум
находились
чувства
четверг
комнате
завод
президентом
заму
##сная
производство
здание
видов
ван
обер
##пок
километров
банк
##щины
рубля
##жают
специально
транс
порядок
вряд
рынок
зал
свете
отдел
прошли
##кина
слышал
словами
социальных
каком
##берг
##эт
##цеп
##жин
ref
марте
материалы
доктор
наук
##гон
директора
отношение
сма
самолет
связь
сведения
исключительно
##зили
употреб
##ula
официально
руководитель
другую
##ждает
эко
##зал
беспла
true
слегка
мероприятия
соглашения
##жную
режим
видели
системе
первая
хотели
знают
статье
вопросам
##вав
библиоте
##ету
возглавля
открыл
##ань
ног
##льному
модели
визи
##нга
##ьет
имели
##ленным
продви
учиты
##щина
государств
пусты
команде
такими
группе
занимает
кровь
##хии
##лера
##цар
наси
##кл
185
био
широко
обстоятельства
машин
корабль
похожи
хотите
##сел
фла
состава
мило
46
минуты
игре
избран
##рги
тка
сомне
животных
автомобиль
ведет
отчет
принимать
##нями
##мию
мае
разум
арти
вдоль
2003
рот
##жена
he
полномо
ассоциа
отдыха
режима
груди
гумани
парень
знаком
мора
создание
называется
##pp
население
подряд
##our
приходилось
земля
штраф
поднял
##сив
относится
##рэ
перес
осторожно
крупных
делают
##тех
зависимости
юно
парламент
form
##art
влияние
немедленно
##вки
шла
##ал
возраста
проявля
деревя
##кур
решила
##сках
выхода
##ab
турец
достиг
успеш
психи
стола
противоре
предложения
наслед
##бан
переговоров
труб
игр
угодно
семи
днем
графи
ключе
ближе
окна
знали
##щению
сельского
копи
самая
фронта
##тном
рубе
хими
мело
##изво
##чив
фактически
нашу
зали
едино
##тические
короля
наоборот
поздно
##зон
дета
газеты
продукции
апреле
будущем
объектов
##фов
розы
накануне
зале
##гани
ски
ряда
кно
хво
чемпион
47
моно
##спорт
серви
августе
1999
ваши
велико
бабу
депутатов
погибших
##гора
поддержки
вен
лес
##реи
##жка
коне
##чне
зависит
##зора
жил
соответственно
летом
армия
49
##никах
никому
заседании
клад
камен
объявил
##зацию
##логов
опу
воин
##щихся
согласился
##сант
трудом
##нят
члена
прошла
губернатора
скорость
картин
ума
##лел
материалами
называют
##станции
##вере
русского
##ново
дали
рассу
показал
школу
цело
##ьера
продолжает
пришла
##if
вои
ребенок
##мене
зао
идут
пожар
въ
##дры
формы
получается
##лога
управление
##дая
нечто
дыха
направления
человеку
шут
столицы
##лева
пишу
##пля
обли
##тельными
бесс
зару
отмечается
яви
председателя
окончания
##бах
ответственность
кана
пау
красно
спря
узнал
##люби
американских
площад
##ber
сообра
##щика
64
любом
##gle
октябре
пехо
остальных
52
##мян
##рка
люблю
##рье
##тана
устанавли
новым
реализации
##ail
феврале
упал
стрель
девушки
нужда
мяч
1945
переи
путем
имен
песни
сутки
отсюда
владе
сотни
шоу
##ило
окончательно
искусства
поможет
##енко
очевидно
привести
##зами
сезон
автомобиля
вес
подошел
##комо
диск
городов
лидера
##оном
обратился
отсутствие
отлича
факту
стояла
турнира
соедин
буквально
51
##чность
корабля
составил
ответственности
акт
##вига
##ниями
империи
сел
лиги
внимательно
базе
заявления
процесса
пья
лучших
футболу
живет
сути
##og
раздра
образование
опубликован
сильнее
костю
воскресенье
##мма
программ
крае
##дию
##ъя
водитель
внутренних
группу
##сан
быстрее
использования
##вшем
неделе
##поле
вида
заве
gt
прошед
##льм
##one
трое
новая
роз
##монт
начальника
ворота
рабочих
1944
##ill
##ist
международных
##ant
органы
пассажиров
компьютер
экономического
##кут
модель
рим
##руются
кабин
серьезно
##зок
гим
вторых
идея
##льности
украинского
голосом
началась
шли
##ine
завода
опти
соору
сделала
внезапно
##нья
примеру
купить
##чко
##стым
последнего
июне
поверхности
душе
документов
уте
блоки
миру
селе
задача
зоне
сколь
##шит
хро
ноябре
кг
издания
вошли
вода
##вена
борту
##стане
субботу
общество
##тни
супер
куп
180
провели
попросил
вед
отношению
уво
стаби
клет
усилия
##зировать
соли
пунктов
уре
самому
потреби
фер
этими
июле
православ
##вами
эн
обвинения
очи
др
##вла
##сор
ждет
столице
мужа
различные
##шись
данном
заба
столе
неоднократно
##змом
хватает
мистер
##луб
рассе
очков
старо
##сии
организация
плане
знаем
09
голоса
впоследствии
##жное
любого
##ллер
часы
истреби
политических
ушел
брата
члены
окра
##мок
пытается
##тинг
##шена
##дные
договор
требует
##горо
успешно
бер
##ленное
революции
поспе
позволит
184
##цкого
нанес
##тиков
яро
##сное
##нью
##фона
провинции
##енного
воздуха
показать
##ленную
##сена
кисло
тура
исполнитель
правил
позицию
психологи
говорила
##тными
1991
связано
проводить
регули
##емым
облег
количества
##вера
глубоко
вернуть
ворот
##ссов
стояли
оттуда
##рно
напол
назвать
секунд
квартире
книгу
##ровании
##ционно
53
боли
##пуск
энергии
бизнеса
деревни
собирается
##зию
регистра
##гри
боевиков
##лию
ступ
планируется
природ
выглядит
странно
серебря
сопровожда
st
сообщение
молодых
##цова
другому
строго
объем
качества
членом
главных
мыш
русские
дивизии
зим
науки
напротив
игроков
церковь
1943
56
##рованные
достоин
получилось
программа
##тю
##село
##рович
пункта
##дора
считается
поселения
соглашение
##ob
профессор
крестьян
играл
привлека
партнер
читать
губы
##лк
нав
стена
миллиардов
рано
##пин
##рского
считаю
гуманитар
объяснить
городского
программе
петер
услуг
спасибо
летнего
##ly
54
транспорта
##стки
встал
183
дважды
концу
обеспечения
кризиса
идеи
местные
##теры
живут
de
гне
позднее
##ллу
правила
принадлежит
ранены
##тт
##графии
##неф
гори
##ld
ракеты
торо
поднялся
другая
##тировать
оставить
##нном
предусматри
следствия
##ковского
принес
механи
подготовки
##шкин
проверки
попытки
больших
полном
выр
бросил
снаря
делам
каждом
доли
##кол
подобные
статус
руке
проник
сюжет
##ландии
верно
полуо
##ец
обеспечить
мон
##вард
основных
солнце
сверху
квартиры
посред
попытался
фонда
причине
##ляются
##рат
политика
колон
зага
свидете
полка
веке
промышленности
повтор
уве
совместно
соц
дочери
выходит
##жается
##ковые
территория
комнаты
заказ
нашим
останется
##тк
неви
большого
расти
грудь
приме
##ian
знак
сверх
подобных
будущее
##твори
господин
предоставля
57
##голов
##тли
1998
бла
кофе
губернатор
участок
отметить
отделения
ано
ход
##риев
несчаст
посвящен
видит
зелены
пытаясь
впечатление
##береж
нашем
##дю
убить
##куп
##ters
181
##сова
положения
обнаружили
уника
института
машине
воздухе
оставил
сэр
штаб
58
сена
комплекс
многое
граф
##дли
образу
однажды
кожа
ею
американского
молод
местного
##рено
01
вар
кот
составила
происшествия
флота
##сибир
##манов
##тивным
делал
изготов
готова
программу
##чины
переписи
текст
попасть
остаться
свыше
ваше
контроля
прибыли
прочита
##ord
парти
силами
отправился
солне
##ran
собственно
деревне
участвовал
конститу
##чью
марки
чемпионат
писать
оказывается
сердца
##тел
блок
корпуса
испыта
случаев
девочка
нев
бук
журнала
##рас
бал
плате
диза
содержит
##валь
штаба
выпуск
##шенных
##эта
##жие
впереди
речи
приказ
любит
##тино
король
выдержа
##вшему
##метров
введен
экспеди
бен
глоба
фотографии
огра
моим
##рн
охран
запол
##совет
остановился
видом
жены
класс
ветер
наступа
кула
планы
занял
громко
будь
ответа
##тари
ребята
##чками
##рованию
##др
##чее
##вия
##вающих
пан
следующем
##фт
избежать
письма
конфликт
##лят
пита
собо
последствия
участием
взяли
дура
рассказывает
утро
выступления
зарубе
##менов
ул
пространство
мель
потери
##рг
скри
##стное
полиция
подписал
скорости
пытались
##ep
недель
признал
высказыва
восьми
окно
1992
##ost
пило
зоны
альбом
станов
передачи
отдельных
##ив
чемпионов
справедливо
##вку
##мур
продажи
##мили
##дец
прока
девять
получения
подтвердил
##тров
начинается
нормально
комплекса
##ell
1942
национали
##тав
фрак
высказа
##кле
вор
##нье
призы
##ждению
##центра
голосов
энерги
##ct
ответить
среднем
08
нефте
честно
вошел
миллиарда
вкус
командир
уголовного
белорус
началось
заранее
##теров
союза
##фом
минима
проектов
родители
карьеру
улицу
отдель
проще
задачи
1980
##пать
остров
сухо
##льность
горы
спасти
сила
спать
сохранить
сетях
городах
забил
##гала
комитет
фильме
##вица
государственных
отлично
##under
япон
одни
израи
услов
шум
пункт
участники
##ge
расследование
процессе
обез
опер
книг
вело
id
взяла
дово
##чис
##зион
выступил
##ился
##торами
ке
половине
обоих
##жим
85
фин
решить
добиться
технологии
##дных
##лат
международного
##фии
столом
пля
корреспондент
##кель
утверждает
намного
имена
1996
мото
банки
основании
##такт
бир
режиме
делом
##ял
страшно
возро
шка
создании
##ологии
59
произошла
##ind
литератур
ходу
самостоятельно
мальчик
играет
##мыми
отметили
##тивное
премии
естественно
вино
дают
##хам
##тивная
квартиру
второе
поставить
##гона
##вик
причины
1994
##женного
##ровался
торговли
выступал
артилле
##жными
регионов
##21
специалистов
сило
##щенко
##tt
подразделения
1997
увидела
##женно
поставил
занимается
руба
гибели
астро
групп
дев
описы
инженер
##стон
поражение
кризис
планирует
писатель
блю
##сье
##товых
взрыва
правления
ограничи
лидеров
##стен
кло
брю
##лана
гол
индивидуаль
##ft
теории
подвод
живу
осталась
курса
око
коммуна
препят
##жур
смогла
везде
нерв
сан
процента
привез
##стики
установить
##юк
записи
непосредственно
трак
чувствовал
##ющему
звер
пояс
университет
##вшаяся
120
политике
координа
вопроса
нож
папа
огне
##мби
##стным
лежит
##ковым
##чук
помимо
пошла
будущего
товаров
состоянию
потерял
##сек
проверить
стихи
работали
##ционная
бата
герои
книге
##ственными
материал
периода
##сев
прояв
расследования
душу
дворе
##рель
нефтя
интересы
картины
##пка
украинские
предстоит
аэропорта
##бен
##мова
перевод
небольшо
1993
материалов
##ума
син
руководства
используется
удара
нарушение
учреждения
жан
обязанности
тет
##метов
болезни
причаст
границе
##ственности
1995
понимал
##end
политику
63
вов
продуктов
мин
специалисты
секунду
нос
радика
##поля
удастся
поступил
рекорд
##дана
##льев
сотрудничества
выжи
приво
лето
приехал
здоровья
##тировал
##ss
сторона
смысла
##рене
номина
судя
крым
рассказать
вечера
динами
услышал
понимать
киев
этапе
обмен
воде
стене
600
получает
зак
ля
62
##ровку
##ud
забро
##нении
окончил
##тивов
гимна
##вати
неизвестно
принципе
##рк
категории
канала
близко
ремонт
исключением
занимался
##емое
губернии
считал
като
шоссе
##кового
немало
##зме
##бал
объяснил
попали
шанс
##рис
##ченного
примет
##вказ
опасности
стоят
##рели
имела
95
эль
больницу
встречу
угол
доллара
крат
##сель
медицин
##шель
блока
личности
99
##швили
вызывает
вон
фар
##ющимся
журналистов
бумаги
женщину
съе
уши
эми
платить
отказаться
##бек
##дея
76
волн
заг
министерства
##бет
##ченным
сидя
##тическая
пусто
оса
услуги
##син
третьего
раско
грана
сон
изменить
##ванных
правоохранительных
результатам
положении
веща
##ack
произведения
тема
имеется
консульта
границу
футбола
переход
##лика
##ври
прер
веру
##яр
сыграл
законом
##пира
ногами
##стил
легче
сказано
планеты
разумеется
использование
кресло
новом
вопросу
оставалось
академии
ресурсы
совершил
фло
твои
ассоциации
##нными
пограни
##вто
##ционное
институт
тари
руководителя
##пала
представителя
##мно
отставку
именем
имею
##рим
ходить
впрочем
##дие
житель
1970
приняла
бюро
будучи
сеть
##голь
оружием
дорого
скончался
##se
дорога
##зю
лам
сумел
вя
##коль
##вающие
базы
бого
оча
сомнения
предлагает
подклю
вынес
преподава
1960
эксперты
суток
03
дре
департамента
##чиком
страх
##нета
академи
##10
продолжать
напоминает
нара
обрабо
##щиеся
##вина
аварии
полковник
сборную
выступает
масса
отече
гран
ярко
##шками
подзем
милиции
жизнью
герман
выразил
спину
##цева
##льп
документ
проведение
05
держать
металли
играх
##жих
учетом
ощущение
##вано
68
пытаются
нрав
армию
оли
приказал
вни
##мель
##кома
##тору
чиновников
ничто
##банка
##ver
реально
народов
##енная
источники
масштаб
тренера
##цвет
ордена
сочета
рыба
штат
беженцев
запас
осна
##леб
##лович
сложности
бег
77
##лево
леса
заметили
модерни
вина
араб
##дная
поддержке
выяс
##дру
сумма
кабинет
канал
теп
склады
##зви
72
состояния
попол
бороться
лы
общественного
##ast
днев
66
приказа
карты
стоимости
звание
выполнен
##хоз
изначально
##ос
##фан
волну
##рома
продукты
продолжил
начиная
вырос
сознание
##никова
книга
жертв
охраны
##лялся
ужас
показывает
кампании
мнения
пони
##дного
плечо
группировки
отмечают
##чии
испан
дю
##фера
собирался
##чивать
передать
##хан
служи
##щенных
плечи
плюс
теоре
версия
лоб
концерт
моде
способен
##совета
исследователь
ученые
взят
стиле
успеха
бок
##рои
##рисо
##эк
падения
1920
состоялся
ехать
позна
##ive
##чел
десятки
развитию
##рья
насчет
ресурсов
остановить
назначения
достижения
07
аргу
целях
##рных
открыто
намерен
##под
ногу
названия
заметно
##per
##банк
вторая
научно
замуж
боже
открыть
сестра
содержание
запах
начался
эфире
составит
##ону
школа
поражения
петербург
км²
оказаться
свободу
##oy
##дева
навсегда
любил
доброволь
04
состоялась
выиграл
##ленном
волшеб
магни
озву
##ческому
предотвра
словом
переу
##нив
раду
##лд
##ок
рад
сно
советских
выяснилось
##юще
поток
участвовать
спло
##стого
последним
деревья
характера
признать
02
ранения
частично
179
самолетов
правду
##az
поведение
73
округ
верить
стру
наказание
##пуль
расходы
делали
контакт
входят
финансов
давление
гордо
мозга
опере
природы
служеб
пострадавших
иди
1930
договора
##пель
офицер
нано
стари
обществе
пен
показали
1940
серы
депутаты
фона
авиации
доход
брен
полтора
пальцы
питания
уса
топ
военнослужащих
университете
67
нах
##димо
понимает
леги
##сет
демонстра
1939
удержи
##мами
ущерб
углу
определить
лежа
угрозы
получит
долг
грани
понятия
вклад
##пами
написано
следующие
атаки
нападения
тщательно
##граф
##пр
вплоть
1918
##ne
получать
философ
1989
##ry
реке
1917
половины
минуте
подходя
основания
паралле
прида
##рованного
кладбище
убы
##пти
экипажа
западе
##ff
отметила
река
монет
городу
800
настав
начались
борьбу
данного
поколения
неплохо
##виков
энерго
подробно
принадлежа
проходят
сделано
хода
платье
недалеко
задержан
детьми
успех
вере
почита
риск
##шок
душа
##ere
##кость
##хин
работников
начинают
звезды
девушку
укры
собственного
министров
колен
61
##24
необходимость
князь
издели
острове
старше
пье
зубы
##ляя
дому
атаку
оставаться
##юн
##ером
корабли
##сот
магазин
журналист
атом
золото
##лес
продемонстри
поу
мясо
привык
станут
желания
принимал
##вики
##жке
фабри
##вшимся
250
##ака
покинуть
точку
эффект
##пова
##сками
74
очереди
дух
##ванные
четверть
##кона
граждане
поставки
регулярно
твердо
подобного
средне
крупные
сп
лесу
##емом
сборная
##рные
страха
источников
основные
##рона
спуска
тридцать
террористов
следствие
кандидатов
наличие
##слава
оборудования
школь
продоволь
фонд
звезд
##вят
кали
##ющегося
матчах
предше
призвал
пришло
появилось
создан
известен
эм
пространства
такси
##шенные
пассажир
##льда
покинул
относятся
следовало
защиту
черт
прибыл
##лаз
находилась
чужо
отряд
медве
ура
##рда
##eg
##где
диплома
снижение
##ровались
пользоваться
всяких
собственных
черно
разор
##уре
##стная
зовут
##сал
настоящему
снять
колонии
отвечает
##кови
##фаль
месту
музыки
миссис
известных
предложен
недостаточно
иду
##80
фили
##енным
приходит
помещения
отношениях
мусульман
император
##тером
долю
титул
нере
база
отдал
лов
американские
полю
оптими
среднего
кап
законы
заключения
генерала
бак
##рал
большинства
муже
пострадали
эксперимента
видим
##бл
##пто
заключается
##дзе
меда
##лона
##ов
##лине
скор
камень
сочин
##тури
раска
##фин
проблему
приготов
##щают
самим
всяком
законопроект
автора
##лялись
служил
расстоянии
огромное
сотрудник
##сным
каждым
друже
##щали
консерва
раздели
##ала
вступ
регионального
привело
ничем
заседания
##дик
годом
##фина
представления
##зму
судьба
##града
обнаружил
функции
дипломатиче
ть
насчиты
обладает
гигант
##дика
появляется
##лков
##out
иденти
##ису
больнице
корпус
оппозиции
друж
адвокат
топлива
штата
##зино
глубине
контр
белых
хорошие
автомобили
дорог
показатель
имущества
зная
причинам
пишут
центром
песен
##ib
ограничения
турнире
1000
лучшим
продолжают
##бит
бою
мани
солнца
остальное
округе
соответствует
вызыва
всеоб
прокуратуры
офицеров
вернулась
идеаль
существенно
судов
федерального
компанию
наве
разрешения
альбома
##диа
краю
##ass
связаны
гон
подобное
запуска
врага
лишения
князя
авторов
элемента
##зовы
аэ
единственным
##чков
полицию
указыва
##дре
вооруженных
решать
бух
давать
выполнять
полк
операцию
фронт
счета
бригады
##ph
##нях
требуется
собственные
эксперт
фаль
##нус
лицу
читал
пола
##вах
зача
сообщают
существования
голосования
##ain
традиции
on
##ity
##ore
заседание
эли
топо
севере
проф
успели
мыши
хозяин
06
конкурса
выражение
ведут
положил
убил
##ленными
##тками
##мита
свето
ошибку
звук
врач
пожал
мино
установки
##зина
крово
большинстве
официальном
началом
всякого
современных
al
появится
принимает
теми
переимено
национального
##кен
тени
бог
кури
##мбу
остаются
туристов
списке
качество
##мед
69
комментарии
перекры
самую
замок
учения
отделение
##тес
##io
экспертов
указал
сознания
странами
телеканала
поклон
сия
дыхание
открытия
сроки
розо
побо
отличается
##ust
музея
плана
проводится
используют
коп
испытания
##гим
коричне
снаб
согласен
скажем
##тория
здравоохранения
стоять
обита
применения
белые
навстречу
измер
##ционную
травмы
продолжается
##25
озера
детям
##жек
##мона
результатов
##тность
жену
1950
##чени
этап
происхождения
швед
71
##женным
премьера
товар
кв
##ata
полное
интересов
опасность
вывод
командира
футболист
##ox
проекты
царя
температура
юге
отдать
##ора
приговор
обши
игрок
весело
##рея
##ont
бази
##ват
##мета
временно
преимущественно
вирту
суть
батальона
финала
##ip
проводит
сектора
разработан
возраст
помогает
деревьев
западных
##ash
##аги
бронзо
заболевания
вел
включает
офф
смотрит
необходимые
домо
газете
обращения
хватало
структур
роско
литературы
берега
обоз
вошла
молодого
внешне
оку
министром
##сную
цене
##метри
придержи
##вшуюся
берег
заря
##дав
нала
##жны
ровно
сидит
увидели
регионах
вторую
находиться
особенности
разница
московского
##гель
##вичу
расчет
##ционным
телефону
мирового
обеих
##бам
пожара
коммуника
##вшееся
порту
учитель
##ram
##ith
86
буль
##торе
http
третьем
решительно
реформы
обыкнов
лихо
вход
подверг
счету
прошу
##рного
пистолет
даст
работала
моро
рассказ
##сне
следы
собрать
научных
##ex
улица
реальности
проходил
половину
пообещал
провела
депутата
партию
миссии
##енное
существование
##див
связанные
снял
подготовке
стри
виды
##хим
##ляция
таре
придет
идею
леди
прочих
опе
##тины
лени
вооружения
пробу
зелено
единиц
строя
сказ
##тс
снег
подал
##щенные
заставить
здании
поры
высокого
лестнице
одежду
больницы
десятков
внутрь
живых
картина
##класс
жизнен
вынуждены
являлся
семью
карту
народу
##щался
вещь
создал
##ште
капитана
участке
градусов
##щаются
некоторым
мальчика
обоснова
студентов
решением
летняя
бои
##гана
мисс
запрет
##чному
миг
республикан
парк
курсе
вопло
фирмы
отрасли
политического
осво
экза
собственности
##ренко
влияния
борьба
ада
отказ
be
экономических
пари
мягко
седь
строить
вступил
##язы
детали
##зву
##кович
ошибки
поведения
78
структуры
выбора
термина
грубо
существуют
отказались
бежать
фильмов
текущего
экономике
поход
назвали
больно
попала
##тивную
або
темы
здоровье
пуле
чьи
построить
##ствующих
дат
пеше
##ich
жар
сбро
пить
##тран
##илл
##щенно
##50
##ровке
поддерживать
отцом
вовремя
##чья
одежды
ожидается
##тности
##тивными
политические
протеста
1988
занятия
дина
стадии
##шкина
присоедин
вернулись
высоты
рок
балан
авиакомпании
расту
##ковы
любые
##ровок
##бии
возникает
долга
занимал
провозгла
клубе
700
##чники
##провод
праздник
аэропорту
силах
вопросом
картину
трам
##граде
получают
##хая
пакет
двадцати
прочие
##тация
доми
вышло
моду
дополнительные
представителями
драгоцен
##30
имея
понимают
рассказывал
##тологи
хватило
выполнения
дала
медали
##sp
##рака
экологи
##тическое
театр
##ond
группо
осенью
комиссия
смеша
направление
##iz
четко
##жского
автоном
пары
##женная
хлеб
##жина
полгода
основы
кожи
проез
колеба
отвечать
танков
журнал
способны
увеличить
##дак
самих
социально
шпи
мгновенно
ас
каждую
оре
##che
##ork
мост
рассмотреть
куро
солдаты
закону
пут
##кора
оборудование
поставля
гидро
##лости
мете
уверенно
бывают
##ссор
доказать
##стического
задач
туа
обращение
экспорт
##ate
шею
следующее
символи
военную
общественных
связанных
представление
##мара
высоте
нашла
81
##юзе
способности
неот
дочер
84
способом
##иться
каме
каждому
любят
следующего
ут
игрока
##шихся
этапа
вещества
победа
телеканал
постели
##дья
ввести
##мерно
старик
клиентов
признался
годам
разговора
##шиеся
шар
сад
отдельные
##шат
отвечал
позади
храм
правом
труп
##хал
позволить
доля
господ
президенту
принятия
написать
становятся
разведки
заместителя
опыта
##рхи
флаг
конгре
многом
храма
##хова
##деб
сапо
##плек
исправи
апо
утверждают
благотвори
обучения
императора
называли
запись
завершилась
арестован
##дным
##био
иран
суммы
знания
вела
##вис
79
преобразова
##чеб
среды
факты
возвращения
станция
неи
##жались
##чна
счастье
##нек
посад
##ix
линию
##amp
##ссель
доказательства
мечта
отправил
наступление
старые
##пит
коме
прекратить
падение
разрабаты
сцене
##пии
##стере
уга
передал
памятник
ушла
директоров
##лав
половина
девочки
ске
ветра
местности
подар
##дена
способность
выяснить
подраздел
входя
стер
##ure
87
хорошего
называть
сорок
зала
защите
счастью
боевые
помог
бре
каждая
иску
законодательства
молодые
##man
##бия
играли
##центри
##шер
формирования
убор
гаранти
решению
технику
народного
лучшие
письмен
##жник
идеологи
82
разработ
##надца
поддерживает
программи
надпись
архе
##ire
##щались
доктора
направлен
##реб
малы
шаги
сотрудничество
пуска
##юри
поми
##свя
похорон
особого
полета
звезда
разобраться
зон
##кости
старого
скоростью
целе
исход
многочисленные
объекты
волны
серьезные
удовольствие
художник
известны
какими
современного
номера
##эл
содержания
##ствию
представляют
пункты
##дневно
обеспечение
##гера
##шков
боевики
редак
##зуется
##слан
миллион
заявлении
воли
##ену
сигнал
периоди
уезда
создана
сувер
сообщества
96
##ченная
полную
##жав
повышения
88
упала
специалист
приви
жилья
##сны
русском
жидко
магистра
коммуны
наг
тексте
восток
прису
оценки
подле
патриар
##честер
проигры
рада
общения
коллеги
израиль
##рек
капитала
привел
занять
##зли
палаты
столкновения
языком
менять
стену
повышение
##лое
пределах
музыку
реклам
операция
##ci
аф
пуль
происходило
ставки
##ане
полного
1938
уничтожить
закончил
дья
##дное
##вь
хри
детства
засе
##сист
капитали
пыталась
хорошая
пространстве
привели
##are
ряде
земель
##куль
высокие
базо
##фия
ударил
подве
дивизи
1937
функциони
##стии
границ
актер
выса
##стыми
лед
инфраструктуры
старин
матер
убили
окажется
безопасность
старых
использованием
проме
лечения
##илла
турнир
оставался
обязательства
степень
1986
прися
##виль
несу
появления
пределами
шер
гено
типи
направился
##ok
привлечь
шагов
личного
обратиться
полет
наблюдения
появление
срока
##ченно
американцы
##тью
мозг
составляло
биологи
публикации
уходит
аван
общи
##пот
любое
##честве
ушли
заметить
комментариев
1987
##емости
##жок
##форд
городских
излу
поставок
ставить
доступа
##rom
резиден
предприятие
ученых
убит
попытка
вторым
объект
гале
wh
театре
пли
пад
##мил
наказания
##oe
правительстве
объекта
просит
le
рев
дерева
правительством
евреев
160
##ровалось
эволю
кровью
##кии
черные
максимально
##ствования
новому
доходов
##емую
ослаб
178
182
продать
независимости
предоставить
##ens
просил
##ненко
поверхность
интернете
##дек
секунды
расстояние
##льф
песня
аэропорт
##ъем
сзади
1919
пери
вблизи
коалиции
служить
аппарат
случаи
составляют
вызвал
##рма
называет
тип
чел
выводу
визита
надежды
поднять
контракта
квартале
осужден
1985
областного
кандидат
праздни
угрозу
пиро
песню
##рованная
##вес
еду
сделки
##11
сыном
слушать
входа
расположена
десант
статью
школ
##нис
оборот
воспользоваться
училище
перевер
соч
тремя
проходили
выходить
макро
погло
хорош
судна
воле
уровнем
серде
приехали
##стар
вину
судья
##кера
##tr
##ченными
дождь
внизу
пропуска
чудо
##лизова
задачу
исправ
пома
третье
рос
век
врагов
предложили
продолжала
пище
купил
разработки
встретиться
собрания
расходов
гроз
финансовых
усе
медаль
##спор
набере
##чева
огромные
искусство
пострадал
церемонии
договорились
производитель
заводе
радости
удары
похож
##тара
безусловно
##нель
##лица
врачи
продолжить
поезда
прибыль
парке
##ros
товарищ
подарок
золота
83
бывших
лошади
виртуаль
регистрации
##нические
разнообраз
##вее
аппарата
судно
управлять
##кову
отряда
##зив
немцы
##ани
источника
##бно
##ковая
татар
сани
##мила
an
первыми
государством
##дис
##тоне
футбол
метра
добраться
##ляю
разрешение
##чан
ежегодно
мяса
##ock
дам
##ue
перехода
##ong
##лятор
заняла
любую
##жев
выго
##берт
рю
##vi
группах
##веду
огнем
хлоп
учитывая
использовали
выступать
красоты
##хот
детстве
каждое
проверку
код
служа
парка
подходит
высоких
177
присутствие
известного
лагерь
веществ
основным
##ровалась
продаже
мэра
боях
очер
участка
механиз
опасно
таин
##рки
площадке
городом
пр
съем
требуют
фракции
фикси
##рку
построен
карман
##тивном
##стических
тюрьмы
шансы
принят
хозяина
старался
##чника
финале
бомбардиров
заро
уехал
немецких
89
##ьем
собираются
матчи
соперника
финансирования
оккупа
письме
редакции
гиб
тира
дворец
##зар
эпохи
кусок
специальные
##зам
повторил
моста
слухи
объединения
##уз
лагеря
поездки
вызвать
рыб
возможных
твое
радость
##теле
возглавил
провод
##ул
##ube
##кове
портал
проведении
невер
кад
держал
##стин
практике
108
большими
журнале
шеп
##новского
##филь
учился
прокуратура
##тическим
интенсив
1984
цы
1965
обещал
сход
уша
прочим
туман
установлено
бага
долгое
кабинета
отсутствия
позиция
##лист
псевдо
продаж
существа
великолеп
худ
was
назем
##ционном
версию
##ленд
иных
спине
##лизации
##зах
активности
вечно
##ненные
готовности
волос
карта
звон
открытие
туристи
выполнить
самолеты
материала
ближ
упро
##12
соз
добавить
общее
it
ислам
хозяев
точнее
перешел
реакции
объявили
давления
поисках
вероятность
четверо
##тры
открыла
улиц
канад
видимому
передви
создавать
проща
чиновники
карте
братьев
статья
французского
##раль
##стика
предполагает
подготовку
поддержать
секретаря
тера
тел
борт
нов
цену
открыли
##жников
##ice
##дес
федерации
считали
##ick
подробности
враже
##нар
подход
целиком
используются
реку
##ченное
вследствие
заключил
ракета
кош
рассматривать
дерево
##ect
ожидать
##ae
развитии
очки
царь
прор
имущество
собрались
пик
председателем
##ими
двигаться
сюр
##хен
башни
флот
ступень
упор
девяти
игроки
пробо
##ленко
линия
продажу
##логом
лагере
кано
личность
монастыря
ведомстве
набрал
единого
##уса
##ank
##зель
проверка
зону
свободно
броне
взгляды
передо
растя
##her
генерального
покупать
массы
сторонам
##жья
товары
##шне
гражданин
гли
веков
восстановить
бесплатно
предс
назван
пребывания
уха
законов
трагедии
мане
обучение
арест
объявила
##глу
студии
защитить
кости
##ровав
последнюю
##нических
автоматиче
повест
заложен
##чны
страда
##чине
##лак
героя
подобно
1946
помогать
фамилия
имеются
элементы
##американ
развле
друзьями
участник
сопротивление
##ence
умерла
педагоги
исходя
базу
экономика
ежедневно
##фель
немцев
1975
проводят
голланд
##рист
1968
##суа
проре
героев
результатом
присла
прими
справа
принимают
ман
защитник
отдельно
чемпионом
1979
иро
асси
растения
вооружение
авторы
политик
##меры
этаже
ожидал
методи
##ment
следующим
##стик
показала
болельщиков
сцены
аку
##евна
списка
элементов
наблюдать
княже
двоих
потребовал
серия
##ky
областях
великого
130
##гр
освобождения
установили
зени
добав
##фана
ледя
крепости
защищать
понимание
оставив
представлен
опубликовал
##товые
природе
отправить
составляла
лома
дивер
неподалеку
военным
миром
мирных
повод
##ін
созданию
помещение
шири
ведущих
расположены
середины
##номи
##сера
участии
ябло
затя
св
установлены
частных
лопа
директором
отпуска
сотен
1982
97
замед
##ствующие
курт
установлен
моменты
изли
оставили
магазина
##еро
помощник
старшего
увидев
дым
водителя
судить
допустить
звуки
кандидата
подтвердили
98
снего
лист
рады
хорошее
окончании
победил
слове
##ровского
срочно
философии
собственную
1967
художника
американцев
важным
поставили
ир
такому
анализа
выби
связана
враг
92
реформ
родственников
ликвидации
увеличение
выбрать
количестве
советского
##опера
улицах
нераз
рит
рабочие
телом
правилам
нежели
выросла
представлены
ов
концентра
горь
поселение
наиболь
танки
метод
маленькая
##дона
освободить
анализ
##ссон
судьбы
боги
составили
##нская
1973
народных
восстановление
ударов
##40
организацию
превышает
валюты
##хими
телефона
траги
конвер
is
1966
крыла
зарплаты
ценности
1972
заняться
##old
1976
актриса
##цина
тюрем
избавиться
угла
серию
географи
склад
##уна
подав
органах
преимущество
ключ
стекло
обратил
километрах
##бери
исполнения
170
немецкого
преступление
профессора
занимаются
коррупции
организовать
настроения
##евского
##нена
that
упраж
лон
хру
наличии
графа
сэ
понятие
##зис
собак
1963
двум
ухо
показания
##ame
услышать
возможным
морских
##рованием
шлю
экстра
парков
##ang
выступление
узнали
вред
деви
##лоне
##бус
событие
использует
механизм
важных
1964
искренне
заставил
зуб
цветов
открыт
##ational
настроение
востоку
сыграть
принимали
крю
##uss
следить
холодно
добычи
потеряли
записы
##риф
сестры
##жаются
##лэ
счастья
фестиваля
варианты
душ
некогда
стекла
энергетики
##ung
перекре
##ллин
сег
##новых
главная
ежегод
генети
выводы
импорт
удобно
воинов
катастрофы
заключение
ух
##хли
##жье
як
1983
отвле
1974
состоялось
местом
##няк
властями
нормы
карьеры
конкурс
гвардии
указывает
массив
пределы
##дке
масло
##лям
изображения
моск
продав
чувств
современные
католи
попробовать
святого
##тину
нигде
насилия
регион
девушек
мировых
la
набор
произведен
слева
еле
растет
at
налогов
выглядел
брази
человечества
##ковича
получив
ощущения
основу
##воло
достичь
партизан
национальных
муниципального
категори
вин
дядя
наре
sh
насы
опуска
ков
эксплуатации
грамот
официального
создали
отва
93
остатки
направлены
судо
##нического
оско
цифры
раб
1959
##рита
акка
проходить
заявляет
доллар
видят
птиц
нынешнего
управлением
делается
предположить
затруд
просле
судом
вернется
##17
1981
напрямую
##новым
заведу
собрав
тренером
спер
##щиком
справиться
приблизительно
##дского
умеет
боло
зачастую
инцидента
встретил
##водство
##тику
предложить
численность
##хина
лечение
участвовали
зла
1956
лидеры
привлек
подразуме
полным
собран
спортсмен
верхов
предусматривает
контролем
##ваемых
пятьдесят
форума
##iss
лока
##чников
##лео
закреп
носит
1962
уверенность
##ton
женщине
завершения
##нением
бана
дохода
автобус
короле
обсуждения
дне
многочисленных
искусств
маг
получат
##рованным
нередко
жертвы
играют
кабинете
очка
маленькие
##ax
камни
доходы
побед
проч
жилищ
##суэ
##oci
отнюдь
мэр
убивать
камеры
методы
##ies
экспедиции
##джер
герцог
##ам
обвинение
украинцев
детских
смертью
представлял
стремительно
засу
деятельностью
пыль
посты
1978
##ринг
самоуправ
жила
журналисты
прекращения
1948
##we
обстоятельств
инфек
общую
средствами
важное
##60
107
представил
##уда
братья
1936
стадионе
тюрьме
1929
снижения
делаю
позволяют
орденом
возникла
применение
событиях
проекту
бара
отказалась
медиа
##теро
эт
заведения
проро
западу
финал
зоо
лиге
1961
безум
родилась
##каи
успехом
главно
брак
##шив
первонача
главу
1971
мешает
отцу
учиться
##lin
##берга
планете
длинные
##нау
воспитан
##тике
строительстве
признан
повстан
черты
дополнительных
преми
двигателя
отправиться
посреди
итоги
учителя
конечном
коридор
выходу
проводил
##хара
предыдущих
юби
сторонников
кольцо
тропи
убедить
перемен
перестал
1958
площадью
2020
112
товарища
звучит
110
##pe
словах
дороже
##мора
##анали
хоккеи
точка
молодежи
врача
настоящего
давал
памятника
1977
работо
отправились
##стских
фронте
сотрудниками
использовал
членами
квартир
союзников
премию
##бла
стихотвор
стиль
собаки
грам
##age
##цин
желая
цветы
##фта
поэт
осуществляется
пальцев
шагом
сообщить
or
птицы
1969
предметы
многим
последнем
годами
газет
##ническая
##тового
##вель
конструкции
pic
зона
##динг
независимо
гипер
##тет
незначи
шле
выглядеть
несколькими
ряды
91
промы
писателя
планах
##ish
любых
1957
выступили
призем
щел
спортсменов
бирже
конкретно
##ьян
небольшие
движением
иные
бокс
исследование
дабы
стремя
хлеба
своеобраз
оказать
принцип
общая
выросли
##вающая
##вара
горло
двигатель
фунтов
коротко
побу
выве
##ваи
предлагают
правам
ходил
хор
##мп
инцидент
каран
поде
удивительно
специфи
##uc
##ились
коллег
судьбу
случая
инициативе
площадки
аж
##ровало
лидером
переговорах
##шева
используя
повреждения
лез
##циан
##ood
болезнь
упла
интересах
утрен
надежду
сельсовета
игроком
экипаж
единственная
соответствующие
рубль
закрыть
независимость
клубов
обратились
##шников
неба
политиков
специальных
гара
властью
использовании
известные
##кия
вызвало
##дир
##зона
управлении
островов
отнес
заменить
##жер
##лока
ногах
##бля
обнаружены
выполнение
1954
поиски
подавля
##еров
выплаты
обуслов
почет
изя
рубежом
пятнадцать
организма
новыми
встречается
with
##ами
торговых
высоким
матерью
94
гражданина
изображение
##лі
волю
вырази
извести
##енов
недолго
закрыл
##ah
неправильно
прошлое
имеем
волна
нападение
черного
фильмы
парни
обязаны
груз
реакция
находилось
##инг
позволил
волости
колони
поддержка
тень
попытку
откровенно
проходи
##стое
##унд
1921
низко
трол
проекте
##рении
второ
корпорации
устав
##уме
определя
##маном
проходя
винтов
оценить
ужаса
распространение
чувствует
разговоры
##зав
##сенко
опытом
возвращается
1935
##зра
океана
среде
официальных
1922
долгосро
языков
деньгами
знакомых
решено
замка
##нову
победить
##нио
лаборатории
поэта
##трин
человеческого
таба
демократии
ослож
##сели
призыва
доклад
правительству
вызвали
заместителем
##щенного
объясняет
крем
наружу
показывают
рен
воспоминания
поступило
клавиатуры
вопросе
администрация
телевизион
появляются
хит
давали
##oom
##руем
джи
##тическом
согласия
лошадь
согласилась
выиграть
присутствии
чт
##ненных
средство
кожу
полагает
авторитет
вскры
туре
направил
оперативно
артиллерии
обратилась
литов
кнопки
белого
дешевле
сильным
приведет
data
режиссер
отби
участков
послал
местами
жилых
##вающего
сектор
русским
##еном
продавать
любая
русско
экономику
романа
выбрал
сахар
написала
совершить
наем
побережье
##рян
занимались
несомненно
грави
огла
палец
двора
##сис
экономические
##ime
##ach
автором
пропаганди
активов
##pt
устроить
##вак
##15
крылья
##меи
##тельны
консо
продолжали
объема
встречаются
изучения
смяг
эс
иннова
связыва
религии
благоприят
клетки
1947
##ark
##шни
дождя
вариантов
дивизия
государственные
##сном
столицу
умереть
расширя
прогноз
заявлял
##щегося
слову
озеро
##вика
сотрудника
последняя
исполня
##илась
духа
заняли
посольства
позволило
восстановления
обстоятельствах
быстры
оценил
сете
1924
родину
##berg
текста
подать
монастырь
командование
мусор
мужем
имело
##тис
чечен
1926
тяжелые
##act
окрестно
убежден
решении
замен
публику
##энерго
сильные
прохо
исторических
получение
посредством
ввиду
норве
еды
начальником
1953
снега
командованием
140
проли
документе
печати
следом
свидетельствует
технических
фамилии
изменя
жене
прокурор
as
возвращаться
математиче
большом
постановление
1914
изменение
населенных
флан
кухне
захват
длина
терми
взгляда
упразд
наряду
возглавлял
распа
##рующих
1949
надежда
##дара
предложила
инструмента
оценкам
сельсовет
хитро
##нному
оценке
реальность
велел
##ллы
##стную
американская
##сите
аги
международным
дебютировал
1933
определенные
взрослых
##ъю
разным
настоящая
свидетельствуют
##риса
республике
соревнованиях
техника
партнеров
звания
ударом
прон
фини
рыно
сержант
тупо
собирались
полная
ухода
военное
##ального
масси
воевать
фундамента
началу
тысячу
##лта
супруга
силе
##емыми
австра
служит
##женными
понимая
внутреннего
сериала
склон
штате
одинаково
высшего
идио
квадратных
ведомство
близких
решет
вызов
самыми
##графия
хар
моменту
южно
бабушка
жителя
разведыва
удавалось
1934
дворца
ножом
сжа
финансирование
любовью
делах
следующих
продолжение
собрание
финансовые
советник
автоматически
берет
##леров
совокуп
дата
декора
самоо
юг
##ых
оценку
визит
судьи
крик
осад
##ката
индекс
владения
масла
##ьо
потеряла
долл
микрофон
советские
оранже
указ
носить
составить
##ровых
рабочего
##летнего
ведется
лучшее
##нько
отчего
нар
древних
мари
отступа
больных
редактор
заказа
нежела
литературе
##ющаяся
вывести
урав
##oll
технического
доказательств
ряду
камня
отсе
поддержал
##дт
устран
поиска
правя
максимум
египет
дольше
стрелять
хорошим
проводятся
собака
фре
встреч
изменилось
намерения
клубом
##ka
африкан
высота
##тическую
заи
термин
массу
минус
легендар
считая
введения
угля
##19
##менко
##ас
##ult
привела
подняться
данному
##ator
тепла
санти
##физи
наступления
своя
дар
мастера
высоком
рыбы
зажи
вреда
##рад
ареста
##ina
жителям
большее
##емость
социального
##мали
иного
паспорт
учеников
пиво
попытке
черных
контролировать
владелец
you
##мата
месяцы
символ
вдвое
участки
промо
магазине
заряд
##спект
провода
выставки
выпа
##вшемся
##хия
непрерыв
собрал
##14
юноше
гнев
пота
дискуссии
отправили
сельское
домом
морского
##мато
##стными
статуса
форм
поре
176
приобрести
визу
недвижимости
##ченную
поселка
##рив
обладают
карьере
разработке
меняется
##кана
лодки
диагности
фигура
1923
##тус
##нены
единственное
полуострова
падает
решает
адресу
высокая
##мса
объеме
охла
симпати
признаки
любить
приема
запрещено
министерство
##ано
1932
говорилось
округу
##тна
наблюдается
бь
##ide
##ньо
стоян
известна
полковника
цвето
коня
##гию
рациона
показатели
пригласил
сферы
слава
##ждается
крест
##чье
##pr
##da
##енную
предположительно
выбран
диалог
фантасти
пенсии
транспортных
исполнении
сделан
пожертво
магазинов
##nal
##вные
всерьез
круга
культуре
##ссен
веры
влиянием
десятилети
связ
образе
явление
хули
ch
распоряжение
выходные
собственное
выходе
манда
восстанавли
эксплуатацию
загряз
сессии
совету
домашних
##вам
внести
покупки
следовательно
региональных
массовых
процессы
стадиона
##ур
количеством
обращаться
западные
гривен
подло
##тельному
женился
##лис
##22
живот
наблюдал
поначалу
правы
бель
факультет
победитель
##жники
необходимых
социальные
офис
расположи
классе
##тово
пошло
предметов
ростом
отсутствует
##деров
полномочия
фигуры
##шов
ребенком
назначил
##новича
руководству
властям
сотрудничестве
105
перешли
##тта
##щенная
проиграл
1928
##стского
расчета
балла
реформа
перенес
##етии
высказал
лучшего
официальным
языках
теория
прочее
общины
запрос
выпустил
1955
исполнение
##ave
реме
духе
португа
фестиваль
спрашивает
способна
разными
основного
пот
предвыбор
##газ
органами
процессов
аренду
юсти
##нор
забе
основная
принц
епископ
by
номером
##подоб
##ману
требованиям
незаконно
опи
политическую
традиционно
размера
достоинства
признали
институте
обед
##роди
##ated
маленьких
жо
домах
фено
стекля
побережья
виз
украинская
1931
перспективы
спасения
жиль
красиво
избы
пилот
обычных
наркотиков
гастро
бросить
трудности
правах
##жко
поселке
важные
мелких
открытым
обороне
угроза
тюрьму
мелкие
кибер
шее
неак
трассе
неа
писали
посол
ожидания
##зел
костюм
средняя
делами
##ee
109
гек
получал
карт
##рованное
##рэн
готовность
##фикация
мечет
спрос
определения
договоренности
активность
входил
кучу
гражданам
гомо
путешествие
##ване
принесли
забрать
экране
космос
попере
приходят
молодым
центров
стратегии
сцену
##ганов
признание
состоял
школах
несет
принести
битвы
увлека
долги
составлял
ошибок
одежда
финансового
раздел
##жаю
боится
##гоне
оставались
конкурсе
раненых
республик
ремонта
челю
толпы
братом
инвесторов
лекарства
ресторан
муниципальных
##18
просвет
##ыр
явления
реконструкции
##кино
венгер
pre
##лз
санитар
миллионы
случаю
перспективе
ходили
сложнее
1925
согласие
погода
распоряжении
полученных
ткани
1927
происходят
##рующие
госте
совершении
равен
основан
175
платы
созданы
квартира
устроили
температуры
прокурора
соединения
1952
закончилась
сокращение
сократить
цивилизации
воздушных
##ound
##шенным
тридцати
рта
жертву
##ляцию
факторов
##13
лука
выглядят
сражения
гражданского
футболистов
размером
нести
чеш
##тком
организм
##телен
батальон
саду
ходят
подписали
оборону
рассмотрение
губ
поручил
##сени
создает
журналиста
собор
скандал
1905
определение
сообщал
чиновник
энергию
стенах
камеру
беседы
##сию
отто
художников
смех
мега
##дром
главную
ошибка
собственным
##графа
особых
##000
##шан
гражданских
джин
личных
распространения
навод
термо
##ite
##дово
десятка
общаться
##рун
соло
##ife
имму
экран
соревнования
одних
толку
мульти
##тони
##arl
удается
шло
нево
##ai
обязательств
отпуск
производстве
родственники
уехать
тесно
полосы
пищи
мощности
иное
формате
дорожного
видимости
долгов
яи
поправки
потенциал
брони
##оти
1915
увеличения
##льская
орудия
выбирать
продукт
дед
творчества
проекти
международные
мирного
практика
просить
##спа
##мели
потребитель
физики
сыну
##ons
государству
сбора
договориться
крепость
планов
синг
загру
музее
получали
общим
драма
кредит
##ровым
встретился
собора
желает
иниции
находясь
медицинских
проход
покинули
помещении
дистанции
##пром
малого
численности
эпоху
##дс
высокую
заключи
одержал
достигли
##ффа
небольшая
награды
дель
берут
ищет
##шенная
##70
##гард
зарубежных
уезд
##гг
обл
##ica
какому
стимули
держит
снизить
собственность
явился
богу
перерыва
учреди
административного
##23
##ющимися
орган
юстиции
##завод
маски
личные
корабле
снимать
##пия
летних
размещения
формули
##пп
##енными
высоту
##ану
конь
горах
танк
физических
передачу
##эф
хвост
бонус
наби
тяжелых
брака
розни
##тивности
захорон
командования
##мам
надолго
воздушного
пев
протекает
##ничество
объявлено
проводили
рту
ставит
выступают
обнаружено
развивать
мышь
собирать
рассмотрения
хан
претензии
##вато
пива
шансов
выиграла
отличаются
тяго
чар
регулярного
защита
целую
господа
слушал
светло
компенсации
полит
акция
ставку
соу
телеком
видя
лжи
голода
синд
##шенного
доверия
консуль
убрать
ссылки
поп
##стаф
скрыть
уд
процедуры
политическим
##варда
встретились
поехал
современном
##гне
принадлежат
описание
маршрут
каре
входили
классов
сохранения
сбли
тяжести
руководители
выращи
##ug
лат
сущности
билеты
продукцию
ню
животное
условии
##кки
конкретных
битве
справедливости
производству
поиск
смену
сине
норм
светом
клубы
готовится
##гур
сроком
сун
противник
мотор
девушке
купа
этаж
автомобиле
схема
троих
практики
лесо
людях
миль
данное
крупного
существовать
агрессии
захватить
осени
наимено
поддержали
блу
отборо
##дную
красные
бежал
##ющееся
вери
полагают
общественности
выделить
драматиче
трижды
##нности
##цкая
положено
##тского
удержать
##тельна
этажа
юноша
проспекте
типо
настоящим
специального
жертвами
призыв
##бр
украинским
смесь
корректи
установлена
курсы
дем
помогли
захватили
периодически
вопреки
саму
вывода
греб
заново
##ournal
##вающим
размеров
отчасти
каждые
жилье
денежных
офицера
www
мебели
установил
переехал
##view
##erc
прочего
выходя
##гвар
исключено
дебют
##бби
результата
пользователя
##фто
##мович
этно
исчезла
##ade
плотно
##деев
красного
##бат
страхов
лек
##хта
amp
поворот
количеству
старая
двенадцать
добровольно
##16
эмоции
счете
сопротивления
особое
рыцар
перевести
архитектур
инициативу
деревню
толпа
##чак
учебных
артист
ходит
поддерживают
капитал
заставляет
1951
##атри
снаружи
страницы
общих
ядерного
##вани
возникло
плоско
девочку
выражения
таблице
##зак
гонки
президенты
##int
простых
спроса
чо
пациентов
ящик
внешних
внутренние
##вичем
узнает
отсутствии
различными
##пари
защитника
звали
добычу
военная
##пина
политическая
глад
##берта
объяснения
подошли
##ony
##шины
выезд
совещании
ведения
хранения
критики
молодая
американским
домини
проходила
заповед
##вело
проезд
потока
сильное
кин
неис
отцов
##линг
un
##вшимися
известным
сед
кво
выступая
ненависти
дип
обмена
совпада
практику
движении
not
упоминается
полузащитник
повысить
горизонта
составляли
##рием
##аз
ущерба
ненависть
очередного
автомат
писала
казни
усо
встретить
чести
развлека
военном
спортивных
представлять
небольших
2019
##ньи
территориях
адвоката
бригада
салон
работаю
350
старта
секрет
футбольного
##ile
##нси
позволили
возникли
делегации
##ors
инфляции
вины
лицензии
сид
##эля
джа
портрет
ом
океан
плав
обеспечивает
возвращение
оси
прихода
искал
подка
направля
канале
мигра
административно
условно
процессу
электроэнергии
лечеб
sp
ультра
ступен
сумели
предприниматель
произошли
##сим
##зирует
командиром
стя
построена
##рная
завершить
пас
виновным
активных
попадает
объявлен
распада
детского
направить
разговоре
##лизм
##ура
ex
интерпре
щу
руководил
трлн
фактов
наследия
языки
лин
руководителем
##oh
ситуациях
оставалась
молоко
гал
осен
билет
отобра
##льском
главные
нужды
выступить
##ванного
односторон
##уэ
следствием
his
процент
числи
принца
подготовка
англо
##хт
автобуса
торгово
югу
обслуживания
золотые
причину
выходят
судьбе
360
посетил
сокращения
задание
##тьев
третьих
понимания
утверждал
##ron
путешествия
пика
принесла
экспорта
спя
включа
инструмент
метал
точек
жестоко
стоимостью
запасы
влияет
герцога
квалифици
##35
совести
шам
сочи
господина
##лея
подписан
переводе
серьезных
доверие
популярных
богов
поче
серб
нанести
удовольствия
пенальти
бесконечно
##пс
категорически
первоначально
металла
втори
однозначно
взаимоотно
##чивость
возвращении
оф
весен
хозяи
сильного
приоритет
футболиста
преодолеть
источником
коз
слез
факультета
критику
кабе
стрельбы
банке
вылета
устраивает
куб
отменить
##кио
##вавших
достигла
местным
попытаться
##hone
законодательство
накопи
кругом
известность
выходил
##сар
##ствуя
##ционными
желании
лицам
ступени
космических
интереса
цеп
местному
числу
перечень
передач
налоги
нуждается
свободного
приняты
отклик
##рову
стр
участниками
##нуты
невысо
группировка
терять
располагается
##енности
оплаты
надеялся
трубы
достигает
стремится
оценивается
##альных
организаторов
наука
улицам
##пав
соль
огромная
##кас
жизне
ветеранов
расположено
поколение
##sh
##стические
##нист
крыши
пиз
реакцию
положить
мощность
900
опор
сумме
мера
прессе
невероятно
ато
##рованную
##лар
##ланда
обратить
живопи
телу
остановил
лицами
формально
необходимым
выпущен
возможное
дорогах
##вных
стремление
библиотеки
небольшую
##тти
верит
амери
владеет
рыбо
спирт
болгар
ся
ответы
кругу
##зеф
##монд
##женную
пенсию
первич
высших
рулем
пыли
думы
мяча
трубо
##ild
перестали
##дым
##ваемые
обнаружить
требовать
попыток
основана
подачи
платформы
предлагается
начинал
вертолет
вышед
проститу
лок
передаче
встречались
бегу
кадров
##нат
архитектуры
непол
множества
требование
строительству
открылась
британского
посетить
гола
125
алкоголя
французских
радиа
закрытия
джен
относиться
##совых
пушки
прекращении
пилота
топливо
буквы
самоуправления
обычные
летия
адмирал
молока
офицеры
становился
рекламы
запретить
отставке
тести
структура
удачно
представляется
рассматривает
зап
навига
смены
##тизм
угле
##яли
разногла
ожидании
эффективность
бомбы
нарушает
станцию
цветами
небольшое
славы
открыта
машино
готовить
##te
аренды
референдума
составило
публично
победителем
обнаружила
просьбе
направлено
понес
находит
эффективности
##нинг
##мба
митинг
немецкие
вызвала
оборонитель
признаков
##ссан
##ern
спортсмена
работники
##пси
называл
заправ
пира
опасения
распу
сняли
превратился
благослов
контексте
повел
призывает
космического
ош
159
##альные
кольца
человеческих
определяется
верил
изнутри
##еву
##лину
##телях
##пам
парламенте
##чивает
поступить
ем
##тизма
##етра
##ффи
рек
наград
сведениям
поступать
описания
пешком
эпизод
##ome
следовать
волосами
огромным
остальным
появиться
процвета
нену
обсуждение
отдых
раунде
1913
международном
нации
сорока
назначение
желающих
##логия
владельца
##стическая
оставила
попытались
активистов
фигур
лиди
вооруженные
технология
##фим
##нском
представлена
co
русская
восстания
введение
ложь
чья
дополнительно
##алы
форуме
оказывать
намерении
первому
варианте
обычного
коллекции
археологи
возможные
святых
исторического
закончился
гроб
служб
залива
простые
убиты
гени
крупным
##ous
присутствия
носил
##ликов
осуществля
концепции
реальные
изданию
##ign
помогают
населением
специализирован
вступления
колонны
боеприпасов
вначале
стрелкового
сана
дворов
обстановке
ирак
всемир
пользуются
##вающее
депутатом
зеркало
##товым
##28
1916
реализовать
##ey
набрав
дворце
##ks
золотых
шест
сообщество
певица
миротвор
внешнего
студенты
##дарь
позволила
заканчивается
науке
совершили
тва
недовольство
стадион
плохого
выставке
фразу
##aw
культурного
##ings
противников
обман
##феев
et
##ev
развиваться
похожа
док
структуру
##вного
знаки
сквер
животные
формирование
капли
присутствует
паспорта
эффективно
приказу
квалификации
пропу
неизбежно
росту
победе
сперва
одежде
выка
возникают
сада
разработку
утверждения
завоевал
понимали
##рике
подкреп
подмосков
библиотека
реже
бред
воров
находящихся
сынов
новогод
##изм
потерь
продолжит
странам
исключения
украинцы
товарищи
целых
обращении
подпись
горожан
отметив
окрестностях
##чивая
сино
приток
настоящие
мероприятие
проблемами
укрепления
дворян
согласились
##мик
яс
военными
травы
##ann
показывать
данными
дно
поступила
##дини
нарушением
предан
##ans
пищу
медицинского
роты
замену
привязан
клеток
лучшая
проведена
отряды
фактор
спецслужб
приложения
нарушении
применять
препаратов
заслуги
уничтожения
взяв
федеральных
содержится
грив
послан
##тоном
принципы
снизу
##ath
популярность
1912
квартал
трассы
знание
пропаганды
первенства
династии
гибель
награду
выбрали
##фра
пехоты
хороших
пистолета
охотно
паре
штук
реальных
лорд
##тип
четверти
изменилась
бессмер
многими
метрах
собою
повсюду
вак
изго
придумал
каль
##36
горно
объединение
плану
льда
товарище
русски
белым
признает
активисты
актера
добился
знакомства
пулемет
производители
исчезли
полутора
сложных
пользователь
бетон
проголосовали
темные
образа
секс
предложением
перевода
написали
проводились
экзо
хорошую
##нас
имеющих
проблемам
##альное
историк
исследователи
становилось
играла
##тано
разобла
участвуют
запрещена
двинулся
блин
востока
принятие
##тека
столетия
человеке
праздника
входила
соответствующих
сооружения
##динами
колю
маленького
##бола
супруги
постоянного
заявив
##заи
итого
левом
завершился
##ины
гит
площадку
тун
клиент
ключи
вызывают
##сово
опира
рис
едет
дочерью
небольшим
##ць
обога
готово
предписа
требованием
черепа
энергия
##пыт
шестер
голод
##льна
ходом
##fo
просве
1910
##вим
определенных
мекси
изыска
155
весом
переданы
флага
выши
любитель
детские
участникам
официальные
жре
друзьям
занят
кодекса
коллектива
отправилась
свобода
малых
комната
pro
норман
лиф
зажига
секторе
174
согласны
##пур
льду
родине
призван
танка
##меном
##ппи
использоваться
##вке
##нче
сыграли
##гат
давлением
народом
участником
##ури
адап
ожив
занимают
обстановка
религиозных
каба
кван
происходящее
истины
##тивность
зре
предварительно
ополчения
берегов
легких
полоса
средних
сформули
въезд
баллов
##ium
командовал
третья
##жане
предстояло
активы
her
осуществлять
подруга
165
##риз
включить
получился
режиссера
научного
свободе
заим
##чкин
сериал
возникновения
учитывать
коллектив
##жков
напряжение
культура
выступила
преступников
исключение
коню
свободное
десятилетия
##юка
северу
обработки
гнез
закончить
племени
бывшие
атаке
личное
относя
галакти
шпа
предотвратить
долгие
марок
##olog
фильмах
континента
##поло
##енном
мощностью
использовались
аноним
граница
чувством
ког
жалобы
перешла
##дье
обвинил
крупно
методов
фило
суп
назвала
законам
грузов
сопровождении
аро
огромную
консоли
устроил
from
прорабо
##лизма
пояса
доставить
объяснение
pr
##au
пешеход
планета
физически
фельд
##чатые
закрыт
благополучно
присвоено
##34
повседнев
плет
принципу
шотланд
##коп
даты
оперы
ук
фоль
ключевых
проживает
im
утвержден
сильных
трети
целая
##стрии
любому
передали
атмосферу
набо
доно
##роны
отказывается
##няв
предполагается
аква
зау
фур
давая
вступить
епархии
варианта
каб
кля
инвестиции
##bo
сухопу
бумаг
me
копе
специальности
соблюдать
транспортного
медицины
распи
вене
вопросами
туризма
способы
мадам
рога
захваты
##ид
проживало
схемы
требовалось
##ll
определяет
ган
важную
##ната
##новые
специалиста
мосту
##щев
массового
пропустил
заявку
оператор
##пресс
могуще
144
магии
##энь
характеристики
орбиту
углуб
остановки
черта
##ія
симметри
полосу
указано
подозрения
противостоять
##союз
##сион
##тимо
##рел
предметом
органа
упорно
враги
сердцем
потребления
##совые
месяце
общие
меру
фамилию
цикла
занималась
##емому
инициативы
зафиксировано
мистера
##ллера
##ттер
заставили
коры
осуществить
##гун
разрушения
выгодно
##жество
115
##ary
созыва
оставшиеся
иным
отдали
сервис
убитых
предыдущего
вирус
##мь
1500
живым
##ics
велика
радиостанции
##чука
возлюб
отс
##бон
колено
большому
##сман
королева
вертолета
добавляет
прямом
гостиницы
##точных
растут
младшего
простым
вычисли
##ево
расстояния
училища
лекции
большеви
оператора
заключенных
лету
жителями
отчетливо
пламя
питер
##ota
##чьего
##unt
получении
раны
поблизости
присоединился
открытом
##ier
покоя
##шках
##цена
натя
судебных
звука
кише
квалифика
##евым
1900
изучать
импер
порно
дано
участвует
##чур
##гги
гет
преимущества
капи
утверждение
страсти
докладе
предположение
##рованными
заговор
##26
окружающих
##ида
изделия
памятников
сравнительно
пользуется
##льников
переза
##уха
глубины
аспи
гонке
согласиться
признания
параллельно
##валов
теряет
##att
осадков
придвор
организаторы
развивается
элемент
##льских
арене
природа
старались
жестко
азиат
должностных
персонала
активное
сделаны
моментов
колеса
круто
заки
вытес
последовал
ориента
##бова
страдания
##27
интернета
схеме
смотрите
дополнительное
##зни
##тир
телевидения
развитием
##щине
талант
##ict
заявлению
154
перси
поступает
##вичи
центрального
перенести
субъектов
продолжения
ленты
столкнулись
спектакль
заде
##90
повторить
грузи
кухни
крыше
обстрел
птица
сложные
ярких
поставила
песок
планировалось
##фонов
обвинили
кабель
грязи
приглашение
водя
##ler
делится
технические
газету
посадку
колхоз
магазинах
казах
школьников
реального
##uro
кустар
казан
взлет
поединке
реестра
репети
священник
третьим
##ющуюся
условиям
фраза
дошло
принципиально
оккупации
испытывал
перевозки
заняты
свидетельства
подняли
en
мексикан
родителями
ирланд
ня
закончилось
статьям
##ьева
капу
##станция
ора
становились
##оле
хе
##eb
элит
успехов
приносит
##ical
последующие
стабильности
мужу
рекомендации
ере
##джу
проектом
атак
##рею
преддверии
выходили
статусе
ввели
пролета
мяс
столкнулся
организовал
лега
делая
включил
горю
##жив
напряжения
вынуждена
освобождение
необходимое
нервно
##гена
участках
видны
присоединиться
вырабо
##баев
угрожает
профессии
наполовину
транспорти
##коле
перевел
девочек
##листы
собственному
фотографию
учета
совещание
оценка
выставка
неофициаль
надеясь
##нские
юридических
травм
московскому
армян
отделении
произведение
называемые
##ance
мотиви
эфир
экономически
пленных
близости
смело
расположение
##ландия
добавив
замке
иностранные
владельцев
пунктах
резино
предоставления
выдать
оставшихся
значительные
брал
выразить
точке
оптима
красных
переходит
учено
инструментов
оказывает
сравнения
уничтожение
спит
налога
выполняет
вывел
съемо
выиграли
пришед
сказав
##щимся
престол
убо
##ненная
применением
состояла
открытых
##ловым
контакты
##ьями
##фли
приписы
родителям
травму
противостояния
##хма
большего
золотом
купи
пятого
164
менеджер
потребности
##ара
вопросах
голосование
создано
##ствую
женат
решился
песча
солдата
рыбу
погибшего
раунда
##ол
выполнил
следов
политическое
мечты
вдохнов
##ink
подобным
деревен
инициатива
меняет
соседних
рядах
московских
храме
подготовить
производить
полетов
преподаватель
подтверждает
предположил
познакомился
##лс
группового
гражданство
рынках
колоколь
взросло
известная
происхождение
писем
боев
водного
эр
монта
расширения
красным
##мура
##лга
тренирово
покупку
размеры
прилега
митрополи
вызван
полученные
сала
требовали
эксперимент
##дство
экспертизы
утверждать
протокол
получило
вправе
##ial
лекси
постановления
##строения
коля
калибра
туск
приготовления
барре
будущих
##дном
дефицит
расширение
ежемеся
просьбу
типов
предлагал
списки
запуск
##виз
способствовать
ден
весны
подъем
успехи
принадлежал
водоро
приход
перестала
значительное
агентов
открытии
##меда
модернизации
уступил
налог
включены
водных
вспоминает
захвата
##щаяся
потолок
##нде
формат
летать
административных
композиции
единицы
кампанию
разному
руководя
уроки
полуострове
странные
лив
полку
означало
##кара
бывшим
масс
легкие
длину
поединок
рамки
спутников
небольшого
сентябрь
жюри
волнения
##рут
соперников
подростков
объемы
инструменты
предупреждения
атлети
##нков
##изо
сознании
американском
дати
реализацию
желанием
существовало
полки
поставку
имеющие
гость
дур
правды
королевства
обстрела
##ari
главнокоманду
восточных
вспоминал
потерпел
риска
слю
сменил
выступали
боевого
основное
заработал
разума
переходе
изменился
судебного
прочитал
представила
напали
обстановки
надписью
лежат
эстети
кава
ага
учет
##деры
объявления
изучал
ценность
сбил
##чивости
обнаружен
##лером
контролиру
инспектор
##les
тетра
кафедры
урод
воля
носят
##зве
государственном
конкуренции
называемых
приняло
сол
требовал
возможностью
белыми
пута
картине
опроса
крышу
ін
расположенных
##гиев
природных
прессы
##ory
##тос
летию
1907
спутника
разницы
##мие
##orm
помешать
родо
##son
цари
номинации
##ненного
опасных
представляла
штабе
короткие
серьезным
отправлен
листья
магазины
##33
духом
существовании
балли
носа
католиче
ур
советы
##новка
выры
блог
спины
цепи
табу
конкретные
разного
комплексов
научные
помощника
кок
гостях
тяжелое
частях
президентских
милости
хоккею
футболисты
бизнесмен
##ital
мощным
равных
грандиоз
охране
несут
##фора
воины
##вающихся
##дино
##дда
подчеркивает
открыты
установления
##бн
##сталь
донец
уважения
##мино
животного
занятие
##тинского
##губ
референдум
сохранение
окружении
сыграла
отдавать
белая
землетрясения
месторождения
трансли
##альная
маршруту
взве
отнести
сели
##co
выжить
борода
##евича
обменя
##гара
встречаться
стиля
наду
ширина
вмешательства
являлись
заставила
##жени
молодости
прохождения
эго
опубликовано
закрыты
торговле
уважение
желанию
реформи
приобрел
объясняется
осуществления
фан
погоды
разгром
черная
революция
родитель
аут
слух
грузин
##марк
транспорте
лестницы
переселен
чужие
##фре
старшим
погибло
##лор
дипломат
обстановку
снарядов
гарантии
достижение
нагрузки
совершено
##але
клиента
приступа
пшени
##стские
помогал
останки
дату
повлиять
открывает
коммунистов
огромного
##лово
узнав
свин
арте
черте
живописи
королевы
превратилась
белом
мелко
коли
заго
силам
направлению
агента
оставляет
целое
ланд
подала
обрабаты
чужих
отмены
подразделение
сделав
целые
вылетел
билетов
сми
государстве
1906
выплатить
освя
##29
бродя
идее
поездов
изоли
высказывания
тяжелым
диалога
физио
компьютера
представителем
патриарха
регионы
##дины
государственным
168
##нута
##электро
##ничества
умел
зверь
пользователи
покупке
обвинению
древне
задания
поступили
трансляция
сотрудничать
подтвердить
взглядов
сторонники
##эна
обычным
выстрел
обещает
объектом
чиновника
рассматривается
подали
уходя
печать
надзор
центру
иностранцев
1911
высе
проволо
возможного
старт
аудитории
##orn
##вени
страниц
частные
предсказа
посещения
рэ
посадки
нава
собственными
спортсмены
массовые
интегра
нагру
скором
разбо
шве
##нс
гору
губернатором
проявления
скалы
подписать
чая
родов
цикл
работающих
##сиа
##точные
шеф
##лины
подтверждение
великих
##38
торгового
бил
##метра
симфо
##щенным
структуре
серьезное
##ction
всячески
##кис
158
сравнении
капель
заключении
дама
167
##линского
готовит
тренировки
выехал
квартала
1904
впечатления
одиночку
аннекси
точности
способствует
ветви
проведены
пьян
ноль
##щенное
представляли
пользовался
сдать
ядови
собственном
##нева
рынки
коллегами
##37
человечество
распозна
расположенные
бюрокра
агра
проживания
запрета
утили
450
фразы
объявить
##own
образован
промышленность
командующего
направо
##гю
##нено
##ленности
славу
##мм
ведутся
бока
##вающую
##даре
##ake
побывал
дон
лого
знакомы
приоб
##льны
богатых
исправить
##фет
##курс
плату
чтения
изобрета
колы
появляться
подхода
##land
периоде
козы
механизма
вокзала
создают
женского
жениться
изучение
нанесли
улучшения
пакета
ненадолго
поединка
неизвестные
полы
влады
##шня
купе
##венно
зависимость
лучшую
превращается
надежде
ща
знаков
британских
брату
установка
предусмотрено
являлась
молодежь
##ert
затраты
облака
батареи
##жском
борта
совещания
некоторыми
166
жид
##сина
отсутствием
##шных
городские
освобожден
списа
железо
##неров
предполагалось
##ська
фирма
выдал
отметки
преследования
##гс
стандарты
всякое
женщинам
комиссию
выдержал
форум
рассказывают
шага
личным
правую
альянса
управлению
сказки
предков
кадры
партнерами
существ
##цкие
черту
иу
##рони
бары
##ux
пожаров
указания
пациента
спутник
кошмар
учебного
встречался
усилить
прямого
завершил
##стор
##монов
сестру
крыша
мечом
обеспечивают
охрану
##sk
торжественно
имену
##тине
ставка
отставки
рака
процедура
выпустила
стрит
куби
рассказы
пятидесяти
преобра
##сио
##ena
четвертого
мужество
звери
доставлен
##ав
уровню
королю
министерстве
сборник
платформа
восстание
##ove
##af
заложников
эвакуации
вершине
психологии
##нове
1908
мифо
надел
курорт
предположения
следующую
информационных
расширить
евреи
возглавляет
официальное
работах
знаменитого
вера
окраине
доступен
заменя
веса
##чите
епископа
подво
короткое
развод
накоп
церк
персонаж
больного
продал
ток
последовательно
##any
временного
продолжая
грех
гни
парламентских
мышцы
##соном
проблеме
конфликтов
аксе
защитников
иллюстра
сильная
русскими
болельщики
##жника
процедуру
##вите
сочинения
промышленных
мусора
открылся
##up
сражаться
древние
близкие
футов
##меров
##довая
соответствующее
сменить
ох
сырье
высшее
каш
основатель
торговые
партнера
##радо
похода
##стона
конференция
считаться
кресто
законодательству
##ays
встро
направлениях
##гене
общение
документах
##сян
русскоязы
##дзи
##льцев
родных
##прин
любим
двигатели
ставят
конструктор
углом
аппаратов
##вная
трон
партнеры
теорию
пилотов
график
высу
эскала
рубеж
библиотеке
салоне
построены
стратегических
ути
свадьбы
исполнять
##сными
сделку
направлена
сенатор
записать
центры
зарегистрировано
исторические
русскому
охраня
декабрь
производится
облик
##вань
образцы
противном
дико
уволен
руль
зеленые
департамент
подруги
употребление
##щаю
##ode
быстрого
##ловка
языку
выслу
глухо
корни
##нян
запада
племен
профессиональных
автомати
довести
питание
напал
пассажиры
привлечения
##тону
освещение
исполнилось
пропуск
местными
##uk
построено
##цет
гражданства
##лкин
серебро
необходима
разрешить
##фильм
считаются
вероятности
адреса
мышления
пригород
пятна
короче
рабов
студент
помогло
национальную
прова
отеля
гражданами
петербургского
ездил
запустить
окружения
старым
##шир
производит
подарки
обоб
актива
210
репутацию
основал
бабушки
священника
ранга
заключить
почты
джу
слабость
оказания
порог
посадо
помогла
приходили
совершать
благодарность
домашнего
тяжелом
перело
прохлад
врагом
принимала
мировом
##коне
простого
народы
испытывает
черном
##рованном
выпустили
компаниями
противотан
чтении
ресторане
опухо
##roid
четырьмя
отражение
ветерина
продюсер
занимать
открывается
итальянского
старается
бактери
##ve
##ханов
замечает
разрыв
атака
границах
барон
##польского
куку
сохранять
взамен
поэзии
электронных
предупреждение
спасение
##шуюся
1909
##кине
разбор
потребность
примеры
##ватель
музыкант
уходят
любым
выпустить
вплотную
праву
ковар
противником
##тическими
удостоен
нестаби
поступок
советское
определенно
коже
прилага
лоя
лук
алма
##rid
встретили
вернул
фестивале
профессионального
##гори
гнева
тракта
##рную
применяется
снят
огромных
кура
отель
вакан
##зана
дамы
##вна
левого
необходимы
сказо
##air
156
106
выезде
##бол
целого
зубов
композитор
передача
инопланет
чудом
бота
прибре
##дене
символом
издал
104
запасов
подписания
рези
увеличилось
мату
арестовали
капиту
построили
совмести
вузов
улучшить
вагонов
кампания
прямых
##ger
аму
замкну
##стина
##мем
приговора
##части
учесть
противоречит
сохранились
##инь
агро
##риал
распространяется
уважением
##тум
прошлым
ранних
опубликованы
мобильных
московском
анонси
глубин
протест
диссертацию
бежали
заводов
империя
убивает
##mer
записал
##чивается
скам
прибор
прорыв
бытия
уничтожены
роде
справедливость
готовят
щедро
ресурс
копеек
образца
демонстрации
организациями
частного
сомнение
полях
повести
глубину
##зинь
проявляется
помощником
сахара
маленьким
сообщению
фигуру
состяза
##сского
породы
имено
дивизиона
природу
клин
следователь
применить
великим
220
прежним
размно
находящиеся
боксер
брали
выража
жалоб
ях
положительно
подарил
##рдо
позвоно
арестованы
министру
совершения
##bus
государственную
примером
##евро
желал
опубликована
шеи
128
выросло
химии
гора
достоинство
антропо
##виса
арт
нац
движу
умирает
очевидцев
миссия
посольство
третью
шиф
жилого
лик
учреждение
попадают
цензу
сервиса
попало
##con
отмечал
украшения
баланс
космосе
ода
ar
сырья
доклада
приводят
##вию
погреб
рабочим
ограничение
островах
считала
полеты
трансфер
интересные
##льские
голубые
##чане
гимназии
коммерческих
живого
кандидатуру
длинными
летнюю
##вавшие
##лита
эволюции
лом
двенадцати
снис
##хэ
убежище
##лите
169
украинском
пользовались
сложная
лодка
данная
западного
гау
собрали
проникнуть
дало
135
рабочее
иностранным
раздела
лучи
изображением
##риков
денежные
севера
конституции
обстоятельство
уе
##фик
цено
незадолго
прошедшие
природного
обнаружения
дум
лазер
потребовали
листов
профессором
сара
##ner
молитвы
командиров
зерна
гиль
музыке
набрать
почве
вытяну
пули
казар
таб
##гова
солнцем
произвести
интересам
пункте
##дными
снимки
добрался
способов
январь
вагон
разделить
пригласили
колла
##ровича
бывшая
глазом
##дди
монастыре
послание
ведущие
игровая
##орк
резолюции
единства
справо
певицы
вничью
фанаты
музыкальных
соответствие
скандала
индустри
приобретение
событиями
негативно
критике
##тично
монеты
продукта
прогресс
принцесса
##ванная
##ward
октябрь
##39
пап
пил
114
аудио
польского
маслом
экземпляров
виден
давала
собрании
##ценко
приговорил
разработка
поляр
##amb
одобрил
движется
вратарь
признакам
траве
зимних
лепе
встав
схему
##чивым
атаковать
пламени
различным
устоя
снаряд
западном
полосе
символиче
конгресс
мебель
желаю
заставило
доказательство
##ненное
изредка
фарма
факта
указывают
матри
правого
фиг
инвалидов
терра
пресса
##мбо
политолог
признала
группами
зиму
похоронен
переворота
находят
обслуживание
муд
состоялись
индекса
предыдущие
сумела
счетов
##пут
папы
погибла
вторжения
обход
различия
##ivers
законодательством
комитете
дошли
##змы
токси
##ревич
афган
измерения
обеспечению
меню
продовольствия
свободных
церемония
интеграции
средством
##ike
##товского
существующих
долине
##бс
##знание
##водства
центральных
##деля
3000
изучить
верхом
силовых
урок
захватил
##row
##тонов
последующих
юности
допустим
##ода
##itt
камнями
загла
вызывать
высказался
значительную
бокам
левую
родном
##стская
материале
называемого
##цио
читатель
громо
считался
отрицательно
избирательных
##red
общественные
чин
предельно
соответствуют
участвовала
мужского
##uts
учение
проспекта
подписи
браке
вспомога
##ндин
прямые
правилами
ветром
##oth
157
отделе
мучени
поднимается
тест
реоргани
##бали
зава
смена
решается
обыграл
##жоу
дос
упражнения
механизмы
сантиметров
изменил
##ъе
ab
деревень
описывает
прибытия
наступает
##динов
победила
числом
населению
физ
##стером
особым
номере
будди
кандидатом
близким
легким
дитя
перерабо
оппозиция
##дрин
верующих
персонажа
##ловского
лекарств
адмирала
уступ
отошел
ответом
плоти
вдали
экономии
проживали
афи
нуля
боец
##топ
направили
ворон
нью
мастеров
##ords
услышав
колонна
обращается
##uch
страсть
##ys
споры
дна
присутствовать
##маш
частиц
отро
##генов
хранить
страдает
##оса
суду
##метр
костюме
##тян
черными
зимы
шума
лап
##ral
##рум
##лики
вах
мечтал
атмосферы
мотивам
планету
трансформа
затрат
деталь
подводных
победили
##мак
удовлетворя
117
##тини
##to
элиты
обычная
кошка
нападении
описал
##ater
раунд
передан
##дере
ядерных
ник
подтверждения
крыло
##унт
расшиф
технике
признают
des
принципов
запретил
прови
конкурентов
##ционному
##суд
##кот
приклад
однои
похожие
уничтожил
превратить
эро
коллегии
##рованно
баро
вершины
##гров
техно
##рующего
отсутствуют
содержанием
промышленного
строительных
родом
##уголь
##сак
творчество
открытого
казаков
богатства
предлагали
мирно
заводы
публики
116
ткане
##рным
веще
продолжила
проблемах
музыкантов
гене
##вне
##нность
мощь
металлурги
сделана
выступала
считалось
современным
вступили
опубликовала
облож
камере
печат
километра
мрамор
мемориаль
##минг
охрана
мара
неизмен
зрители
умерли
разработать
открытое
##цких
обещание
неподвижно
прогресса
she
товара
течении
##эш
анима
сингл
красота
неизменно
городском
раннего
обратном
бывал
пробы
##its
французов
человеческие
гостинице
муки
124
национально
образованию
заявки
шире
крупными
пальца
сохраняется
картинки
соверша
самолете
уна
страхования
сок
приложение
черную
некро
лев
##мал
##инга
капитаном
способами
нападающего
освобождении
сценария
компакт
железа
##боли
узел
сложилась
##рог
хирурги
##let
##скова
поселок
популярности
продукция
выражением
##шаяся
морю
предмета
зомби
народные
дуэ
живые
головного
оспари
городок
положением
##уд
пуга
черным
банды
воспитания
логика
широкие
актов
добровольцев
петь
бензин
разыгры
##rag
принадлежности
мороз
поездку
##нично
проведению
женщинами
канцлер
школьных
ствол
автомобилем
загра
пират
материи
уход
бумаге
строчку
проспект
лодок
1890
изготовления
1897
акционер
##дорович
лодку
сражении
носили
##шт
старую
космети
ссылку
трем
101
космоса
ави
сражение
приключения
##ька
тонкие
рисунок
спортивного
##иска
жемчу
прямым
методом
перемирие
сельских
цифра
местность
федеральном
щит
##видение
такова
палате
сознательно
недостаток
относился
портала
использовался
примеча
гно
юга
приобретен
али
алкоголь
железных
категория
отбор
протестан
##шенными
героем
смеши
кабине
наличия
важность
присутствовал
have
усиление
широкую
сорта
##жик
установок
вещество
возвращался
##ley
тексты
садов
реви
##кевич
##томи
сериале
увеличивается
рес
курсу
введены
маме
шоколад
происходить
уголь
расследованию
выполнены
отправляется
определенного
do
отличился
введении
##вон
местном
вооружении
каналов
расход
морские
стенами
защитил
нед
##yn
поддерживал
простое
1903
осуществляться
совместных
пятеро
отрядов
угроз
сыр
роду
богат
сау
плоды
##яна
скопи
преподавал
редакцию
горных
отчете
периодом
рынков
владельцы
советника
отчета
##ero
родного
внешним
присоединения
отмене
условие
признаны
договору
представляю
футбольных
up
основную
длины
племена
коллега
функция
певец
##дд
июнь
вируса
остальными
кадр
построил
##гле
##дома
листьев
держится
отеле
комплексы
##ise
исключить
##ппер
колес
добле
течению
психиатри
выстрела
проиграли
баре
мадри
неблагоприят
##ada
фактором
содержат
трапе
##виц
рем
четвертом
форси
сменя
плата
поклонников
скот
холма
группировок
спасает
##кі
означать
музыканты
принята
пили
морем
##денко
второму
увеличилась
палом
доставки
жидкости
145
родила
пользователям
нога
книгах
пропи
пасту
ссылке
102
замены
##таре
читает
##iel
национальные
доклады
деда
усиления
118
диска
хранение
регистри
образец
бала
демонстрирует
написана
послево
растение
страницах
равновесие
спортивные
##бана
вводить
отечественных
сложилось
метрополитена
укрепление
##udi
отличался
факторы
предприня
эффекта
необходим
единственного
##нея
возз
##левых
ассоции
восточнее
наставник
прекращение
рабы
рецен
тенденция
уничтожили
консультации
занялся
законе
балет
зеленых
шара
впадения
страницу
доски
физического
##lex
приватизации
se
##роси
насилие
умение
союзники
концерта
юрист
хана
чистая
сак
овощи
предоставлении
академию
полезно
служат
западнее
авиация
тока
##ale
сюжета
дог
##хуа
all
прекратил
домашнем
карди
фри
##нты
##проект
##шник
держат
идеологии
немецком
экономическую
статистики
ссылаясь
древнего
описать
тяжелая
записку
греческого
предлагаю
трагедия
проявил
мировую
праве
##графию
предприятии
ара
присутствуют
материалах
родным
низким
проживают
очарова
залог
заключению
наилуч
советская
услож
передвижения
приобрела
методами
реализация
1902
оказываются
##лт
зелен
тяжелого
публике
завершении
веб
экрани
##вшемуся
погоду
возможностями
##летняя
отрыв
интегри
показывали
приступили
постоянных
отрез
норвеж
подобная
примеров
применении
намеренно
примере
приведен
сущность
опасаясь
##32
препараты
##бак
##ваемого
основание
данную
балета
высокое
вине
ископа
высокими
наса
org
тонны
недостатки
контролю
выполнении
соответствующего
перемирия
англ
отражает
карма
южнее
##става
жительства
##низм
площадка
##бот
небольшом
закрыта
##рие
пин
единство
##нду
предпочитают
владельцем
запланировано
доступны
прожил
дисциплина
##чав
инструкции
перемены
##троп
общественно
##теи
феномен
жертво
атмосфер
воссозда
экономическим
вправо
коти
образы
добыча
производителя
немногих
взрослые
называются
сконцентри
маркси
яркие
наладить
созданием
пош
##фар
оскорбления
осуществляет
обладал
студентами
культуру
течения
преподоб
##rit
зарос
романе
кошки
##цком
состоят
экрана
наблюдение
играю
северных
##зв
занятости
фантазии
редактора
пнев
валют
мальчиков
##чивые
выпускать
реестр
пролив
убеждения
##муд
автобусов
использованы
##ппо
помогали
##рующим
правед
##ровы
##мунд
частями
образованием
взаимоотношения
127
идеально
противостояние
##лька
плавно
кругах
##мари
цепь
опусто
поступления
участника
выходом
приступил
отремон
членам
стражи
постов
атмосфере
зверя
фабрики
оставляя
##хэм
соборе
pl
финансовую
ткань
выстрелов
##нцев
параметры
близок
ввел
126
присоединились
акционеров
сигнала
живое
конфликте
видение
лондон
праздники
служили
океане
долгих
столкновение
старости
лучшему
##техники
общественное
съемки
##дник
обладателем
##уэр
городке
строения
##ткин
гитлеров
крушение
серые
вли
##ик
##po
##нически
##хол
заказу
##тны
отзывы
залив
техническом
французы
диагноз
распорядился
люд
сотрудничеству
работник
##евка
располагался
советов
атмосфера
направленные
##ствующим
што
показ
##enc
мощи
переехала
французские
##корто
авария
диплом
поступают
моряков
располагает
сати
насекомых
относились
перерыв
маршрута
сборных
чье
двоюрод
папи
государственная
личном
округов
опроверг
предоставление
прикреп
##lect
крымских
добились
##ke
пьесы
тетя
кота
беспорядков
дяди
военнослужащие
камера
железнодорожного
экономическая
пятно
##гл
##лас
конкретного
особые
важна
снизилась
пещеры
предполагал
геологи
##org
вв
свидетельство
ели
охоты
били
ноябрь
240
комиссар
сроков
шасси
старому
реализу
совместного
##рана
##льским
##няков
польских
нен
блага
носители
оркестра
##дении
платформе
первенстве
##щимися
##99
лесах
##me
свадеб
оценили
досрочно
наступил
персонал
подполковник
белое
разошлись
спарта
институтов
старших
полуостров
ядра
плит
сибир
скру
лобби
нефтяных
аэродром
скончалась
простая
функцию
прибыла
реальная
каналы
присутствовали
моложе
сферу
существовала
ученик
контракты
образовании
запомина
расчеты
эконом
предоставил
испытывать
бин
выполнял
##ana
содержать
отдельного
ресторана
беременности
здоровьем
##ниса
японских
##тун
экономическом
сигналы
чтение
торговля
мурав
народе
широкое
появлением
включать
ракетных
итог
животными
##anc
##пис
климата
мобилизации
убивают
попадания
134
хали
оказали
иностранного
перевозок
метр
местам
представили
разрешил
называлась
исследовании
соединение
культурных
1901
разное
партнером
обзор
отража
прост
архитектор
##бру
чистого
указанных
1200
забор
моды
##филд
математики
металло
планировали
пети
передавать
катастрофа
##nik
сферах
тома
навыки
ун
148
непрерывно
виноград
##ald
уехала
покинула
озвучи
литература
коробки
стремятся
индустрии
испанского
##ническим
лорда
##pl
учителем
##ствовав
недавнего
капри
названа
##яла
учреждениях
столб
заключен
излучения
застав
заведомо
царство
проиграв
мертвых
раскра
организме
операторов
телевидении
##enta
битва
исполнил
соав
золотую
##нот
множеством
выделено
крестьяне
мероприятиях
монархи
классы
потоки
договоров
поводом
блюдо
##rist
искусстве
размышления
кодекс
листо
заблуждение
дереву
прозвище
умно
темных
вертолетов
биржи
##пл
сиро
наклон
брас
ранение
англичан
исключает
маска
стихов
отделом
орбите
происходили
##зировал
социологи
##фен
проводиться
метода
копии
видеока
последовало
завоевала
##гуа
оперативного
составом
единица
контактов
красными
традиционных
зима
богослу
познания
##щееся
##vel
комик
##ma
прекрасная
сошел
ветки
##31
образцов
фотография
фондов
вмешательство
крупная
поврежден
врата
тота
шпион
люк
проезда
независимых
некоммер
возможны
разряд
передала
##ini
съезда
изучению
влево
мячом
пир
фанатов
марша
каст
поверхно
##дерс
##лум
направлениям
строки
##лио
аза
монахи
воспользовался
дружбы
избегать
впа
кольце
дивизион
свидетелем
сестре
приказы
окнами
вызова
свечи
преступника
поставлен
разместить
##альным
дальнего
суды
занес
ценных
##na
бас
111
смертельно
##ловича
керами
##хат
##рило
снижению
долгого
##ллина
##нового
содержимое
напоминают
образовательных
прежние
правление
рассуждения
ограничить
коммунисты
турнирах
воспитание
##пон
тонко
##ническое
5000
двинулись
климат
разбился
##алов
##ott
примера
нужд
##фир
##ствах
##щица
концерты
расположенного
филиала
орденами
занимали
восточном
темати
146
одиннадцать
##тологии
##bes
обладатель
телевидение
вернули
корпорация
тариф
хак
землях
дополнительного
возникнуть
am
пород
музыкального
груза
##зировали
no
устья
рассчитывал
положительные
местное
пустыне
отходов
карьера
преступник
некое
подза
аромат
выборе
премия
рожде
##нистов
блюда
представителям
чемпионатов
съезде
плену
голово
##аа
разрешением
нежи
существовали
понимании
показывал
скота
включают
прежних
убитого
##моло
памятники
лидерами
##ase
стремился
проиграла
предоставляет
us
пятнадцати
портале
цвету
распоряжения
двигателем
##rian
круге
потенциальных
внешние
орг
##дни
##line
ах
полуфинале
предполагают
свети
городка
диаметром
пациент
выиграв
пригод
закончились
источниках
сельхоз
##osh
медалью
анк
ученики
указом
финансово
назначена
приче
##тенберг
устанавливается
французском
необходимую
приговорен
пользования
ad
принципа
выражении
авиакомпания
лесов
сделка
меча
достигло
совете
подробнее
прокат
краски
прогрессив
техническим
размы
защища
обществом
чудеса
ставится
##тыся
редактором
##кало
охоту
##стол
воскре
мотивы
корм
величине
невро
концепция
флагом
отталки
##исто
звуко
bl
разведку
представлено
узнают
постсовет
становилась
сохранил
холдинга
озере
англичане
##фами
принадлежала
##рских
металл
американскими
богатство
##льское
лоп
тысяча
суждено
##изма
переворот
красная
##жец
##err
столица
рег
представительства
разделе
##шного
сыновья
назначении
посетили
блокады
постоянное
главном
129
дополнение
составлять
терапии
конфедера
##box
возлага
завоевать
##моро
материалам
отечественного
пересечении
несостоя
##пса
организовали
имелись
решив
вих
входило
посвящена
удво
приступить
общин
результатах
задолго
молдав
носителя
очко
смеси
подписано
провал
увеличился
продолжалась
##льи
актрисы
газетах
полузащитника
загрязнения
случился
восприятия
кантона
лор
труды
ел
принимая
настоящих
диапазоне
##ппе
клубу
оказывают
повин
мировая
темпы
интересных
признана
решают
##оло
рассматривал
черное
##сик
рыцарь
##бры
осень
##47
колесо
замена
##ble
##гос
опрос
серо
##люк
танец
поддержания
спад
фактом
настаивал
обществу
республика
вратаря
усилиями
147
звуком
реклама
but
домик
менеджмента
мертв
национальности
##рное
плече
радиоак
необходимостью
сдачи
стратегического
инстанции
точностью
длинных
ответов
владение
мечети
духовного
японского
##ited
салона
пропаганда
объемов
1899
##план
трава
##цки
частицы
температур
ложе
переименован
обращался
контраба
важная
документами
##стив
внесли
номеров
заведение
синие
сотрудником
жертва
1898
эстра
комплексе
хер
фрукты
вырабаты
приборов
родные
написан
предлогом
превратились
##чностью
назначить
взлета
сходство
обеспечивать
cl
##лос
опасным
рассказов
номини
жидкость
##дос
лесных
предпочел
змеи
диско
алле
критиков
вступает
расы
фиоле
дракона
продуктами
стили
прямое
1896
зав
креа
мероприятии
управлен
тенденции
бру
сформировать
бедных
136
снегу
мирное
камнем
беседа
переправ
немецким
охота
##бека
варвар
##лык
охваты
##чкова
шлем
определил
##группы
скрип
значительная
##port
парус
ночного
усво
малыш
##нети
госпиталь
##вист
дракон
славян
коров
бежит
просмотра
##ount
продолжалось
южных
делегация
состоянием
установку
железная
##дович
149
обязанность
отныне
потребовалось
череп
отомстить
эпизодов
реставра
обзора
лобо
естественным
написаны
сбежать
спектакля
неудачно
##рте
статистика
##oto
конфликты
монаше
традиция
шт
стабильность
##дун
шахты
металлов
предварительного
##gel
планировал
снимает
переходить
долины
связывают
1880
направленных
приобретения
гравита
плотность
уменьшить
закончила
парад
устранить
боевую
специальная
мака
обычное
герба
называться
чемпионка
заключили
американец
цыган
неделя
большевиков
##ition
немецкая
брау
игрушки
прижи
дыхания
119
преступлениях
март
возбуждения
патронов
мала
экологии
специалистами
1812
гектаров
круги
тона
трудов
отдельным
жилые
именами
##шкова
серебра
зерно
mod
##бэ
казнь
перевели
несли
колледжа
температуре
верность
государствами
адапти
повстанцев
ученого
корабе
мониторинга
теоретически
экономическое
потребовала
стратегия
рабочем
сборы
башня
##мала
бизнесе
буквами
слан
поставлена
тяжелую
фле
полные
неоднозна
##руемых
прогулки
пассив
желательно
иеро
чешу
alt
условиями
покончить
встречах
воспроизво
размещение
возможен
стабилизации
событием
отрицает
объявление
банком
##ican
льви
координации
буржуаз
обновление
уплаты
him
ссылка
750
отличи
обозрева
эры
объединить
боковых
net
перелом
воспроиз
##семе
плот
##por
поправок
1860
##щуюся
##льс
анархи
священно
пружи
журналов
старте
орбиты
кель
##еве
многократно
отступил
соглашению
лицензию
хоре
видам
высвобо
королем
препятствия
слуг
##вского
сравнение
проектах
коалиция
стои
могилы
коммуникации
##ницкого
международное
##able
яиц
равна
бизнесом
организован
переиз
отмечено
узлов
баз
this
ибн
текстов
заднем
провинциаль
инженера
корона
мемуа
фли
разработчиков
создается
определять
разграни
комплекта
выходила
комнат
##дорова
намерение
предприятиях
стратегию
учениками
дошел
пластика
регулирования
заверша
##шон
гусени
соблюдения
арабских
деревянные
назначили
##хана
показало
многозна
торговлю
впада
комедии
подтверждают
глубокие
поездок
основными
профсоюзов
утвердил
1870
переживания
##шевского
##саки
аналогичным
длительного
##льфа
старое
оркестр
привед
приборы
баба
указывая
1895
акты
древности
акта
космодрома
##етт
претендентов
телеведу
my
##erg
определенное
проведено
одними
бедности
стартовал
надписи
техническое
корне
оформления
лав
вошед
величины
артиста
##шегося
назывался
звездо
жизненно
соответствующим
трибуны
операциях
объемом
аргументы
подразумевает
религиозные
яз
импорта
архив
##ропо
обувь
було
батальонов
полезных
длится
указание
##сала
видения
##дском
механизмов
сторонами
##ир
существовал
храмов
букв
проводила
равнове
счел
##lines
широким
##que
имелось
137
строится
info
условием
##urn
корпусе
дедушка
влиять
138
социал
последовали
##ел
определению
наследство
поддерживали
##ames
юмора
кабины
французским
советским
компромисс
##дорф
##стическую
вторг
занимала
двухэта
постоянным
лодке
con
внесены
низких
so
маршруты
пунктом
массово
мач
международная
элементами
соро
держав
отверстие
автономного
отмечали
##ull
апелля
песка
костер
завет
широкого
вокзал
ne
нама
мак
плавания
удовлетворения
копы
велик
построения
воздушные
инженеров
единую
произвел
управляет
классификации
покидать
триста
экспериментов
семена
академик
##ич
слабым
##зированных
##ures
начинаются
способа
мю
густо
гул
##ото
государь
##вины
робот
бывшему
временное
защищает
признак
испытание
региональные
##лоб
##шова
орбита
лишился
банд
упоминание
##ven
экономист
стоп
возвращаются
##шееся
расположения
импрови
художественного
располагались
##фиг
национальная
аргумент
большинством
##шимся
прежнего
##шникова
##хер
##ндра
акцент
артистов
приграни
протесты
острые
##дта
кислоты
указать
электричества
##ko
лаборатор
расчи
употребления
великое
пересека
мура
местная
строгого
особенность
ценные
собраны
стира
видами
шестого
человеческое
монах
историко
выдачи
активную
##ush
пласт
православных
царства
лампы
хоккея
122
социальную
##вавшего
алюминия
плато
видна
надежность
##жская
лига
железные
специальную
соотношение
передано
селек
разрыва
ружья
перемещения
появлялись
признании
##вающиеся
##градского
весна
внутренним
исчезает
министры
луна
врачом
обоим
религия
гуля
##oss
изуча
разногласия
знамена
##do
маску
саха
территориальных
мам
##рино
увольнения
банкротства
заготов
спортом
##данов
низкие
водах
свист
коллекцию
неизвестных
являлось
are
иконы
логике
атаковали
шор
корр
убежища
принятии
кислород
##жаем
отличались
палата
внутреннее
исполнял
отличия
порядку
##шн
наставника
легенды
исполнить
фронтах
##48
переведен
феода
документации
фирм
посещать
103
политическими
переулок
обращались
дино
##левич
пролет
слепо
владел
концентри
улучшение
напитков
нахождения
##каре
нескольким
победителя
белую
населенного
начинаю
фот
##ps
многочисленными
целостности
##aster
содержатся
паром
подъезд
свар
подго
топор
сыграв
разработал
стрельбе
экраны
we
##ковская
медицинские
личную
собственная
слабые
##жор
выполняют
ставили
концепцию
принадлежали
утверждали
пане
##пати
ставил
высшем
деления
диких
физические
затоп
автономии
редких
контролирует
серого
##строение
земельных
популярностью
восстановлению
голливу
спорту
##аки
возглавить
##бари
синтети
вручил
знакомство
поручено
ритм
мировые
хаос
участвова
демократия
предки
отдели
панели
секции
манер
##рочно
дань
отбора
монополи
ro
##туро
вагона
державы
гласит
детство
##мериз
результатами
позы
резерв
открытые
престола
##ливает
газом
бомба
прони
демократов
выкуп
##ny
окружение
конгресса
##цип
опираясь
сняты
живущих
##сону
небом
служащих
отказе
взвода
молнии
толка
архитектора
пуше
суммар
230
куз
надежно
азо
приняв
фрагменты
жанре
отметился
признается
компьютеров
повторно
одержала
##кун
##центр
зрение
казаки
посеща
важны
дально
князю
разрушить
концентрации
дубли
##лизация
пух
летним
съезд
среднюю
работами
автомата
хруста
основанием
перека
покор
почвы
концерна
##пак
сопут
учащихся
информационного
оки
свету
##чатых
княжества
безуспешно
входящих
уступила
севернее
ула
боеприпасы
стандартам
рассматривают
жалова
тара
телеканале
впечатля
уходе
заграни
рома
облако
специальное
звании
поезде
деятели
##низма
##erm
август
##rat
казино
насчитывалось
продолжительность
##вающими
руд
неча
физкуль
внешность
ra
истребители
##цким
##шар
кубин
дефицита
железнодорожных
муниципальное
добросовест
проявляет
прорыва
огни
сугубо
col
фокус
близки
тупик
биографии
разведка
русскую
экзамена
случаем
туров
заключалась
мощные
дубль
##перов
покрытия
сценарию
серьезного
астрономи
литературу
1892
знака
активные
##ubl
лауреат
барьер
жанра
полномочиями
хранится
британские
вождя
настроении
летнему
научным
популярным
гладко
##штадт
покидает
ярким
##як
подземных
расследовании
миф
соединя
оказал
##шна
собирает
абстракт
современная
глазу
плу
вызывали
футболе
окт
потребление
эксклюзив
резиденции
врагами
поведении
любимых
эксперименты
слуга
устанавливать
##сав
нормального
телефонов
соответствовать
замужем
маку
запустил
критика
судебные
типу
логики
химических
массе
устанавливаются
##ппа
320
праздников
правительственных
поведением
беспорядки
женских
музыканта
##пив
восточного
осуществление
##alt
дуб
быстрым
красавица
противоречия
главному
штурм
ани
##гини
снятия
празднования
небольшими
физиологи
автодороги
отменил
##ччи
редкие
бренда
плаву
спутники
распредели
воевал
политическом
периоды
отрасль
бухгалтер
великая
баб
поездка
штатов
элли
кислорода
выявля
великие
плоскости
контракту
пристав
потенциала
кузне
##нать
проводя
ледо
синдрома
##зян
колебания
##шах
стрелы
формировании
мести
##роу
богаты
листа
братьями
протокола
барабан
падении
замечания
гранаты
сооружение
минометов
мужчинами
масштаба
отлу
ученым
вступила
свободным
дика
включен
сочетании
##com
показателя
внутреннем
обуви
провинция
полагал
совершал
способных
попла
ова
mail
библиотеку
пушек
медведя
сирот
прес
полдень
некоего
нагрузка
фермер
националистов
даче
##wagen
##иды
длинным
изменении
консерватории
проходило
предложено
миссию
постоянные
##етин
особую
лебе
##цкое
конструкция
горько
##кат
опасные
колледж
старом
декларации
##ствующего
оборота
##ck
юр
створ
бомб
демона
сбит
полон
заболевание
курсов
152
##силь
ист
тяга
ранено
штам
##уи
##джо
слоем
криво
совершенство
##сях
реабилитации
пророка
субъекта
владели
зеркала
характерно
резерва
уст
##ement
характеризу
подходят
out
организована
юноши
##бию
арк
историки
распределения
филиал
создала
органам
орудие
ками
советом
медицине
споров
умело
совершила
территориального
тормоз
палату
пани
свободные
указаны
рукав
##олог
доходит
##вилл
совпадает
приезжает
христианства
вариа
активного
пали
пром
богатые
миров
##ze
##ius
романов
изре
порядком
реальном
##рном
вето
##ric
морали
проспекту
кладбища
единственно
коше
нагрузку
подчеркнуть
могилу
национальном
##ляем
захоронения
изменились
неудачи
объединяет
1889
специальным
исчезновения
совершает
рисков
##тирован
##68
##нером
сдал
маршрутов
окончательное
посвятил
продвижение
позволял
дошла
извне
электромагни
доказывает
прочно
вторжение
секретарем
постановки
детском
лі
подвиг
распрода
расчетов
ось
аннули
генеральным
обле
договоры
резким
стати
назвав
##ats
доступна
исполкома
монумента
мирные
близкого
наво
освободили
актеров
прошедших
яд
жесткие
казахстан
##зки
называемая
классу
##кинс
ударами
входе
##дства
сервер
##новая
науку
серьезную
беспло
нараста
##ническую
сезонов
перифе
пустыни
нормальных
позе
удерживать
запланирован
сурово
входить
аналогичные
ростов
символов
кошек
родились
размещены
##рре
напитки
рассмотрении
административном
защитники
прослав
снес
##рион
объяснял
гражданские
##led
апрель
##живания
латин
анд
сал
костя
обозначения
эмбле
автомобильных
пал
требованию
##тво
медведь
##рево
коммерческие
дик
миномет
переко
любимая
морально
гражданская
тексту
культурно
носила
персонажи
печени
покушение
катера
##ствами
производством
диспетчер
сложным
второстепен
повышению
пятом
il
##рующая
бега
сохранилось
##ковском
1894
цветом
##компания
мировым
коре
##ream
явились
несуще
духу
##лие
##ars
обычном
нуле
неформа
##45
уровнях
конверт
пуля
резкое
национальным
автобусы
рождествен
подготовил
связывает
снижается
обнаружена
https
тренеров
презентации
##канал
легенда
продвижения
лан
образуют
государственное
##ловых
тылу
художником
участию
фос
французская
овер
1878
июль
почву
робота
воина
1885
##чкина
повышении
красную
степи
отказал
длинная
фура
шлема
##региона
исполняет
приобрели
рабочая
революцию
##экс
вспышки
русское
среднее
проста
разогре
стандартов
весть
левому
##нир
требованиями
але
ислама
##емен
руководстве
выпущена
##нское
титула
##глав
кадет
турецких
росте
игрового
установила
принимаются
пароход
чаше
фик
ремеслен
князья
педагог
фонды
##ици
получены
##скопи
лесом
##нцы
установление
парали
хорват
поляков
##ленда
прус
левых
фильмом
##ions
могиле
##нефть
архиепископ
запаса
уступив
сделало
1800
su
##oot
восстановлен
крыльями
драмы
публичных
царю
требуя
##ose
приобретает
фильму
экзамен
продолжили
дальности
обладать
##шевич
##шны
воздухом
##риста
##стат
выставо
##ванов
помер
измери
наименование
##рико
утверждению
появлялся
##чица
основано
железнодорожная
образуется
блоков
пользуясь
переро
важности
##енному
##жон
кита
больным
селения
компонентов
подпис
запреща
кандидаты
литров
великому
снаряды
прошлых
познакомились
экстрема
##bl
##варе
поворота
вознаграждение
альянс
организатор
творчестве
подбор
рыболов
похороны
варьи
дню
химического
фара
похожим
длительное
1891
полом
социальная
строили
немцами
клана
изготавли
максимальная
пригороде
депо
распределение
сар
краем
влияют
печи
возврата
ед
посчитал
разбил
передана
приносят
отъезда
рекомендова
##ins
винтовки
изменению
противники
меду
южном
будущим
звонки
проживающих
##ney
кавказ
общественном
солнечных
импульс
одержали
согласования
сочетание
прямая
вступать
эги
подогре
походе
необходимого
седьмого
выпускает
трау
физико
##ьево
мастерство
##геля
испытал
бренд
издании
игроками
искусству
организациях
союзниками
постановил
статистике
стрельба
текстом
самоход
указывается
сталин
просьба
##хард
простира
дисциплины
аппараты
##ническом
противнику
потоком
устроился
139
##пенко
крыльев
сообщениям
##eo
##сус
сделанные
этапов
реконструи
280
##вуд
присяжных
ac
положив
автору
1893
заливе
лигу
патологи
истребитель
пятью
решило
телекоммуника
чугу
находившихся
##риат
внесен
сократилось
глубокое
##туса
пропорциона
применяются
президенте
##рих
##ссар
турецкого
поручению
##ations
потенциально
##шоу
средние
объектам
поэтов
собирают
##нел
сны
юных
окрестности
некотором
##рджи
определены
главными
сестер
одинаковые
снимал
обрет
правителя
ночных
ангел
##янка
американское
таблицы
смир
использованию
уменьшает
связям
креста
объектах
монго
прямую
современное
процедур
лаборатория
приказом
союзе
князем
выведен
колледже
портреты
названы
командами
курд
агенты
##ствующая
аэродрома
##деи
цирку
веках
аналог
меняться
возможна
основателя
разработана
работника
проница
мик
проведенных
турниров
увеличению
художники
середину
##ara
пету
##шино
санкциями
внутреннюю
чемпионатах
##uz
волк
one
фармацев
конференцию
ведущим
февраль
бросает
пристани
заимство
успешного
появлении
десятку
композитора
активным
пилотиру
машинах
массовое
башен
оборудованием
успешным
темп
естественных
##пат
разместил
##изме
общеобразова
изоляции
##дз
воздушное
издательства
остаток
моментом
параметров
ритуаль
вооруженного
агентом
1861
##менных
индивидуальных
встречает
##щева
##дура
продажа
исторически
ограничен
лечении
продемонстрировал
лишен
цеха
падением
крупную
наклады
бандит
##ревича
объективно
авиационного
центро
скульптуры
выявлено
белорусских
кафедра
муниципалитета
##дна
глю
гам
гуманитарных
унес
склада
нить
kn
франков
рекомендуется
холодная
1862
ag
##ваемая
событиям
горожане
магия
стерлингов
внешности
частным
1864
##плен
##ранс
волки
ствола
императором
симптомы
этикет
бесед
отдельная
установленных
корреспондентом
цу
пещере
предотвращения
питом
##новна
готовых
спектра
нормам
невозможности
позволяла
следующая
госпитале
артиллерия
определенную
совместные
эмиграции
соперником
римского
использовалась
неограни
заказов
зы
##idae
##ohn
була
наго
ведущего
низкая
сады
истреб
##бота
1887
ориентации
копию
запущен
роботов
значительных
рота
греков
лишение
документам
выпускников
##жания
лако
традиционные
1886
получаем
освещения
электронные
домами
##ренс
студию
актеры
мыше
певца
возбуждение
##ider
принцессы
травма
sc
подверглись
единым
мем
глобального
вернувшись
факультете
##bat
концерте
полигоне
##55
опыте
альбомов
корень
физике
##eral
подвергся
манере
запросы
1877
градострои
миграции
ракетами
ввода
##фили
набора
##смен
митрополит
преследует
ведение
отправлены
##дэ
труба
совместное
формируется
следуют
новов
опубликовали
лего
змея
истребителя
костюмы
беже
созданная
охватывает
белорусского
определили
дорогам
последовала
##лаев
страдал
турок
##rus
блажен
британская
канцлера
издатель
уклон
домашние
зеленого
разгар
больница
##джера
парово
способные
подко
мудрости
развлечения
ином
ребра
невозможным
коротких
правами
философия
предпочитает
резонанс
бери
##фоб
дубо
бензо
показано
сохранении
рядов
враща
загород
явилась
драку
ведьма
золотыми
входи
сильными
болезнью
работая
##66
обуча
зафиксирован
перен
системах
башню
наркома
пребывание
социализма
кока
требовала
зрителя
сока
придать
копия
постановлением
кулина
валу
поддержала
вибра
дачи
восприятие
сие
мелкими
звуков
отверг
трансляции
филологи
##соне
отмечалось
васса
перец
движению
умерших
дружба
нова
переизда
der
мудрость
##хау
боролся
холодного
##меру
оскорбление
##нун
##вр
интернациона
готовился
соседнего
выполнена
оформление
концертов
следовал
библио
##трия
вражеских
принадлежность
упомянул
зарубежные
девят
480
проживал
каменные
набран
кач
вошло
##пери
профессиональные
##щин
ие
уничтожен
ключевые
соседнем
укрепить
сборные
стандарт
##board
площадок
продолжались
успешных
мышц
дожде
трасса
транспортные
привлекает
чудовище
сочли
ая
герб
##цю
ману
горел
рубежа
разрешено
##бала
ролях
##чжоу
производят
находившиеся
фруктов
луны
заменил
разработали
серебряные
дивизионе
качеством
разработчики
##97
расположенном
##нги
вступление
##энси
стреля
иконо
отравления
судах
кругов
единое
черни
1863
сексуальных
проявление
вождь
различного
вися
гипо
городская
##зированные
медицинское
полуфинал
отрядом
фру
достигнуть
неизвестного
зданием
##хово
рукоят
формата
регулятор
обитания
##стическое
und
затрудня
##тович
убедительно
меняются
афро
красное
отборочного
пересечения
координаты
стенки
посередине
автодороге
экспозиции
пляже
##ффе
подлежит
##дине
пса
##ця
карточки
реальным
катор
сенатора
потеряв
питье
завершена
произвели
пережил
провинцию
зависят
видах
получала
конъюнк
пассажирских
занята
##ress
мусульмане
общему
альпи
##тание
ведении
динамика
плиты
обращает
огород
##стоне
использовала
позволяли
##тко
велись
низкого
разрушение
животным
создавая
выделены
международными
проводился
община
снимали
досталась
гонку
взяты
сексуального
ленин
легкого
##ленского
выставку
включена
тыл
вымышлен
отзыв
sm
выходи
разнообразные
дополнительную
знаменитых
производственных
воротами
графика
превосходство
объединя
травя
##стским
дипломатических
кубок
депрессии
программного
##тена
увеличении
призрак
включения
##цево
шок
перо
вдова
законным
##ах
мышление
выражает
лента
административным
артери
процессом
контакта
клетку
реальное
кратко
касающиеся
послом
нада
##way
среда
напиток
ядро
велась
написания
глубина
##aj
##деса
сценарии
существующие
окончательного
##пович
образует
покрытие
подчиненных
избрания
солдатами
переходя
деба
удалить
читателя
турне
##фред
известие
любимым
съемок
отступить
##era
историков
выбирает
способностью
охотник
федеральным
известными
продано
смене
##zh
препарат
олив
политически
цветок
приеме
цифр
киносту
исследовать
тес
##сонов
грехов
включили
суши
##левского
предпринимательства
полете
точное
строительством
абба
зритель
внук
святы
учебно
советником
тактику
##хон
образовалась
детектив
пел
##таи
системами
департаменте
племя
корпусом
рассеян
качественно
##44
модификации
1888
связать
вручную
медицинская
немецкими
самолетом
##зде
чисел
рубеже
##чивания
греческих
##de
страни
иными
мировое
сгла
револьвер
рекламе
##сие
990
требова
безработицы
rel
послужило
поставлены
епархи
наподобие
спастись
широком
##тич
совокупности
##маков
кало
стоянки
##скоп
подписала
fl
введена
ассоциация
разнообразных
юа
кинематографи
менеджера
неизвестны
одобрения
медицинскую
захватив
счастливы
организациям
эпизоде
значительным
##ргыз
кром
возрастом
сосуди
продолжался
##der
жира
снабжения
посещал
демократических
инспектора
конструкцию
общении
завершено
барона
трудовых
списку
клетке
поступали
строение
##стем
личная
воинских
воссоедин
##fer
младенца
насчитывает
профессионально
расстрои
отменены
инфекции
преследование
храб
домашним
располагалась
строит
##ори
выделил
летя
болен
напряженности
юридического
километр
протестов
показан
компьютерных
иностранными
260
этапах
оформил
позициони
студия
проведенного
##by
##рующее
деревянных
башне
пассажирского
располагаются
превыша
выступлении
##нгер
грузовых
##рском
рабочую
аналогии
следуя
##зован
молодому
1881
##боя
длине
132
планирования
уступили
трез
применяют
фирме
стремились
технологию
волне
рождении
отошли
проповед
неотъемле
провала
подножия
##стическим
камне
рассчитан
суверенитета
художественных
кость
свадьбе
информационно
развитых
прохода
##шево
доказал
боевое
устрои
сохраняет
посмертно
высшим
рукава
тяжелыми
##фельд
немногие
профсоюз
артисты
определяют
сохранилась
##льевич
открытыми
зарегистрирован
неизвестна
официальная
материали
##бик
##эла
лучшими
##промышлен
характеризуется
генералом
##корд
верности
велосипед
мотив
##гау
галереи
достоинством
бун
растре
нынешнее
кинотеатра
приводить
ввод
##сека
посещение
повреждение
чемпионату
способно
##ology
1859
параде
777
##енс
масштабах
тако
танцы
пособия
христианство
богом
достигнута
гастроли
истина
впадает
1884
хромо
расколо
##ховского
родины
наследие
московским
завершение
епископом
охотников
пирамиды
изменили
коллекция
заболел
яркость
сдался
грибы
дальнем
сожгли
##чивых
полевых
##менным
прекратила
учебные
пур
неясно
мастерства
зя
доска
реконструкция
лип
бронено
законами
##нак
сбаланси
подходе
подби
искусственно
рукописи
военнопленных
преступлении
первенство
113
рекламных
##ml
участниц
алюминие
инструментом
##ury
защищал
##хле
широкая
мозаи
внутренняя
дорожно
киевского
вампир
ученика
кисти
мощных
храни
профиль
меньшинств
факто
исполнительного
шерсти
замерз
##зка
заходит
сража
общественным
федерация
последними
наглядно
покушения
##бона
рама
качеству
институты
прекратили
##дских
##ual
вуза
халифа
правосудия
городским
1830
рассматриваться
снаряда
покупатель
1882
стрелки
хороши
ветеран
радиолока
заключила
изнача
1848
желудка
слобо
боевым
управлял
регламенти
газе
некоторого
прибытии
полотна
прикрытием
##88
подвал
неизвестным
глубокого
соглашается
статуи
##рков
училась
##нич
вест
помещениях
финансовым
вкуса
##ганова
позволяло
##100
мур
слои
утверждается
уступает
планом
целям
клавиши
нижнюю
голосовании
мины
волок
баланса
хранятся
преследовать
рекомендовал
страстно
##уа
стихотворение
треуголь
работающие
взрослого
физическое
гарде
папу
##ais
управляющего
прекло
выделяется
конфиско
возвышен
высшие
##чьем
бомбо
приходя
песне
биологии
считались
тян
##form
переулке
значимых
осужденных
размерах
прощание
вегета
спора
крон
##76
отверстия
переписы
наркотиками
##arm
распространяться
закрыто
моль
характере
потомки
слоя
размеру
##скан
расцвет
##тико
небес
каменных
составлен
блеск
##дены
росла
ошибке
отношениям
выявить
пало
учились
переводчик
##ждаю
кви
попадание
хам
##цман
бокса
упоминания
народная
сегмента
time
глубоким
берегах
игрокам
сприн
городскую
верхнюю
женская
удаления
давало
хлебо
американскую
##ад
желтые
цивилизация
##аре
насчитывается
земного
##лоу
сборов
##ones
кио
1871
##листов
летние
релиз
##рид
стрелка
недостатка
перебрался
генералов
природо
продлил
намеревался
статусом
рецепт
внутренне
обновления
находили
частном
порос
новгород
космические
брит
двору
уничтожено
богатым
контроле
письмом
слияния
средствах
##транс
коди
последовательности
##itch
установке
перспектив
целостность
отказывался
##uf
коэффициент
детская
резолюцию
ключевым
корте
временам
любите
численностью
##хера
##жел
пробел
270
щита
предпринял
еженедель
предел
эпизода
составу
предназначен
проводилась
характером
цикло
лабораторию
высказывание
обеспечении
платформу
##риди
егип
крупное
родственниками
строк
церковью
##баб
комплект
правительств
шестом
типы
отошла
награда
##жов
теста
инфраструктура
сдав
##вающе
чудес
подрыв
приходом
скептически
постановке
греки
живая
золотым
##ject
мерах
##aus
являясь
открыв
##зно
кондитер
предпочтение
##льо
городами
температуру
катер
медалями
прок
ферме
близка
ресурса
##мус
наибольшее
четвертое
северного
звезду
географии
##quo
реконструкцию
северном
##км
штурма
историческое
пели
дзю
вписа
компоненты
отвечаю
развода
султана
установленные
журналах
сигналов
настоящем
вызвано
нижнем
кода
берегам
оказание
газов
##стскую
органом
экспедиция
вызывал
приводятся
невесты
автоматов
сельском
местную
университетов
волно
##аном
##хель
восстав
##нуто
##pa
дальность
величина
##сана
бедствия
грамм
cont
руководит
вермах
заговора
разделение
##лиги
начато
инициатив
половин
лишены
женские
##гес
невеста
замыка
уничтожению
br
магистрали
##ьин
челюсти
собирал
##бридж
просо
поно
патриарх
поисков
административные
##77
компьютеры
лже
##ллс
мастером
летие
##цци
кафедре
650
##рс
бегство
созре
руководить
солдатам
итальянских
восходя
комендант
гало
неверно
национал
##иса
голе
наблюдаем
соседству
искусственного
te
хвоста
искусством
правовых
флотом
избирательного
легкая
всея
##мес
1865
псевдонимом
возросло
суверенитет
разряде
воздушно
русло
профсоюза
приведены
помощников
слабое
живопись
модуль
предохра
##ien
выбором
бледно
гр
##шине
посвященных
единогласно
филар
##форда
сложное
противостоянии
завоевали
##вира
рисунки
вольно
##тэ
литра
добилась
переселенцев
слизи
строю
энергетического
независимого
объявило
##ster
заражения
гражданскую
##ханова
##меха
повесть
арба
выручки
золотого
попечи
вглубь
##дво
получено
центрах
1876
магнито
религиозного
##буса
орто
курси
эпоха
стороже
немецко
регулярные
приемы
влиятельных
гимн
кост
игу
стабильно
изобража
go
духовных
чува
полеми
обозначает
сопостави
имуществом
ретро
фондом
степенью
персональных
переведены
gr
##моли
офицером
бомбардировщиков
двухсот
1879
оттенок
импери
выжил
##ura
сэра
##етти
технически
##тце
вершину
##elle
##вателя
разделения
ректор
дается
звучат
опытных
отличалась
писатели
счастливо
руле
заповедника
известное
1883
интересовался
инженеры
перенесли
комиссара
государственными
сильную
ночные
надежд
королевского
пятое
##фали
показателем
приписа
митрополита
доктором
if
устанавливает
близость
выдвинул
гад
точные
##ггер
лагерях
##баева
узкие
##тист
сердечно
1867
выпущено
культурные
##sy
##off
миниатюр
свято
белка
заняв
материально
повышает
стихии
мягкие
гарнизона
интеллекта
верхних
создавали
музеев
##бара
штатах
550
прежнее
планируем
выдающихся
##велл
##ваемое
фортепиано
достигать
шампан
негативные
доске
опоры
подготовлен
вообража
1850
качеств
тоталитар
дислоци
упорядо
иерархи
##ити
##res
праг
овец
землетрясение
лидерство
церковных
послания
##феры
выясняется
news
преимуществом
##жера
квар
прах
подчиняться
распространены
одиннадцати
долину
определенным
задуман
большинству
образов
характеристик
японцы
течением
обвиняли
кратер
##идов
##ret
журналы
##els
зрителям
##пт
направляется
особая
каналу
энд
переписки
потомков
вымер
##ризм
критик
man
солнечного
лесного
употреблять
круглые
##eth
##скин
содержанию
пыток
совершение
особи
##ety
кварталов
мониторинг
назначению
милях
слабых
гнездо
обществ
эпидемии
2500
слоев
##дны
флаги
боевая
кратковремен
клиники
боем
##шера
аспекты
##генера
астра
чистом
отдает
пропаганду
даю
горизонт
относилась
сук
губерния
поиске
предыдущем
##ниста
допускает
младше
соблюдение
доза
##65
##шенно
волость
местечко
буря
имеющихся
волков
железы
звуча
##uck
вызывало
##ист
редакция
ленту
татары
дикие
колена
##ерс
##графов
режимом
работало
пилоты
фотограф
болота
надзора
инди
равны
водохранилища
заказы
источникам
гомосексу
транспортом
##менная
приводя
прозаи
верхнем
кома
соответствующую
сыро
##кок
речью
увеличением
##вита
##грамма
копья
богослов
1600
репресси
##дено
представит
##ковка
широких
поселился
принадлежащих
механики
измеря
кораблях
спина
##сполкома
физика
переехать
аргентин
восстановлении
конституционного
всадников
спорте
воль
перенос
продолжением
социальным
городам
германских
организовано
рыцаря
кухня
наносит
косы
концы
увеличивает
пулемета
полов
сфера
играя
газовых
жир
позициях
##льщик
предыдущим
##строя
отличить
эстон
запрещен
больные
разбит
окончила
понесли
механическая
вьетнам
служебных
стрелок
историческую
синтеза
собранные
тьмы
разработаны
наследника
младших
записки
устранения
подавляющее
##нским
обособ
централизова
##ool
германского
эльфов
призывом
##ets
функционирования
вручения
учит
значении
225
созданные
ноч
вяз
пища
пользование
ознамено
музыкальные
##псон
##евском
миллиметров
военному
##тских
##сиан
озвучил
гражданином
##рож
сочинение
холдинг
сражались
блокировки
центральном
сокращении
еванге
плавание
нацистов
спектр
развиваются
скреп
червя
склонны
оставаясь
западное
верным
строчки
превосходя
разбить
малые
колхоза
нити
пляж
облегчения
состоять
сопря
нарушениями
касса
аудиторию
##of
народным
сухопутных
##гольм
раскрывает
культ
технологического
##толог
употреблении
чистые
фабрика
моче
серебряных
профессионалов
имеющиеся
свадьба
кузова
машинами
##сбург
сражался
##ццо
кадра
поляки
моделью
судострои
бригаду
перегру
вектор
стери
1868
1856
##лук
урожая
дневник
гонка
оппозицию
##ровском
will
##oz
японские
изготовление
общеприня
находящегося
дорожки
завоевания
духи
правая
##ism
склоне
альтернативы
успев
флеш
делятся
командиры
идеали
##issan
препарата
японцев
рази
одобрение
##рские
историческом
кардинально
жилище
равновесия
клип
зеленым
заднего
совершенных
налет
определен
вводит
литературных
геометри
масля
подол
аудитория
##нгтон
аварию
историческим
изобрази
совпадают
появлению
##пана
##тори
самообороны
##мич
##ball
эскадры
патроны
западным
коротким
инженером
республиканского
youtube
республику
##графические
разрушен
героизм
критически
реставрации
иллюстри
американскому
финансовая
сформирован
##дская
обусловлено
отдельными
мятеж
вика
разбили
течет
входом
##75
бомбе
носитель
иную
кер
точность
металлические
клубах
изменила
корпусов
##жева
преобразования
трактор
золотая
вран
##тюр
##зефа
бригад
оска
математике
внедрения
##гас
##чусет
младшим
##элл
символизирует
посвящены
tit
придуман
исследовательского
##оми
возрос
оказавшись
нидерланд
внешнюю
спешно
##инте
происхождении
кандидатуры
ископаемых
высот
ущелье
храмы
безбо
супруг
##ane
наступлением
наложен
отказом
клинике
юного
печь
pol
племянник
##iki
выручка
кашта
комитетом
мс
облаков
##du
реагирует
частям
объявлена
прибал
учреждении
ночное
фланге
реген
вагоны
просвещения
трактов
тезис
сохранился
##oon
выпуске
ритми
сложность
##фте
построек
вращения
удобства
наемников
аппарате
сложную
королевство
строительные
некоторую
игровых
погибшим
переработки
##хем
стремясь
галерее
благово
легли
сур
##графы
силуэт
возврат
сторонниками
императору
демонов
per
ужасов
маневр
кучи
передела
##бун
христиане
отклонил
учеником
подписание
рабство
московские
электронного
толк
узко
диаметр
##гем
взрывчат
террора
##ino
лим
ближнего
превышать
плена
покончил
дипломатические
1866
танца
подавления
программное
дружбе
ракетного
парада
символы
советскими
синего
флоте
рукопись
израильских
комбини
##ндро
отдельную
короткого
страница
временные
косо
литературного
скульптур
заинтересовался
##ксу
потере
гоно
##щук
залы
доступно
холм
молодыми
##граммы
вертолеты
заменили
##ote
возникали
женить
архива
краевого
##vis
пределов
полотно
##ba
##матов
дальних
мобильные
итогов
турки
психоанали
голы
модернизацию
возрастает
аниме
добыче
сетью
пещер
атлетике
нато
извили
путин
##64
аналогичных
##селе
аэродинами
##iam
##vo
знамя
специальном
помет
отмечен
содержащие
зоопарка
комбината
косвенно
объявлены
205
молекуляр
краснодар
осед
темная
нак
концом
вал
##рке
столы
##нон
композиция
арма
##динского
поверхностью
прогресси
хоккеист
последовательность
подъема
потоков
предусмотрена
игроку
выделения
123
оптимизации
выдает
##oph
считалась
перевез
немногим
##берге
урон
планам
1869
жилищно
свод
фактора
коренных
прирост
##ied
истинно
водород
зачете
возвратился
##линга
супругов
ане
##нисты
спин
##ute
##гского
применяться
полос
покрыты
вступит
бумага
##vest
поместье
полус
совершают
присваи
канцелярии
являться
цитата
толчок
призывал
##illa
болото
маке
звена
эльф
отличием
почтовых
использован
##рине
проработал
жениха
ph
шерсть
##ene
кочев
кратера
категорию
женскую
облу
мифологии
арены
сопровождения
генералу
правового
поясе
1840
##rum
сталь
возросла
различие
##be
выбы
##ология
блюд
отправки
кату
ошибочно
фрагмент
победит
ср
аргумента
ht
гавани
1873
императрицы
государя
возрождения
1872
будущие
##earch
отправляются
описан
лекарственных
созданных
приют
##леса
звено
профессиональным
вулкана
длиннее
объектами
стандарта
косто
временных
1875
международную
##манн
##зас
внесения
отдельное
ракетные
распоряжению
короткими
коно
юниор
##цего
монстра
переходят
##оо
##шуа
южного
отделением
граничит
творческих
выделя
методо
уезде
##яне
шур
освоения
интеллигенции
перм
соблюдением
существенное
принесло
кораблем
##сеев
дана
заканчивая
картон
забив
сцеп
##ega
серебряную
носо
языками
яблоко
транспортное
управляющих
роя
сквоз
советско
##риана
запрещены
##псо
хутор
оккупированных
норме
##устро
альбоме
##шам
большевики
##пци
состояли
перенесен
водорода
телеканалов
психолог
вероятностью
укреплению
студента
накопления
##птон
световых
вспыхнула
количествах
ограничено
шахт
##аля
траектории
гермети
##триса
отдельности
4000
академика
демонстрируют
ремонту
обители
##графом
противополож
##вальд
тоска
трубки
производств
переноса
выражению
спуск
сап
##зированы
##za
принятых
##листа
##app
эхо
указанные
##зур
джунг
гарнизон
первобы
ополчение
подтверждается
руби
хаб
##тау
##гит
стресс
внедр
морским
следования
##гав
солидарности
руля
плод
затраги
330
сверхъесте
##лиса
турецкие
эстафете
сохранили
школо
особняк
выделение
областью
мосты
тети
героями
сокровища
регулярных
отмечены
монахов
последующим
фут
хобби
академия
сказка
дроб
горами
##95
исследованию
эффекты
121
картофель
снижает
проведя
побеждает
формах
предназначены
длинно
человеко
сокровищ
телевидению
закрытии
значительного
перебор
1874
усадьбы
отце
наравне
гараж
pe
возрасту
раскол
союзом
происходил
стихотворения
##86
пение
##cl
превратив
пато
сцени
деревянная
верхнего
жертвам
гриб
дели
##образных
навыков
произвела
национальное
принимается
tr
недостатков
произносит
раннем
##нино
сводится
##рити
материалом
мощного
генералы
карьер
единая
суше
создатель
вдобавок
заочно
рассматривая
интересны
карточ
преподавателем
бури
местонахождение
короткая
вылетов
осе
польские
распя
кассо
конвен
значимости
пушка
публикацию
нижних
##водных
государствах
полем
исполнению
профилактики
всеобщее
агита
уменьшения
повторяет
сократилась
развивающихся
уроженец
преоблада
священнослужи
уменьшение
играв
информационные
выдающиеся
солнечные
публикует
танковых
спереди
##чатая
крымско
объединены
##зово
элементом
способствовало
##pos
популярные
##эти
повторного
разгрома
персональные
масштабе
явилось
комбинат
ранние
периоду
##ange
летчиков
аэродроме
относят
##ole
трудящихся
интерак
оперу
хребта
госпиталя
##сма
##ткина
непосредственное
популяции
находки
повторяю
лири
одиночном
медицина
обозначение
частоты
отождеств
масон
идеями
совершали
рассматриваются
обязательным
пионер
графики
присоединилась
подходы
задержки
выполняли
парф
биологических
поражением
организованы
материальных
оболо
##эле
погреба
пьет
неудачу
крестьянских
остатков
пакеты
боевыми
овладеть
путями
##yle
принципах
править
древе
экскурсии
фонтан
dis
труду
амор
полум
исполнителя
ключом
бытов
выкупа
африканских
ансамбль
конкури
современными
избрана
there
способностями
толко
оро
мох
капитализма
ордина
решен
дзюдо
##фил
социо
энергетических
положительных
противоположном
контент
введено
исследованиях
стено
мозгов
формированию
принадлежало
кубка
мостов
созданного
разгру
священников
автоматы
ширину
римлян
минимальным
наблюдателя
депор
грунта
ссу
легенде
малым
изучает
заметки
чек
зарегистрированных
крестом
вычис
батальоны
##лини
изображен
массовым
##erv
пьесе
отопления
общественная
красном
знаками
врожден
молодость
поставив
##ova
вредных
риф
радикально
положению
дорабо
цирка
тренеры
интеллект
бульвар
your
правых
лестница
тене
старшая
веро
умершего
уменьшается
##кула
федеральные
мечеть
агрессивно
семинарии
диссертации
отражения
привилеги
нанесен
##киным
критерии
рассеянно
школьного
курорта
гнезда
##дян
горнолы
обрам
изогну
##диг
присоединение
##шор
явлением
пособие
удаление
остановка
est
наземных
прошедшего
автобио
точках
энергично
##гге
предложению
разработок
замысел
лужи
##ris
ликвидирован
запасных
тематике
показателям
сгорел
##ньян
##мотор
##чака
мни
атомных
свидетельству
целями
##вице
показав
вещание
морга
нулю
лево
изумру
контакте
плотности
соавтор
неудач
реформу
потерю
тепли
##шило
генов
элита
##фери
профессиональном
проявленные
тыла
цирк
освободил
##ii
правительственные
убедил
дьявола
метафизи
удлин
всеобщего
театров
курил
##гис
синдром
высадки
вторые
сортов
премьеры
судоход
добавляют
сообщением
вытека
мечи
маха
изучением
указывал
излишне
##ата
##графических
##ственны
популяри
выпущены
##нгу
переоде
кораблями
снялся
урана
синхрони
злодея
поет
существенные
султан
выделяют
левая
131
награждения
изменениями
основанная
демократы
львов
автомобилях
эффективным
реци
выполнено
вул
буде
достижении
скопления
коммерческого
пики
##геран
тысячелети
холл
пасты
марка
разрушены
составляющих
1855
can
парашют
##льде
##славом
определении
стадию
международному
творения
тере
готовил
купол
тесты
##лино
служила
издательство
синоп
##неса
##цизма
мнении
широкими
материального
снятие
последнему
признано
скал
президиума
рождение
водоснабжения
победители
взима
наимень
формулы
##брен
ленте
охлаждения
машинострои
задних
реализуется
сопровождается
перешло
##гари
административное
вербов
трансформи
обряд
округах
переводы
диски
трудового
осуществляют
романы
##гава
провозгласил
собственностью
двигателями
придерживается
##200
превосходит
открытием
##тирую
сиденья
ежемесячно
направлением
суждения
работам
челябин
совместном
сложились
историка
увекове
принятые
реалисти
древнегре
преди
##скам
максимальное
переезда
избежание
греко
предприятиями
фазы
ресурсами
образована
населенные
транзит
поклонники
##ллоу
позволяя
преступности
обсерватории
юридически
##мки
приглашению
концерн
фланга
повсеместно
аналогов
отведен
##ническими
голубого
терминала
свидетельств
историческая
имение
##уны
обезьян
наводнения
арабов
драмати
удален
##хор
волка
разряда
##vent
изготовлении
закрытых
молния
сборки
культа
##стны
коммунизма
дубин
артистка
способствуют
причинами
манипуля
несовершен
семян
ураган
серебряным
политех
стремления
внедрение
разнообразие
акватории
жанр
экземпляр
установленного
##винского
гл
графику
традиционного
тринадцать
соседние
задние
##chen
##rop
транспортировки
тактика
сценарист
освобождены
нижнего
##руемые
du
народное
##итов
изображены
##ki
разведчик
опытные
разделяет
активист
связанным
холме
расторг
предприятием
устье
трек
нис
уничтожена
завершились
стилю
оздорови
телеграф
about
попутно
существенных
богам
необычно
дров
посвященные
кобы
порты
уезжает
британским
##ама
освобождению
семе
162
познакомилась
быта
календарь
блан
старшему
рассо
оболочки
дох
латиноамерикан
профессиональную
клятву
тонких
малая
сфер
хав
спир
шторм
глубоких
наблюдением
болот
огнестрельного
инженерных
базирования
связанное
близкими
поселен
номерами
выявления
контрреволю
четвертьфинале
вики
##што
наличием
дыр
мисти
хох
научная
активная
детально
##манова
зимнего
западными
тороп
##несс
калит
подвергается
##wo
##альную
окси
сформирована
снялась
летчик
кида
панель
морская
мифи
издан
упоминает
закрытие
мужества
новосибир
##хаи
обложке
отдан
останков
охотники
##тиль
сопровождал
##ола
мсти
социальное
убран
замки
воплощение
##78
экзамены
склонен
дискуссия
пластинки
380
сингла
##ua
##лль
##тове
взвод
христианских
стилем
публичные
империю
порошок
поют
излучение
указывать
утратил
спектакле
папе
комедия
белки
компетенции
торговцев
ведущая
пришелся
сообществе
##сиса
фит
нападению
наивыс
получая
десятилетие
узла
##цын
производя
лимит
посетит
писателем
##мони
электростанции
нанесения
листы
##рская
нокаутом
достигают
сосудов
святым
##панов
избрал
самцов
формула
определена
строительного
бюст
алгоритм
современников
кристалли
расположенная
куса
механика
галактики
прослави
настроен
зонах
убитыми
##гоф
производительности
290
независимым
##лиз
раздражи
определенном
усовершенство
back
прозвищу
##ait
непризна
изменением
побег
озер
создатели
протои
роб
lt
мотора
рыцари
отцы
нек
рассматривали
симпатии
720
##эра
слуха
склонность
##зированного
гетто
концентрация
приводится
нестандар
научную
фасад
грав
установлении
звездами
рво
физик
дерби
генери
терминал
связях
шель
зев
внука
##ада
святые
государственности
сторонником
##ja
град
пиратов
повлияло
трои
динамики
дивизию
фильтра
ита
обнаруживает
выделяются
пакистан
##бров
отпечат
израильского
томи
##ates
переска
позднего
наха
кран
происходи
стерж
соля
желто
камени
последующего
##сун
##дзу
мандат
воспользовавшись
изданиях
композицию
популярного
демонстрация
чип
##тская
продюсером
уникальные
##iet
представительство
миры
нехватки
утвердить
неудовлетвори
назывались
женское
авиационных
вставля
млекопитающих
операторы
##бино
выражается
крыс
отличаться
обитатели
пыл
переходом
летал
петли
фронтом
кря
ключевую
означа
нижегород
##ih
комбинации
бытовых
водопровод
списках
воевода
деклари
знаменито
краевед
древнее
называя
дьявол
сосно
##тено
##тировался
железную
чумы
2022
расцвета
мэром
прикрытия
##дза
техническая
тюремного
колонию
шестью
веку
директи
##rain
тестирования
касательно
привлекла
сотрудничал
устроен
позоло
ракетно
распредел
англоязы
гена
сата
оттес
потерпели
царем
командном
желудо
экспедицию
достигнуто
землев
эфира
самки
архиепископа
вынесен
приглашает
доле
включал
##ues
##пко
полезные
##размер
шлях
металлических
##тские
прекращено
наследник
особенностью
сатири
грибов
веревки
##fl
муниципалитет
командующим
##ria
докторскую
связанная
доказано
антисовет
битву
завершила
плов
ректора
турбо
изобретение
ритуал
центральную
##дков
флотилии
изобретения
##шского
эв
##фрид
естественного
хет
бомбардировки
##ora
226
природные
мад
##леком
1829
тексти
постоянная
133
тиражом
птице
врачеб
отрасле
темного
ed
советскую
народами
патрон
тибет
скандинав
переехали
вампиров
рельеф
деятеля
like
духовенства
кончины
футболистом
домашнее
конституцию
одержать
перегород
публикация
бале
горного
постоянном
организатором
##пани
эскадрильи
иерогли
пам
умеренно
заболеваниями
грань
способствовали
ганг
баланси
придает
вершин
подчинения
1858
гармонии
плодотвор
them
пуск
цех
базовых
двенадца
правителем
остроум
фраз
холмов
превращения
колдун
вооруженными
##пола
отношением
верховного
годовщины
банда
представлении
жер
благочести
создавал
##вио
224
спортсменка
off
##кир
показаны
пшеницы
зрелищ
старшина
очистки
подсоб
узком
нижняя
сильны
мужских
##цкому
уничтожении
используемых
молекулы
##чивого
состояло
успевает
республиканцев
кафедру
конгрессе
произведениях
ансамбля
вариантом
лаза
кашу
светодиод
противоречие
кал
отыграл
таун
##баль
##ren
облигации
теннисист
подводные
заведениях
висе
огонек
модуля
туристических
##яло
доспехи
котел
##тоны
совершенные
использована
##мото
##жских
разору
##sc
матросов
приза
усиленно
быстрое
завершены
иерархии
учебы
восточные
вакуум
перерабаты
тысячелетия
схем
1854
##ato
льгот
начер
опасны
внешняя
стих
равные
глубокая
1849
коче
включение
res
прочность
##85
жених
##зного
##логию
смертности
социализм
кирпича
открытая
месть
стюар
промышленные
немо
проектами
кала
леп
записали
капе
кавалер
1857
##iver
графиня
учеными
правилах
спектакли
##фь
##ek
приносили
патрона
обратное
исследовательских
геральди
дио
заклад
писк
называлось
изменениям
уровни
философию
поддержание
выполняется
женском
бронзовые
постановка
опыты
мостом
распространя
размерам
юридические
теплое
##парк
ослеп
согласован
пана
классах
захваченных
запросов
сборника
оценок
указанием
##чато
дисков
шед
главнокомандующего
гонок
улучшению
антифаши
общ
лимон
##чивание
таковы
воздушном
повышением
##for
комитетов
##нико
траур
пруд
прыжок
проза
переводится
обработке
современную
самок
##ific
числилось
кобу
217
босс
субъект
посвятить
духовное
словарь
достигнув
маршал
гонках
объему
совокупность
фундамент
посадке
мода
корону
упоминал
производительность
обыграв
физическим
машиностроения
коробка
##нити
идеология
рассеи
колеблется
высшую
##нца
222
##чевского
героиня
конденса
функционирует
##хио
el
бытие
частная
дес
знаменитые
списков
автоматического
крот
хип
отчеты
##inc
адаптации
оркестром
тенденцию
ося
евра
кавалерии
основаны
предприняли
командного
телекомпании
истек
оснащен
полагая
сик
посылает
кишки
замыслу
##гэ
математика
##борн
воспоминаниям
прокате
копье
видо
легион
##руемого
распад
характерные
юмор
указанию
пела
имеющая
вводится
лампа
электроники
листьями
бран
принципам
городское
##усов
перемещение
подаче
десанта
part
неприятеля
##логических
значимость
социалистов
осудил
кули
резь
арабского
##блин
западно
амфи
министерством
обитают
палео
обычными
##нце
встречалась
##ддин
минобороны
захвачен
важными
великую
характеру
полости
##евых
средним
цветных
административному
204
даны
##форт
таланта
вооружением
завершилось
немецкое
внешнему
скелет
фланг
бам
выигрывает
короткометра
серая
набором
эффективного
повар
думу
##ринов
синь
классического
летнем
##96
del
##ita
паруса
кн
оборона
more
экономическому
легендарного
оправдан
невест
фермы
жилища
##бокса
памятью
гражданским
мораль
переводов
подданных
захватила
имеющим
just
духовную
расклад
2025
имелся
трудностями
##une
обсуждении
названии
##фира
написав
##onic
пепел
крах
ключа
слухов
профессия
начав
сено
ограничены
бунт
компьютере
бене
##oud
парламентом
кузов
ягод
##цово
коря
изложил
пропаганде
подполковника
частную
угнет
мюн
##вата
математических
псевдоним
покрыта
оказывали
вала
олицетворя
реп
##бургского
публицист
морском
многофункциона
роды
левые
касси
интерпретации
полуфинала
ив
монархии
вывоз
методики
театрального
лад
##ленде
интенсивность
краям
церковно
шахматы
ширины
чист
религию
уравнове
базируется
вита
экипажем
изучали
мотострелко
приводил
ливан
подвиги
##винг
отечественные
составляющая
##кардо
##рующую
классических
произведено
##ution
гем
исполнители
признанию
точных
поселении
приглашены
утверждая
аспект
фабрике
полны
альбомом
##маль
мыса
1853
космонавтов
театральных
западная
идентифици
комплексом
столкновении
##синг
советников
станциях
трудоспособного
милитари
опытного
утон
фэн
размерами
верфи
принадлежащие
коллективов
соответствующими
##образные
глины
лондонского
купец
##work
сложного
шир
свободны
осады
пулеметов
незначительно
таковым
##гтя
стремлении
850
невозможность
фаза
##чы
празднование
производственные
атаковал
показана
кавер
хирург
центральная
142
корон
знати
##нскую
##чич
глобус
индивидуальные
цирко
##менского
охоте
вермахта
легиона
what
##чино
пристро
отсек
центральным
подключения
изучении
##rem
цо
##бани
росло
горные
полнометра
##мб
договором
##фло
трамвая
##аны
известную
##дур
композиторов
равенства
##азиат
блиста
##тенко
соответствия
модифици
окончание
конвенции
лицензи
##менное
будущему
заводах
мужская
четырем
достижением
##фович
побега
православные
указу
лох
доцент
надежности
par
купца
белок
курсах
шкур
капитуляции
узбек
записан
##чаев
##ior
продюсера
судебно
способствовал
хаоса
предоставляется
верхняя
цитаты
пожертвования
##гации
обыкновенно
аго
##лтон
исчезают
внешнее
##пта
шведского
тали
гипотезы
проектам
философских
признаку
замене
тестов
ценным
мод
племянника
отличии
пятая
ранним
эмоционально
изобразил
написанные
##цизм
голом
over
ратифици
монету
консул
поощря
награжден
сменила
журналистом
отступили
должностях
влади
луче
льва
рв
записывать
тоннель
наведения
разворачивается
защитником
колонн
продан
##дени
научное
тюрк
инициатором
спирта
ассамблеи
творческого
связанного
богатого
меньшее
проникновения
создаются
режимов
индивидуального
имелась
вью
купола
мюнхен
называемую
разбиты
##ca
рока
технологических
признаками
экспресс
предназначена
##сея
##керс
стрела
предпочти
казну
завися
html
бронзовую
обладали
##вие
помина
сотрудничает
##гея
белков
диаметра
##беля
##ym
идентификации
объявляет
##yl
обознача
овощ
радиоэлектро
занято
государственному
колец
деление
карли
каменного
электропо
стрелков
содержании
партиями
выполняя
утеря
проката
крестонос
гипотеза
прилив
протоколы
##стское
налета
направленности
када
называемое
340
лео
гросс
1831
духовно
##люс
скульптор
плодов
дуэт
описании
распространению
кинофестиваля
бензино
апр
марше
достопримечательно
1100
##аса
##fin
1820
низкую
распространяются
известном
исполнением
представленных
##ondon
полных
конкурсов
дружин
современности
фракция
авторских
играм
полком
##ступен
соображениям
акушер
##тто
релиза
нон
высотах
ограничивается
арка
определяются
рассвет
отвагу
переправы
##реса
##рными
примор
промежуток
образуя
поэмы
into
вожде
реза
написанная
портов
серебром
храня
летчики
велики
сенсор
автомобильного
баль
передается
континенте
исследованиям
признаком
поставлено
медведи
проводилось
лауреатом
телевизионных
##графического
демократического
деяния
лозунг
оператором
происходила
возведен
вторично
затвор
московское
сохраня
снято
сиони
##гел
##бата
смешанных
##дау
обозреватель
протоколов
верхо
##ript
грунт
узлы
розыгрыша
стрелковая
эпизоды
окла
написанное
сделанных
1842
##образования
vol
разновидность
величину
картах
грозно
има
закуп
радиостанция
рентгенов
памятником
##бад
учебном
подвергаются
гази
религиозным
##деле
##лиц
образуются
1814
казны
различи
близлежа
выводит
знаменитым
##зированная
арифмети
##ize
статуя
руины
выпадает
стратегически
мок
приближении
послов
кю
##нча
##чинского
##речен
##kk
##жденным
##ublic
аннексии
who
сегмент
##urg
морскую
телерадио
рассказывается
доступных
организмов
##шии
приемов
набок
оговор
##донов
словен
навигации
манера
включительно
категориях
живущие
конечности
##беков
op
студентом
римляне
занятых
did
##мун
расширении
1852
##run
подчинение
завершен
независимые
##ather
чертами
хэ
преодоления
отступление
максимальную
сентимента
тюрьма
аргументов
преследу
канони
##систем
переименована
напряженность
франши
##мута
шаш
##вни
мелоди
изд
аккумулятор
гете
киностудии
##ipp
испанских
ответственным
составляющие
фр
выделяет
картофеля
ein
##ways
правое
блестяще
графом
левым
##затор
электрических
измене
закончена
подразделениями
игор
успеху
эссе
геноцида
подземные
финальном
##стрия
##коли
##тивны
изменять
взятия
хребет
мятежников
вали
маршала
##левым
конфе
основателем
правым
хирургии
фантастики
постановлению
формулу
свободном
карна
разделены
омы
сюжету
индоне
высы
##ите
авторитета
территориальные
екатерин
##тими
избрали
джун
сказок
comp
гитарист
исполнила
обучался
разграб
историо
вступлении
традиционным
раба
##58
расписание
проявлял
зуба
сниматься
крути
учительница
квалификацию
равномерно
творческие
аппаратуры
начата
##aut
app
##гт
##erson
образовался
шкале
членство
коррект
сохранила
##oj
##eta
мухи
подлежа
##ille
##шинского
почта
вещания
перехват
традициях
##74
предназначенных
143
осмыслен
рабочими
рекордов
перестраи
has
завершается
наследником
##галь
металлур
выработки
преподавателя
батарея
брендом
короны
раствор
сподви
возрождение
руси
##коме
проектирования
практических
книго
ветвь
1300
браузер
монголь
пат
гомосексуаль
##энс
сообществом
молекул
153
кувшин
ове
##ware
истока
##69
преимуществ
кольцом
строил
повествования
эксплуата
склонах
танкового
##симов
тормоза
##риты
крипто
самоза
формуле
228
метеорологи
сохранению
обеспечил
кс
ставшего
мах
зимние
узор
восстановлено
компо
шестнадцати
показателю
познава
em
инде
художеств
##ровская
исламского
епархия
казармы
бактерии
расширению
обнаружив
кружок
ер
раствори
заведующим
полигона
переписку
удачным
правильного
##терн
подчиняется
революционного
##чар
чрезмерно
венециан
одинаковых
распространением
кудря
посетила
парламентские
перья
размещена
игрушек
##группа
восстановил
##oda
##хари
отделов
чистых
##трав
зеленая
инфракра
упадок
всена
##фран
общественную
пробыл
стрел
средневеков
сталкивается
##lt
послании
самолетами
тигра
##вирус
духовные
ринг
прагмати
продала
выведены
называем
постоянную
вампира
стаи
свержения
1834
полигон
1700
бела
караван
стада
пограничных
отменен
заводом
специальными
саудов
##нна
нашло
прочности
воинам
боевом
такт
роу
четвертьфинал
розыгрыш
крестьянина
ака
общине
равным
записано
простыми
танками
связанными
железнодорожные
просмотр
сертификат
##бине
мастерскую
журналистики
пользовалась
сакра
получен
реорганизации
отклон
поим
сну
мечами
вороб
выходцев
cod
механик
номенкла
оригинал
гражданское
знаменитая
##кты
богини
##my
антик
фиа
противоположность
родина
##торно
селение
выигрывал
панк
таможен
архитектуре
жизнедеятельности
##sch
##onda
разрабатывать
поражен
##ado
программах
муф
корнями
look
мультиме
выдав
источниками
заявлено
##банов
бров
юниоров
тожде
входящие
дополнительным
пера
##ird
737
позволяющие
попав
хим
анализу
собранных
японская
атомов
парном
вуль
поддерживала
составы
##сская
дона
древесины
сюжеты
aut
аз
партизаны
хранит
открываются
поздних
святая
##хак
214
отправляет
подруг
##бут
указан
##евская
ангела
end
рукопи
шери
полному
геор
презентация
управляющим
викто
прототип
##сара
острая
бухты
унтер
педагогического
161
##цевич
сухих
летописи
предметами
походов
овладе
революционных
##ano
кантон
платформ
бомбардировщик
жестких
старшие
сити
создав
расходятся
разрабатывает
продолжении
ското
гвардия
пинг
##ices
жертвен
старинных
##ффен
месторождение
катания
эффектов
путать
восточно
ускорения
основополага
##iot
обычаи
приказано
химические
нося
##wood
притоков
повышается
томов
листе
достигается
абсолютное
сохраняя
присягу
моллю
когни
##пите
итальянские
высшая
плаз
##яет
1837
##шире
мот
подвергались
изображена
улу
##прома
календар
лесные
журналистка
##гма
туризм
епископов
ангелов
256
разгромил
свободная
удач
римских
письмах
непродолжи
предпослед
##kin
жизненного
##ror
фашистских
икон
похоронах
мочи
сд
браки
стабилизи
характерны
собрано
##цца
тактики
иммигрантов
потоп
проповеди
заключено
##дад
инженерно
организует
внуков
богиня
этапы
храбрость
диагностики
отмена
заложена
победив
купцов
предназначенные
тяги
покои
обкома
##54
монтаж
оказывал
вариантах
браков
дизель
запира
интенсивности
208
делало
северные
обтека
княжество
копа
торговым
деревнях
##56
учебников
диапазон
##элла
философа
исполняющим
обитает
совершается
посвященная
франко
квадрат
##лянд
редким
поддерживаю
этнических
снос
##азов
флу
##логические
облике
##номия
этапом
##нюк
загре
донецкого
аби
хора
саль
##ola
психологически
определенная
запущена
углы
программирования
##летт
особенностями
##тоб
дяде
вышеупомя
россии
координат
лицензион
фемини
##чатого
названию
##куляр
дискриминации
остатками
##нны
маркиза
марсиан
православного
line
низком
тром
описанию
##ept
преемником
дрож
мягких
трибунал
заряда
точного
реализован
171
могила
самолетах
добавлять
##сул
архитектором
указывали
диаметре
индивидуально
булы
суббот
ускорение
водос
пек
##цене
наступлении
авторами
##стически
унаследовал
кэ
учебное
противниками
предпосылки
спортивная
летнее
крылом
##элем
бронетан
православная
пополнения
применению
описывается
атлан
индо
легенд
##пеля
юрисдикции
интенсивно
пехота
##ima
продолжительности
1846
шат
##шимися
ненаде
сторонник
ограничена
сражениях
посещают
##женко
режиссером
##славя
dr
максимального
##оп
возникновение
##фером
арсенал
межрегиона
множестве
##лун
общенациона
розыгрыше
наблюдаются
кварталы
умолчанию
петлю
деспо
плацдарм
мужские
преобразован
речки
желтого
британцы
десантных
##денбург
163
выд
отрезок
союзных
общину
колодец
трубе
контрольно
##цка
группам
##сат
взята
учебу
аст
шестое
тираж
летчика
настоятель
избранных
рассказе
определено
##бук
гемо
шины
труде
##фея
прит
прихожан
родослов
анато
af
##чатым
кардинал
колокола
петру
##зун
популярен
муниципальные
голуби
покровительство
ролью
корме
1847
записала
##цк
церковного
##вз
авторитар
танцев
кис
заключенные
fe
котла
трибун
слона
уравнения
##дрик
##мэн
##asc
##сино
##bs
помех
культиви
щети
фрагментов
танковая
оснащены
почки
##rol
незначительные
1828
мети
420
хранении
генератор
141
разлага
зари
президентские
школьные
музыкальном
##vol
покровитель
стихах
##98
контингент
выставок
тк
примыка
влиянию
привод
процессах
sl
##зим
фигурирует
воздушным
развивает
реформе
1838
применительно
провинциях
смон
##тео
заняло
##плана
##рующими
описаны
симптомов
детектива
поэтом
институтом
1815
простор
##культур
комиксов
маля
гитаре
состоящая
мина
допускается
парикмахер
регламент
дате
принимаю
бронзовым
mon
концертах
1813
тестирование
212
парадиг
отряде
чине
потерпела
отстранен
возведение
меньшим
бригаде
реду
человечески
красок
степь
##рических
хищников
рисунка
исхода
беге
##харда
быстрых
подчинении
непригод
известия
прохождение
младшая
террор
sur
ама
вертикально
аэропортов
##icht
кислота
any
##дские
gl
специальность
разделена
пила
произвол
1845
бета
мал
передавал
наст
хронологи
предоставляют
альтернатива
##хав
архипелага
правовые
получивших
вносит
##фат
профессионал
советском
руды
отражают
обязыва
критериям
6000
оставшись
##ij
тоннеля
смен
бывшими
производил
меньшинства
применялись
крупнее
съемках
##гот
священником
разделяют
образцу
открылось
унаследова
освобождена
героини
богослужения
традицию
частное
##бел
приглашен
производятся
снимался
##плин
##тима
скали
зоопарк
каменная
##бергом
дальневосто
лютеран
заложены
заседаниях
пирог
миссионер
переезд
обитель
построение
эндо
пьеса
реактор
##селя
прицел
королевских
секты
достоверно
канун
##ents
некоторая
каталон
археологии
эмигрантов
драматического
##ванно
вь
##ray
окружного
исследованиями
метафо
царе
1839
олень
добродетель
##танты
поднят
nb
дагестан
коммунизм
учебник
милосердия
мели
амино
реактора
специализированных
238
молодежного
повстанцы
албан
требовало
сухого
талантов
углерода
букву
ям
графу
путях
полковником
указав
выполняются
растительного
магистр
бурно
отклонения
имения
острого
землян
бедно
мелкого
дуба
масле
следующими
1844
##ровавших
151
посадка
титулы
переднем
выко
сеньор
пророк
обрел
погибает
опубликованных
проданы
социологии
дневнике
переводчика
мастерских
селу
расте
1836
##левые
потерями
электрического
##дзо
кинематографа
похищение
христианского
использовалось
обширные
##льскую
описывал
##intendo
передних
куба
задачами
образовано
кристаллы
быт
##ique
разрешении
священники
решетки
осадки
##келя
расчлен
назначением
социалистического
излюб
wer
контекста
##киа
захватчиками
##новская
испанцев
колум
1851
подверглась
бунта
процессор
гимназию
воспоминаниях
##льни
стадия
надпи
##рр
хранилище
1825
int
преподобного
##ning
1826
стратегическое
долина
поисково
##гаре
восстановлена
##сима
равенство
вегетариан
коммунист
сдаче
##ander
##юс
##inal
амбула
пике
мали
темпе
смертность
кукла
актом
водохранилище
##пино
боксу
беспровод
укоро
##зского
215
##zy
предлагалось
дореволю
покидают
рабства
ранеными
изданием
гранат
палубы
включено
внешнем
сербов
зол
1802
трибуна
физическая
##зные
##bor
графства
монаха
##опла
многочисленным
превращение
##тани
##новском
сказалось
университетах
коко
##цкую
гавань
судами
близлежащих
сосуды
##зных
анализе
послужил
ущелья
западную
аббат
сосны
235
диктатор
древнерус
факторами
сомнению
отличает
общими
молитвен
развалины
дуэли
литературо
##жденная
построенных
производственного
расстрелян
алге
повлияли
кукол
инфан
реванш
сосредоточены
хун
бывшем
бомбардиром
соревнование
down
паровоз
морфо
преданию
становления
княгиня
боевик
трона
костюма
##драть
##сева
av
императрица
территориальная
разрушена
секретные
итальянском
отступления
исполняется
малое
гине
верхние
виза
взлетно
1832
##тропи
кони
вытекает
мелодии
риса
640
табак
зенитных
играми
##мю
che
графстве
снимается
архаи
фантазия
гид
кардио
зачислен
пролива
##белл
##зны
практические
сексуальные
##бас
##зуб
отсутствовали
гостиница
рекру
##ste
быка
when
сопровождение
стволов
сохраняются
172
принятием
различать
мужскую
173
мух
марга
##руа
пав
##тирована
po
know
констан
коричневого
##цке
вио
##ськи
вверху
превратил
величества
образцом
##ниан
формирует
заведении
##стите
притока
тунд
национальность
##чивы
почек
единицу
перечисленных
копыт
пунктами
включала
твердым
диктатуры
естественное
прилегающих
мусульманских
мертвые
##кован
благ
бород
таджик
достигала
дополнительная
послужили
пересы
репрессии
1835
##поч
типографии
веселые
оказала
катапуль
зимнее
греческие
пьесу
ir
командных
пиг
уникальных
маркиз
совместная
архиве
рако
##ple
отказавшись
признавал
переулка
ревизии
клетках
##яя
осуществляются
просветитель
фальсификации
древним
популярны
скво
сериалов
стандартных
##фун
заповедник
плес
происхождению
объединились
##tor
ec
опухоли
освоение
##itz
деструк
переходов
отмечая
гены
мех
систематически
существующего
##оли
ведущими
гетеро
бел
введением
хал
doc
торт
преподаватели
искусственных
рисунков
компар
ксено
##59
очкам
##фис
архитекторов
##яю
люка
дозы
империали
крестьянин
начальством
музеи
цветные
##gr
сближение
##ллес
эмира
##эрто
казен
выпуску
публичное
формами
206
раскопки
проводим
##гладеш
##ha
центральные
##ньон
военачальник
станицы
ленинград
ласка
банде
вдов
м²
восьмер
##лием
##boy
восстановили
зор
переводом
поддерживается
послужила
предложении
##рические
коммунистического
нота
исполнили
характеризует
отвергает
занимаясь
током
круиз
профиля
земельные
отход
нао
велось
полагали
регистрация
походы
замечен
##omo
##go
печатать
пакетов
неприятель
мезо
размах
##руб
1796
##гад
298
кале
дже
поженились
турк
мож
успешное
музыкальное
аду
икона
глюко
думе
рельсов
обслуживает
кишечника
отмечена
монарха
прибрежных
посещает
рекорды
астрономии
психологических
##ронов
драгоценных
этики
ссылок
ит
служащие
санитарно
издана
дружеские
крыле
продлен
##ift
устроена
переселения
кружка
##72
пруда
муха
соответствующая
применил
мандатов
каша
максимума
прошение
перегре
классика
##alin
##борг
ставшая
центри
ускори
фальсифика
переведена
электрические
##оки
##va
основываясь
временным
1841
камы
библиотек
шведов
выживших
##ham
размещен
##ida
пересад
##ico
финишировал
бью
подвергался
председательством
отделы
##орт
увлечение
марафон
купцы
предшественника
##ival
строятся
бэ
перевал
производителем
духовным
архео
фазе
графство
сравнитель
гроба
изменяется
естественные
галактик
госбезопасности
арабы
североамерикан
1806
конькобе
1805
кинотеатр
влюблен
мастерская
объединении
парами
господства
рыбаков
призер
дополнения
крымского
сл
370
покров
позволив
##рер
##рано
имеющего
музыкальную
куклы
фронтов
захватчиков
##ногих
равнины
предшественников
ветря
научном
транспортная
известному
борец
получившие
удостоился
массовая
медицинском
косу
гитара
##тла
ярмарки
существенным
зданиях
частота
вуз
ранг
1817
прибыло
сетки
катеров
частными
усадьба
258
фрагмента
##гарт
спонсор
питаются
молитва
иллюстрации
психология
москвич
вороне
обзоре
уступая
препятствует
развивались
полового
минонос
путевку
##ember
турист
протека
##морфо
составления
##рида
##завода
выделен
итальянцы
##летнем
пятым
оборонительных
310
забирает
##ази
отделя
посещали
дословно
##деви
противолодо
сарко
столов
пищевых
1833
индексы
сыгран
бря
213
бум
заменены
восточное
равнине
непосредственного
братства
либерал
объектив
##полис
##ful
фронто
опирается
критериев
равнин
##ап
кр
галерея
##ая
282
216
аш
again
старе
203
гамма
грамоты
наставником
##перт
гали
снята
тихоокеан
смол
точная
##alth
сервера
##мово
орфо
##пир
##сцев
##рада
первоначального
радиус
штурмом
переработке
театром
наклад
творчеством
делению
##ama
проникает
##ута
звучание
es
инструктор
каши
обладала
оригинале
матрос
упоминаются
дуэль
##енин
добры
бронзы
санда
писательница
итальянская
стаж
фехтова
##bert
##olf
пересекает
энциклопедии
кве
земледель
##хае
представляло
лиси
пиа
разгромили
галь
депортации
хроники
##гаев
##хино
мужское
техникум
##ness
пластин
мифа
пираты
потем
психологического
##ницкая
немецкую
##иты
качествами
ставшие
основывается
отрицал
национальному
правну
холе
##рера
some
модернизация
хутора
самобы
лику
открытию
##тея
##лава
бака
испанцы
сосуд
туннель
выходцы
символа
хвосто
катастроф
начальных
дозор
отходит
заметным
now
фундаментальных
1810
станциями
чарте
нерас
регулирование
наименования
акулы
1821
возвращает
264
конвои
законодательного
проклятие
егер
##рьев
французское
##ips
луган
поэты
гаи
скоп
повествование
постановлении
фразе
британском
названиями
##техника
осуществлял
окрестных
струи
предусмотрен
драматург
термоядер
##рба
воинские
маро
перего
малую
возобновил
периодов
1400
брус
сельские
варя
##деми
min
##arth
героям
делегатов
перу
овладел
выигран
свердлов
кен
значимые
##ho
тесные
элект
мука
компонент
натрия
1843
мими
совхоза
автомобильная
прозе
католиков
термины
катализа
##бб
служение
##мака
строились
имевших
взаимного
##ьюри
метрополитен
фокуси
древняя
латыни
правит
эффектом
style
логотип
фасада
алтарь
##филов
ен
демократи
мио
верст
вводят
творчеству
торжественное
организовала
издательстве
планетар
шин
мультиплика
##рске
нелегально
##риха
теннис
экспонатов
обработку
калифор
##ister
гитле
факел
песнями
##велла
сложился
бояр
##бабве
четвертая
баран
корма
##логического
##гино
уфим
аск
##cus
менеджером
сыграло
звен
м³
эпидемия
продуктом
##ураль
заведующего
чума
филармонии
оформлении
дирекции
синем
произведена
испанском
орды
приобретают
печатных
шк
ind
##ллеров
евреям
подтверждено
итальянским
соглашении
детены
удалении
кирпич
##aris
##пич
##br
девствен
выпускники
разведчика
яма
##дников
близнецы
##тул
уплот
веществами
египетских
переоборудова
чемпионы
относящиеся
признавался
##доре
богато
ганд
art
утверждении
распространении
прибывает
стадиях
раскопок
виолонче
буше
поочередно
##ope
##верс
##форде
вентиля
зарубежья
литературные
футбольные
переднего
эпидемиологи
передние
##ес
##тл
ультиматум
рых
гема
фуга
армянского
колоннами
хранитель
наземного
художественные
абсолютного
сконструи
ела
209
специализируется
##нтом
##сб
##дуб
##84
бухте
er
ударных
винограда
##тован
демократическая
ного
снов
##лои
ац
ламп
тим
##зие
дворянства
божества
последующем
восходит
зенитно
заменив
##токси
эла
написанных
применяли
французски
традициям
тигр
соотношения
прибора
павильон
железобетон
регби
гармони
господство
отрывок
1809
шаман
вален
концах
чувствительность
краев
##iff
заговоре
осуществил
клан
крутя
ограничении
половых
журналу
роману
служения
##бис
примыкает
комо
распространена
выставках
присвоен
##зирована
вата
записаны
##ms
##баум
обработка
ясен
титулом
джаз
лож
рого
радиовеща
бот
кремлев
##ым
color
используемые
##нкс
описано
##zz
##онами
пасха
##виан
бавар
кои
##дус
##67
основали
275
ангелы
динозавров
hand
всемирно
способствовала
судье
идентичности
##сп
мужском
практического
долговремен
вынудили
разнообразия
орденов
потомство
получившего
бытового
мультфильм
разработала
гильдии
font
ласто
аутенти
юбилея
проведенные
поместил
##джен
1792
обратного
непосредственным
раннее
##минь
блокировка
картинах
##зинг
стана
##тев
эксцентри
сажен
##тио
поместья
вулкан
муравьи
блоке
обильно
мотивов
ель
дебютировала
написание
принцем
указана
толсто
таково
буфер
тель
уникальным
##mb
близнецов
старообряд
горба
придворных
гипотезу
минимальная
возвышенности
протяженностью
реализованы
оборудованы
наименее
азиатских
проектирование
единственном
союзу
характеристиками
производные
названо
сложными
крепления
относящихся
идеал
подчеркивал
##лич
##льды
наблюдатель
краснова
соответствовало
преследовал
исполнителем
##мерных
1807
психологические
##цко
возникать
##дором
математик
консультант
##пун
местечке
информационная
концептуаль
365
использовано
аббревиа
детона
убито
##эя
мастерские
##нетт
ветка
стелла
аналогично
временная
##чатыми
ио
утверждала
основополож
родилось
тв
сохраняют
##omb
##ergy
##cess
обоснование
##жана
сборнике
кометы
возвращены
изложен
##ворт
нефтеперерабаты
одобрен
##грамм
##гены
отсека
репетиции
трио
монета
японском
##жское
коррекции
оригинала
крип
ноты
установленным
флю
южные
##gen
корня
доктрины
##цикли
##гол
нары
веществом
утверждено
##дат
car
##ales
игровые
бессон
колокол
заложил
##ella
мощно
выдающегося
фабрику
##электри
благородных
##уровне
грена
польском
штурман
##ring
пехотного
кросс
испытаниях
брюхо
бакалавра
шведы
успешные
эпизоди
##морф
выравни
##гус
национализма
вокал
спортивным
запроса
##eph
восточная
##шира
актером
разработанная
ходы
##ффер
патриархата
славе
##лива
сорт
загрузки
настоял
противовес
славянских
##ump
герцогом
нови
##цына
1793
конструктора
осуществлялось
церковные
альтернативные
смел
идентифика
подводного
##новы
перелет
параллели
корректно
герцогиня
приводило
представлению
морское
263
осаде
эскадра
##цзян
консула
кардинала
галан
программам
отрядами
событии
коллективы
орудием
витамина
отменено
уголовно
географических
труппы
##ident
орла
элементарных
включается
альфа
плаги
карточка
изгнан
арки
вхождения
286
артисти
азота
путешественник
обрез
локализации
постановку
завещание
##ину
физиологии
##ффорд
пульса
кау
бах
оставлен
головная
массива
учреждена
##шедших
малоизвест
зод
бомбардировщика
частые
колония
оканчи
опытов
плазмы
зарегистрирована
##iter
балл
викин
##зио
##рама
пель
насекомые
гормона
##мис
внутренними
##ling
##umb
необрати
##min
##водные
##cher
компьютерные
залов
выбрана
аллее
бест
унитар
махачка
знакомится
сухая
липо
##зная
герою
кинофестивале
осложнения
##энергети
image
королеве
значением
подводная
long
развивалась
изготови
##ya
##рата
##atus
истоков
почт
рощи
торговая
пьес
die
охарактеризовал
##cept
##gin
измерение
сердечного
покрытием
колеи
законодательно
образовательные
пишется
аспирантуру
##фини
вандали
сессия
базовые
музыкальная
сюжете
ала
##фман
перечислены
выдающимся
##винов
исключен
самбо
##42
выигрыш
##куров
боковые
атакую
статую
содержал
процессами
царского
акул
##товы
##ios
треугольник
движок
##генных
семан
##рау
##кул
восточную
получившая
поэзия
помещен
могил
пл
увеличена
кандидатскую
зерновых
##aro
дифференци
тов
муниципалитетов
гуси
продолгова
одноэта
волокон
толкова
##двига
вершина
правители
папо
гендер
inter
##дским
аналогичное
описанием
рисовал
луга
материн
##ga
маргина
грузинского
образовались
##графическая
гир
тропических
расположенное
боб
лодо
##прием
территориями
бало
рассмотрим
расстрел
отдельном
1811
##ns
##исты
##ченков
улицами
##сос
##тман
сыновьями
1827
##ловском
психических
землями
записка
распространено
##вир
фантастика
документального
переходы
назначать
1795
татарского
альтернативных
режимы
минда
иммигра
шахматам
удаля
местоположение
юридическое
снабжение
механизмом
1824
репертуар
руи
сената
##den
цифровых
исключены
##ision
крема
представлениям
##яз
##дрит
зачет
классифици
напряжением
рф
##сском
сказке
профессиональная
юмористи
старина
уклад
##нэ
высокоскоро
административная
207
увлечения
влиянии
тони
философов
les
фильмам
жит
слонов
пролетар
польским
переписке
рату
заключа
##kov
##oria
годи
##яться
номинациях
календаря
минимально
автов
привилегии
ударе
преобладают
марку
подземного
добр
четвертым
быков
##диан
французскими
255
электронная
##ука
1808
представленные
##джин
чемпионами
собраниях
##енина
наследников
золотое
##виче
than
повлиял
пассажирские
преподавать
острову
245
спар
разделил
романти
трик
марк
островом
всадник
покрыт
разворот
кульмина
ниге
движи
терапия
кун
эсеров
имении
211
геометрии
поселились
шва
георгиев
##unk
подкрепления
низкое
типом
воспе
изображает
конструи
ассистентом
фильтр
базили
десятин
денежно
сочетания
выпусков
базар
дуги
##рич
отрицание
почтовые
германские
польская
1790
противопостав
трудовые
титулов
автомобильные
расстрела
камин
dem
пропустив
светлого
агломера
художественным
вратар
выпад
своеобразным
кипр
представляющих
закончен
альбомы
бон
исследовал
низших
##ьевич
##гы
##мером
форт
align
астероид
противотанковых
марке
305
популярная
мажор
эволюция
##сберг
##46
царица
неопредел
коллективом
почетного
барокко
уничтожает
создавались
##49
антаго
сценариев
закончив
портрета
пена
приобрело
застро
рамы
погоди
возвели
тринадцати
посвященном
минского
клер
руса
семя
##фрак
географического
свинцо
сыне
соответствовали
##ootball
устранение
стерео
конфигурации
плоскость
##рск
трансформации
скала
дистрибу
калмы
1816
фасо
локальных
британское
самка
небесных
буб
##проце
съедоб
ударные
исключая
пирамида
убита
беременность
иранских
##кел
ведьм
голуб
предопреде
разновидности
подразделением
называемым
компи
участвовало
эпохе
классические
куша
увлекся
турками
выдержки
вдовы
gu
зрелости
наня
текстах
греческим
гоп
связью
документальных
берез
архитектура
сельским
выпущенных
моле
присвоил
##заев
скульптура
корпусу
отсы
каналом
манифеста
русскоязычных
мультсериа
мятежа
##87
образовали
взято
##ments
##rt
получена
меньшую
повествует
##px
##ograph
французскому
заболо
недостатком
алтаря
космическая
почва
old
##дот
виртуоз
мобилизова
крупномасштаб
биологического
точками
##зонов
227
статьях
назначается
мавзо
возобновление
авангард
флоту
телескоп
психического
##шкевич
выразительно
sec
правые
##реев
лыж
путешествии
стандартные
обозрение
new
императорского
ион
увлаж
##партии
our
##трон
##ард
клетка
285
пригородных
проло
платино
огу
поздние
браком
луком
передел
раскола
прямыми
геолого
##анг
борд
акроба
сняв
штаты
повышен
диагона
опубликованные
журналом
инсцени
цент
южноафрикан
430
don
##конов
залах
##тиан
223
стилизова
обеспечивается
присвоении
скважин
винта
взятии
фрегат
слеп
тюмен
##urs
1801
##бос
различаются
располагалось
формируют
##езе
see
##43
##фила
винтовок
экспансии
##фрон
полюса
традициями
only
декларацию
недостаточности
автомагистра
рассматривался
пролетариата
морепла
##als
##ньки
1818
que
начальники
зашиф
##ui
водами
дара
заслуг
растительности
акте
турниры
магнитного
каталог
доз
##чувстви
божь
званию
популярными
задержка
декабри
милан
характеристикам
художественное
изделие
построенные
волшебник
##яют
самец
219
##лус
выступлениях
##ude
шала
увеличен
сенат
выходы
##арда
мультфильма
холми
дирижа
теплово
администратор
разработчик
научными
используем
архиере
установив
##таев
яч
блужда
внучка
сумев
##кского
218
линиями
продана
повелитель
выхлоп
синтез
отвар
захвачены
возведения
соавторстве
дор
порода
парадокс
1819
царицы
припе
##чиха
##век
мифы
современному
преподавания
1823
нели
ордер
студенческих
художественном
аранжи
частоте
павильона
имеющее
патент
##ias
##жским
##53
созданное
французами
советскому
изобретатель
классическим
занимая
полевые
изгнании
выбыл
паук
муниципальном
коллегия
прозы
мифов
эсминец
пропорции
##вре
разновидно
##52
##cc
уик
усовершенствования
321
рассматриваем
японским
моделирования
орудиями
послы
слон
вычисления
модификация
актуально
гонщик
##мского
##баха
исследователя
##мунда
казачьего
##ious
предложив
отложения
перьев
обеспечен
бетона
1784
мела
интро
употребляется
реализована
контекст
крыльях
мануфак
посланник
электронов
моряк
рецензии
гэ
ярмарка
нм
насчитывала
##хун
переводил
котов
##uge
202
беспрецедент
царствования
ноу
пузыря
скопление
употребля
всемирного
щите
королевстве
##ччо
цикле
трудовую
братство
включали
диске
являющихся
курьер
финского
##уш
1822
трудах
отображения
прима
воени
континент
символизи
электрод
самостоятельного
##dy
имевшие
air
включении
##ери
бабочки
фотоаппарат
##мурт
сослови
миш
##han
сумм
била
плода
выполняла
литовского
утверждена
пения
1803
промысла
лит
взаимно
воеводы
настоянию
бытовые
самостоятельное
оратор
формируются
пис
rus
10000
ралли
абсолютная
410
буха
гун
латинского
компьютерная
ким
утверждены
соотношении
кы
содержащих
эволюциони
цензуры
гала
раствора
##ровщик
##кэ
оригинальных
##ces
кани
отрицательные
прохождении
##пус
снималась
##коса
исправления
лазу
##nd
селении
сюжетов
арабские
оригинального
вдохновения
танковые
построенная
прыжки
штурме
коса
сохранением
бомбардирово
1799
техник
принципом
методика
богословия
собственники
##жские
высмеи
сопостав
центрами
##aba
исланд
суннит
сева
основанные
платеж
подан
верстах
сформированы
950
чекан
##шемся
полупровод
производились
европе
неудачного
нижние
тая
православие
чок
##гени
большевиками
закрытого
кассе
баг
прославился
культурным
уничтожив
бани
1797
выпук
югослав
определит
##ty
средизем
##тарио
находка
рязан
пень
усадьбе
##зара
увлекался
космонавт
земледелия
конкурент
версиях
1789
поспо
заимствования
теологи
прекращены
сир
вестибюль
чехослова
440
отдав
использую
басти
характеристика
барр
периферии
тренировал
документация
вооруженное
резиденцию
морскими
приключен
##61
соединяет
музыкальным
австро
портретов
##79
опередив
##кни
линко
##ии
быту
##хович
##51
развита
напр
1794
парфю
полково
укруп
голосованием
передаются
##ker
вызвав
инозем
варваров
гитар
светских
депрессия
шнур
##men
ходов
повторение
##яно
русла
палуб
евреями
обеспечивали
##вине
полководец
##ible
сгорания
поселков
крещение
##inae
left
скульптора
телешоу
оригинальные
осуществляли
устава
коси
пропорционально
воспитанник
декорации
испанские
синяя
витра
гестапо
награждены
##никовым
##ллис
энергетика
##волож
##тене
специализирую
часовня
последователи
всесоюз
##гва
удел
маз
княгини
##rich
полосами
##диев
##харт
преемника
##шма
обоснования
философского
седан
##unes
произведением
покрыто
искра
##attle
сквере
##дисон
рэп
характерна
волокна
ванда
бели
##duction
##ед
аптека
жуков
плита
лесами
реках
углов
##ular
заменен
приложении
терминологии
побережью
центральное
старосты
лимфо
239
достро
французскую
рега
антенны
относительности
постоянными
искусственным
академического
емкость
новообразова
критические
драме
##маг
гольф
менеджмент
селом
##hr
пианино
кристалл
обусловлена
детски
клипа
вирусов
reg
аскети
астрофизи
твердых
first
фюзеляжа
мелодия
чех
##рол
замков
археологических
многогран
покрова
резервного
##day
размножения
comm
парки
египетского
логически
канадского
rem
иммуно
атаман
давлении
издавать
объезд
колли
осаду
ветры
вознес
##вагон
##берн
di
сабо
229
достига
автоматизации
содержали
создало
##аму
фэнтези
посвящено
изложение
муш
триумф
табличка
##less
460
описывают
окружности
its
вызванные
##ye
локте
новозеланд
турецкая
понятием
242
линиях
тепловых
арх
окраску
##yr
##мине
путешествовал
синди
душевно
предлог
##ьен
375
##шик
прик
медь
англичанами
воспаление
издавна
активностью
усми
традиционное
лунного
трилогии
окружен
инспектором
служебные
##дань
почетным
независимое
остальная
заметны
одинаковы
кальку
обложки
##рор
тар
##yt
##тология
добавлением
цито
противопоказа
станице
экологически
##новки
##allen
поддерживаем
##рани
владении
##ative
act
оккупирована
одина
чешского
ускор
##62
##верт
театрах
органических
##ache
оль
##net
пулеметы
арена
паша
гитары
отзывов
1804
персонажем
слом
воеводства
размещались
слив
флагман
приспособления
импульса
деревянного
##нрав
пресви
эстрады
боярин
сили
письменности
пещера
##фос
##психо
сходства
латыш
генетически
характерных
##цитов
присоединяется
раса
созву
меньшинство
div
режиссу
фотос
##блан
греческом
##тане
первоисто
переезжает
##вием
продолжаю
создателя
металлы
воинами
союзов
крапи
макет
голубо
эпизодах
инкуба
подполье
отправлена
##ves
##mann
рождаемости
яг
тви
ассистент
шведских
венгерского
пит
интерьер
начальная
телесериала
этю
переписка
other
записана
##анна
ув
страхование
нахождение
крен
изящных
##пост
рече
##ronic
390
предводитель
признав
##нген
геофизи
самца
созывов
##ensis
убив
смешанные
форта
толщина
##дору
молодежных
ценно
##ocal
оборонительные
избирался
аксио
янтар
требую
исполняли
##шивания
представляющие
космонавтики
мрамора
заболеваниях
##дема
мировоззрение
благоустро
кланов
схоже
##вском
шим
желтая
модули
казанского
осуществлялась
##ита
репродук
##adem
анатоми
христианские
составов
признавали
понимается
325
подвески
##utt
##мыр
дул
омо
слоях
обороня
##хид
каф
делят
математического
арханге
##omen
независимая
апостолов
плотины
термином
##жело
##хаус
химия
связывали
дельта
визуально
##ines
фун
view
эласти
сословия
##ляк
gre
##руемая
арабском
выброс
##хад
pt
грузинских
депрессив
шахмат
##руко
частица
магнитофон
##63
средневековых
шорт
духовная
придерживался
черед
##play
классическая
характерным
издательством
##ации
демонстрировал
пистолетов
революционеров
трения
##мио
владыка
системам
кибернети
get
комсомола
верны
моли
##цера
560
##шана
утопи
##cow
турин
северная
обряды
транскрип
железнодорожном
слага
сохранив
баскетболист
забитых
великом
подразумевается
планирование
микроскопи
изданы
самостоятельность
национализм
слияние
лицензия
контролировал
##amm
##образно
монумент
кинотеатрах
закат
весов
##iqu
хря
##цено
фанат
телескопа
частоту
ветров
##вилле
##фюрер
операционных
алфавит
обеспечивая
шари
дача
функционируют
музеях
малои
саран
232
экспозиция
##73
столетие
##гиль
##жар
беле
скепти
##хаба
горения
инвалид
материка
юбилею
изгнания
графини
средиземномор
ликвидация
формулировка
северную
замечательных
саксон
##aya
протяженность
подполь
головки
сообществ
mar
гитару
критических
##ische
раде
селах
балки
пионеров
поныне
киноак
пересечение
наибольшую
финансы
проповедь
оболочка
трехэта
буддизма
зимов
полотнище
саб
##ona
разобран
##квист
разветв
моты
рогатого
right
осетин
философские
луну
полководца
существи
вертикали
540
комплектов
энергос
матрицы
живших
затонул
221
четвертьфинала
расплав
чудотвор
ограниченным
медико
резиденция
определенными
прии
2021
телесериале
паде
достоверность
пехотных
изю
##fa
критиковал
кари
перенесены
костюмов
обнаруживается
куст
здравоохранение
отреставри
уи
доп
финны
нашествия
храмах
указывалось
царстве
рельефа
выработан
подверга
озером
атома
##зев
шериф
##строе
водосборного
претендент
святителя
обряда
under
высказывал
1798
классики
осуществлен
психиатрии
винтовка
##ette
##wn
##хман
возникновению
треугольника
козел
склоны
низов
1783
поражении
3500
апостола
оборудован
профессиональное
призером
сохранившихся
стальных
##пф
организационно
##енки
монолит
##длер
##усом
трубопровод
искусственные
содержались
##тва
номинирован
##iva
обратная
##41
квази
рог
перпендикуляр
идеального
##och
священных
участница
монографии
пневмо
торфя
сформулировал
железного
кантри
изото
воинское
фарм
рассказываю
наземные
геологии
предназначались
шипов
##anta
эмигрировал
приказывает
##гир
классическом
народную
отла
##система
литературным
кир
протектора
псал
vs
подвижного
смирно
##зэ
##кг
назначают
короли
##гиз
записью
профессоров
##цевым
##ковед
педагогических
древнем
мемориал
скаль
общедоступ
##манс
сформировали
скоростного
вены
добровольцем
жило
##шань
являющиеся
##шак
струны
##меди
грузовые
##aker
##зиан
черномор
индук
настоятелем
лондонском
аристократии
теоретические
питается
архивы
##уя
неопла
мич
изображениями
журав
1780
##ома
пластинку
вселенная
актрисе
##head
нападает
страже
бирю
баки
диапазона
пленки
бык
конфедерации
дополнительными
тюль
жертвоприношения
лак
предводительством
автотранспорт
направленность
##unic
аллерги
##ливы
чехов
заслуженного
##убе
прекращена
крещения
коренные
237
функциями
фараона
находившегося
греч
318
##льц
отложен
моля
гетмана
##герман
нари
взятие
авиационная
##ук
тэ
дэ
криминали
деформи
иль
пгт
емкости
составив
анализи
265
популяризации
нека
произведениями
bec
солдатских
##уси
##so
##чево
экземпляры
серверов
подпор
самцы
обустро
мемуары
##жак
post
носителем
монастыри
##azine
предоставлен
дева
плуто
##ох
архиепископом
acc
триумфаль
bet
френ
достопримечательности
дифференциаль
##енте
обусловлен
рисунке
dec
##хове
музыкантами
##даев
немецки
донос
##лох
агрегатов
скрещи
дои
##филда
фантастических
проникновение
образовалось
товарищества
шен
зимо
датируется
основанного
польско
рая
авианосец
воспали
поглощения
многокра
хитом
поручик
армяне
южную
существенную
тракту
паука
шуми
нарез
кальция
плавании
how
федеральное
толщины
изготовлены
адъютант
залом
##rib
межпланет
биржа
bel
враждебно
##lav
комплексного
алхими
дек
von
испуска
серебряная
царев
орел
приписывают
сложив
трубка
половые
polit
##дл
##osp
минеральных
стимул
обнаруживают
биография
коды
произведении
##нур
кассет
##чаков
выпустив
окончанием
колорит
way
карбо
рефери
капитаны
гип
стабилиза
##славе
##кум
сверхзву
##сцы
play
областная
gov
7000
##ули
##ural
live
пусков
зиг
пустыня
аппаратура
яку
подавление
тропа
сохранял
##генети
крепостных
оборотов
государственно
казак
культурное
веселая
православия
##эли
##дров
малю
сетевых
##фари
усадеб
сборников
практик
want
погребения
##ape
##релл
находящаяся
обретения
##цит
кузнец
функционирование
теоретических
##atic
псков
распоряжением
окис
##атом
собором
семинар
раздроб
накле
южная
гонения
часовни
after
восстановлены
кислот
##дари
1791
##house
гв
исполняют
номиналом
состоящие
ром
краткое
детско
рекреа
лавры
каркас
выпускник
полноценно
феномена
предусматривал
тренажер
принудительно
отменена
вспомогательных
именуется
рассказу
экстраордина
графов
##ni
заведовал
##виг
обеспечивал
цвете
##тас
дворянин
синтакси
лабиринт
статистически
служило
министерству
мельницы
островами
походах
8000
кодом
престиж
головные
видных
разложения
##92
болт
общеобразовательных
промысел
резолюция
письменных
царских
малом
вторглись
индивида
системати
приднестров
венец
##пинг
234
##ional
кинети
интерьера
##ries
консультантом
конструкторов
1770
пано
популярна
коза
металлургии
воевод
традиционная
музеем
пианист
прослеживается
бездет
##ндже
театры
неизвестен
конечного
однород
расположением
##ika
рассматривались
алфавита
метеорит
подчиня
союзы
македон
стрело
двухме
233
удостоена
адресов
проводника
учредил
фундаментальные
ярослав
520
антисемит
палат
вероисповедания
комаров
нечет
подписав
##ота
work
мусульманского
перенесена
вып
осуществлена
персонажами
разделы
##вас
##яма
полюс
ректором
завез
sub
доисто
##плат
##kt
good
##alo
##гидро
радиуса
##виля
470
скар
волы
девиз
воско
сотвор
синглом
цветка
порядков
режиссеров
испанская
##71
##ason
##рска
избрание
верования
cap
прет
столетии
##дас
333
трофеи
неми
валь
бэк
крюк
томо
меньших
кири
##рх
суха
сочинил
сома
##мации
новорожденных
климатических
##ford
триллер
##lection
яхт
вынужденно
яич
248
железнодорожным
беги
кинокри
марксизма
назначает
судебная
##ito
made
##gy
масти
потомок
фунт
узлом
##севич
преемник
world
отечества
обыкновенная
минимальное
образованных
отрывки
новатор
маяк
сельскому
матки
##oma
##дакти
жанров
ret
open
декан
дз
комментатор
бл
архитектурных
терминов
поколении
состоящих
студенческого
маневров
##ляров
315
меньшего
##феров
two
пожаловал
##ives
постоян
католических
ритма
перепись
авианосца
обладающие
описана
##ient
префектуры
независимыми
катание
написании
одноименного
##ционально
читается
##ala
##rov
изгнание
ангар
баскетбол
оконечности
переформи
ате
репатри
цилиндр
помещены
заяц
эксплуатация
процессора
переименовали
дисциплин
контур
##бори
утверждалось
заменена
записывает
##несси
##дорфа
атамана
халифата
дифференциа
воззрения
колонизации
рено
выдвинут
аффек
поздним
речка
хоп
##сович
text
ликвидировано
потомства
кача
нормативно
значительными
cons
художественную
традиционными
жиров
грамоте
овся
духовенство
соревновании
##пье
##yi
##lan
sch
провозглашения
общности
пчел
соседними
московская
капел
исследованием
##речье
франк
уравнение
доль
водные
эш
mil
распалась
испанским
трансми
вашингтон
чины
восставших
химик
типично
##уза
навес
окраин
художественно
ведомо
коллектор
совершенствование
выпускал
самооб
религиозно
доблесть
вооружен
ахи
патологии
самостоятельным
восхождение
архивов
напряжении
комбинация
воздушная
##гуль
верна
ауто
##оро
частот
сарае
предложена
танд
зонд
бути
##ison
##gl
rec
компартии
музею
гуру
##field
луча
термодинами
теха
переизбран
оказало
##риц
1775
##rie
славяне
##jet
экранизации
##цель
словаря
династия
казаками
украинско
red
петербургском
извлека
коф
##уко
247
музыкантом
##нида
аба
митрополитом
финских
балкан
##craft
проживала
выполненные
таран
самостоятельных
говор
университетом
недостаточность
конси
розет
художественная
шаров
турбины
254
архитекторы
конно
религиозная
##ta
штабс
##itan
повеле
википе
фонтана
магистраль
аки
сене
господь
конституция
храмом
заводу
вращение
юность
элементарно
##генные
249
поведен
отстал
уставу
низмен
одержав
болоти
мес
учреждениями
пудов
аг
ржав
##яка
##orum
##чевым
мемуарах
крестьянам
священного
римским
религиозное
отмечала
##ело
организмы
негр
##фрида
молот
кова
итогом
языкам
дистрибью
нева
##89
караул
чак
танке
доктрина
сев
свино
композитором
##вэ
медик
моторизова
управляется
фео
##ista
остатка
преобладает
историографии
порох
пах
ландшафт
##ели
##мэ
фауны
самозван
ценил
бапти
концепт
художнику
округам
##uit
редки
att
троцки
императоров
тис
циклов
выпуском
генетики
обладая
екатеринбург
ser
перенесено
пластинка
вредит
эпох
репортер
уездного
народном
божество
##гория
##кав
лавро
##ряда
совхоз
древними
университеты
кровопролит
горки
сюжетом
ортодокса
дирижи
##баш
прицеп
сезоном
генерации
неофициально
управы
фонети
монолог
эзотери
песнях
##гул
выпущенная
щелк
смешанного
предго
искажения
##дьевич
сборники
партизанского
завоевание
цеса
трактат
угли
чувствительности
убеждает
украшены
саундтрек
середина
вырез
предшественник
цифрового
самостоятельную
подается
кислородом
толкование
водопад
статьями
севасто
отклонение
стрелковых
гетман
сдан
калия
переносится
римские
расстреляны
сменив
медальон
росписи
раундов
армянских
уруг
##ras
инопланетян
округом
1787
роза
##вская
поэма
##zer
записывал
##ганг
совершив
##анского
##cat
аналогичная
бакла
вишне
дистанциях
ворона
телевизионного
учении
ракето
летопись
биос
252
литературно
запорож
психиатр
##ппин
пирамид
находок
фоно
уделял
усыпаль
хиро
##тын
геном
гробницы
развиты
голубая
изменена
##ловская
петро
исполнительным
турбин
укреплении
##джан
футбольная
интернат
полукруг
колокольни
специализированные
величин
добру
программист
грузоподъем
единоборств
живописец
эсминцев
газы
шип
дубля
ограниченное
эри
расширением
тромбо
сербского
этнические
##гауз
трамваев
мемориальная
max
##усу
допускал
методу
скрипки
междугород
##mit
фила
дистанционно
поклонения
сценах
236
широты
синхронно
классическую
основанное
плоские
стереотип
size
волго
механические
содру
коммунал
wild
домашняя
наукам
мельница
посещении
училищ
##ые
стандартного
электрово
рико
строка
авиационные
530
творческая
sn
соединены
ультразву
двигателе
##бард
банкноты
вестер
излуча
##рским
антаркти
##кевича
эму
репертуара
cit
ханства
строитель
##mp
памятные
катар
линзы
роспись
треков
нукле
палестин
ритуала
коренным
карлик
полис
фабрик
кинематографистов
последующее
##рское
385
сертифици
выращивания
твердые
251
петух
калинин
##yg
календарю
бронхи
##берто
контраст
243
скоростре
293
параллельных
алгоритма
##грен
##93
bit
изготовлен
привлечен
##леи
262
восточным
триа
главнокомандующим
раввин
фол
химическое
окраски
##vers
консерваторию
драм
мань
прототипа
##sen
экономико
растительность
распространилась
var
##вс
генератора
манга
конницы
кочевников
керамики
влажность
оло
умеренных
губернского
создавался
вени
закономерно
атомы
механических
металлургического
собранием
bre
стыке
канона
томах
санкт
символами
##вальда
алмаз
анатомии
канда
волх
##hem
бывшее
мюзикла
улья
1774
тулу
начальном
студенческие
леси
мами
черв
хме
свинца
пластик
##рар
##пие
писателю
обнаружение
таблица
учению
1788
выпускались
кх
244
почетное
культурная
толкования
объединенных
моделях
орехов
малочислен
##azz
обет
присуждена
лих
полумеся
неудачным
стандартная
##раса
шаро
компонента
наместника
эллип
обрядов
предстает
прапорщик
ob
машинист
упруго
епископы
##ее
награждена
теологии
банкнот
крестьянами
##лони
inst
промежуточных
занос
значению
самостоятельные
бронепо
##ops
энтомо
митрополии
терминах
калу
ev
сложен
экстер
автономию
##ts
парком
гум
хромосом
конечная
бры
драфте
рене
кирилли
череду
##57
выдан
кинопро
head
агрегат
бронзового
ass
кит
передав
возводи
кады
пента
##денов
веком
кристаллов
плава
курфюр
губки
историческими
музыкально
every
разгон
задняя
электрическим
институциона
делит
авторитетных
добавлены
послевоенные
fun
мутации
##уто
##цилинд
911
##burg
вилле
вым
##uj
##cel
архитектурного
##крат
старшин
630
##жскую
##мерс
моска
субтропи
##пени
295
##гомери
будни
241
##нео
сапер
##кули
##uter
объединению
##штам
little
коронации
##war
кпрф
исследу
похоронены
такти
выпрям
становление
1782
##мант
авторского
генеа
разруша
чемпионаты
##цик
исполняла
церемони
##гале
канни
упразднена
трос
##еда
оценивал
##зек
people
распространенных
мусульманами
разделял
арбитраж
##rad
молитв
выставлен
плати
диалект
выпускается
садовод
репертуаре
сабли
троян
диалоги
231
художниками
мучеников
##oop
сформировал
племенами
расширил
энциклопедия
объявив
словесности
носило
варьируется
спецэффек
костром
сформировано
комитеты
2024
зеркал
начального
##пура
коим
коллаборациони
##бусы
теоретик
##no
пятница
румян
позволяющая
коммуне
разло
den
туши
##фти
тематику
##van
опора
##гинского
регулируется
сея
месси
эшелон
##ггера
южноамерикан
единстве
специфика
бронеавтомоби
отражении
хард
индикатор
соискание
отрицательным
##бои
практическое
пространств
экспони
окисли
смещение
задаче
##гуля
манускрип
хронике
саван
ил
##лиан
семинарию
погон
##83
олени
соблазн
очерк
эх
размещается
бригадир
черке
расширен
##фальц
строку
##рови
харьков
fact
sci
##ken
многоцеле
исходного
лент
лату
##94
писательницы
финики
##сень
##yc
шаха
строке
мамон
деко
ce
творческую
текто
отсчета
##линская
привода
франшизы
определением
предшествова
симфонии
##aft
графе
тигров
останово
##санов
фестивалях
родство
солов
протек
выпуски
мазу
тиран
сформирова
нагрева
нэ
570
ирони
созвездии
непрерывного
404
рожден
авт
транспортно
ведомости
надгроб
существовавшая
сезонах
артерии
##вея
администратора
##get
олимпиады
механике
преобразована
сжатия
вторжении
сборка
real
включив
выделена
федеральная
##iev
##рола
ликвидирована
инновации
считы
##dd
цветков
денежная
подсе
изобрел
##iens
##чж
подсчет
приводом
пожарно
сото
308
je
кристалла
##гата
##оре
причисля
хот
ремесла
записях
справка
gen
чина
полушария
документально
##вино
мил
##nt
med
##isk
топоним
подавлении
возобновля
юн
##лиев
продолжительностью
добавляется
запатен
метропо
положен
электродвига
##pect
##энд
афе
предания
283
промышленное
эф
##obil
коллекциони
католического
идентичность
монголов
монастырю
казачества
оклад
vo
##aby
296
магом
станков
египтян
объектива
620
доко
##ffect
образованы
святилище
свиты
проложен
начаты
мигри
обои
полушарии
арсенала
являющаяся
механического
клинических
победонос
##даков
характерен
press
пожалован
##apan
содержала
расселения
ареал
восстании
гов
мата
прил
##iti
едины
лицея
орлов
wind
горном
pass
кинофестиваль
королевская
##нелл
спектаклях
let
развивался
карабин
make
католики
253
##iving
##пена
гас
веди
грант
960
утки
употреблял
отстро
археолог
эсминца
авторские
окта
связывается
дневника
поцелуи
ins
преодолев
чернови
hel
дери
брод
##шиков
##яны
оптических
снимались
##lag
предпринята
ами
ручного
митохонд
272
амазо
негатив
особы
комсомолец
##бака
индуи
268
строе
революционные
квин
антропологии
выпущенные
##rod
захоронение
промышленном
винт
граммати
here
пересмотре
развито
бат
##nov
средневекового
солист
##пид
исполнит
избирается
##дове
##hel
звукозаписы
критиковали
лиг
высоки
театральные
met
##star
cor
##нум
клюв
##osa
ядром
##гском
изменено
##реа
полость
терминологи
извлечения
губа
рубле
кустарников
желудочно
предназначался
##юки
фортифика
сплав
игумен
преобразование
зарядов
потомками
mag
сертификации
наместник
тракт
##нник
кмет
##annel
набеги
таксо
##ари
##91
завоевав
say
неяв
##хани
##omi
py
потребля
компьютерах
алжи
воспаления
белорусская
выведена
вышедшая
письменные
представляющая
набережная
##wei
расположенным
командные
спортивно
автономных
##заров
312
вручается
men
санатории
археологические
опорных
сформировалась
day
самос
##утов
компаньон
велича
##инов
сша
царевича
покровителя
публиковались
разработанные
украшен
медвежь
посвященную
276
начат
порожда
##спер
бек
окраска
317
температурах
бегемо
регистр
гм
sw
257
плоского
квалификация
черви
##зании
диссо
средневековья
never
первоначальное
британскими
оборонно
иен
упадка
##uel
переработан
архитектуру
##меле
пастор
романом
краснояр
##81
интерпретация
вокалист
улучшении
##eme
##хок
тле
толстого
хабаров
казачьих
бурят
античных
баков
фольклора
гидравличе
секретно
шифрования
горная
относит
sk
исследовательские
католическая
изменены
состоящее
панорам
кластер
сформировался
военачальников
засушли
##ls
ультрафиоле
ношения
романах
процессоров
##денные
гидроа
художница
архимандрита
##лих
cr
заблокирован
must
осколо
war
плодоро
издавал
512
подразделении
##ксен
##шия
273
шотландского
промышленным
кеса
доминика
афо
##заре
твердого
##ati
трамваи
кругосвет
##чери
pp
синглов
пун
щитов
266
амур
коек
корт
##ante
телесериал
680
иезуит
путина
дози
нага
клипе
##вье
буф
гренадер
плантации
роте
284
##сау
итак
издает
яркости
месторождении
гель
иор
франц
top
коренного
расформирован
преды
хроника
переселение
tv
##графическое
##тык
флагов
алгоритмы
освоил
социалистическая
личинки
комиссаров
труппу
non
христианская
крио
##iba
башнями
вани
##iga
наследования
where
приставки
##gn
механически
политико
дворяне
хау
инструментах
отбывал
lib
##iana
руин
гербе
подпору
246
ингиби
иони
постановщик
разделов
передняя
родственных
##беке
ближнем
морг
дирижер
фигурист
крепостного
причинно
лиса
301
фени
##роле
##ванского
побочных
##mi
овраг
##82
##умы
поселенцев
автогон
фортепиан
требуем
306
включаются
разрез
тематики
образно
1776
персов
литовских
родства
строился
субстра
манги
греческое
490
метаморфо
барабаны
well
аллю
размещался
##aff
1772
речного
стекол
целы
##эс
322
социалистических
##ксе
филатели
кропо
##face
##unch
остео
длительность
драматурга
подшип
астроном
обозначается
фламан
##лля
отдаленно
влажности
подиум
перна
промышленная
применялся
предание
##usic
аю
ve
крестоносцев
переменных
фасаде
экспериментальных
консенсус
производилась
вариации
гонкон
активации
inc
##комбинат
слое
весел
минералов
анар
литературном
примерами
биохими
машиниста
рационально
##регион
лиз
критиками
тележки
танкер
##stein
северным
##хаб
смещения
##гуз
флоры
землевладель
##псу
акционерное
солнечная
суффи
революционер
оригинальным
жгут
##li
прибав
рамо
##ule
выращивают
проектировании
##icial
аллегори
гитариста
перевозка
660
азбу
##orge
монтажа
португальского
днепропет
речных
скиф
288
277
карфаген
##браи
прелом
трека
##rent
письменно
орен
электрон
возвращен
задается
дие
гербом
##лани
румын
климатом
гранит
##гути
##ther
лис
монарх
##acle
коммута
пастора
различают
развил
акула
##христиан
самои
люкс
tem
обеспечив
произведениям
##гео
##хаузен
580
раскрыв
удостоены
pap
##леев
энциклопеди
trans
домен
болгарского
построении
##гет
урочище
##женов
299
оглы
291
древо
веда
1778
##wer
развелись
нике
реж
259
объединил
пищевари
rad
календаре
домена
##каль
древно
дистанци
life
помещи
анимации
драматическом
цин
##lo
полиса
буддизм
управляли
сплава
##тат
саги
панте
нижне
простирается
основанных
греческая
способу
объединением
face
##нона
эмб
осадил
железнодорожное
цехов
too
прикладного
конечных
##като
санд
высококаче
инженерного
освободитель
носителями
##хоф
классифика
выпускаются
стоянка
звучания
##ides
транзисто
диалектов
герцогства
целлюло
##ксо
via
##бактери
география
ранняя
поража
рт
1781
подот
треки
316
##rys
куплен
шелк
образованного
##цием
сложения
роуд
##sm
last
##ague
сумми
335
##денс
рэпер
похоронена
программных
##ament
вис
коралло
комба
##ниев
завязыва
303
помилова
реализма
исследователями
полковники
##рна
экологические
раскопках
разнице
сдвиг
##тты
реин
##вров
обвинен
##ume
обозначен
##yp
венгерских
командор
исполнительница
ареала
мордо
луг
античности
##лопа
##iger
dark
вестник
филиалы
этимо
оле
магнитных
якут
призов
антре
цир
онтологи
тюлен
##полк
именоваться
гуль
##уне
кик
горбу
планта
парижском
изма
##ots
адъютантом
торжеств
родственные
294
##остров
фельдмаршал
содержимого
антио
царствование
##кр
##пане
автодорога
##кари
##нников
mat
внебра
осман
петля
толст
самоуправление
китов
электротех
307
барабанщик
территориальное
##вуда
##заде
нок
##col
нумера
чехи
воеводство
противопоставля
евангель
королевским
колокольня
датского
амортиза
возбуди
биологические
запят
разделен
опытно
патриархом
смыслов
интервал
дефект
паровоза
##цовых
неволе
сосредоточен
специальностям
преподавание
##ствам
цифровые
реплика
##гоном
вторгся
актеру
вектора
1785
дж
##шти
раме
статистического
электрическая
проспектом
инвер
современники
чело
составление
##яков
760
хитов
пекар
иже
510
незавершен
апостол
покинув
345
аппарату
поэму
удалены
живописью
1773
670
дымо
соперничество
справочник
##gor
флаге
дворянского
прерыва
шахта
come
278
литераторов
ver
продюсеры
роко
изображении
отмечаются
варша
267
натур
паши
межконтинента
конструктивно
##тском
нерегуляр
московскую
##gram
take
[...]
